#version: 0.2 - Trained by `huggingface/tokenizers`
i n
Ġ a
Ġ s
e r
o n
r e
Ġ b
t a
t i
Ġ c
Ġ d
in g
r a
l e
Ġ p
n d
Ġ f
r t
Ġ o
Ġ m
t h
a n
Ġ h
l i
Ġ w
a r
Ġ g
Ġa rt
Ġo f
i c
g h
e n
r o
Ġ in
t e
Ġd e
Ġa nd
l o
t o
Ġb y
i l
a l
ti on
s t
ti c
t ing
Ġ th
e s
a c
Ġ re
u l
Ġde ta
Ġ e
h o
i le
o r
i t
u s
ile d
i s
Ġth e
m a
i gh
u n
Ġ li
Ġ v
Ġdeta iled
e d
Ġ k
l y
Ġp a
e a
Ġc o
e t
l a
Ġ t
l u
a li
i g
h a
Ġm a
Ġ on
in e
Ġp o
c e
s ta
Ġw i
r ic
Ġli gh
e l
u t
Ġh igh
Ġs t
Ġpa in
u r
sta tion
Ġ n
p h
ali s
a m
i r
Ġart station
ho to
Ġ r
Ġ j
Ġwi th
Ġa n
h i
Ġpain ting
a t
i d
rt ra
ta l
rtra it
f ul
s s
p er
Ġp hoto
o w
o d
alis tic
a te
Ġf o
i e
Ġs h
c h
o m
k i
nd er
Ġc on
ma tic
ac k
s e
Ġ 8
g e
i m
n e
Ġligh ting
ea u
t er
nd ing
i tal
Ġpo rtrait
m o
Ġ il
Ġhigh ly
Ġ ro
ig ital
p t
Ġt re
Ġg re
o l
Ġd igital
ti ful
eau tiful
t ric
d e
! !
s ki
en t
tric ate
Ġre nder
ac e
Ġin tricate
st ra
lo r
Ġh a
u re
ce pt
Ġm o
Ġil lu
Ġst y
ar d
v e
Ġtre nding
Ġb eautiful
Ġs c
Ġcon cept
ar p
Ġc ine
Ġ -
Ġsty le
s y
y per
Ġsh arp
c us
Ġ to
k ow
stra tion
Ġ 4
ut kow
Ġcine matic
utkow ski
an t
Ġfo cus
p o
v er
an ta
Ġillu stration
lo w
ro u
ra n
Ġgre g
Ġre alistic
Ġco lor
u m
r i
g er
g ra
k e
a s
st er
Ġh yper
e ar
ro m
Ġ en
Ġr utkowski
u c
ar k
Ġo c
i o
Ġ A
q u
Ġligh t
Ġ le
Ġ l
Ġ y
Ġ ra
t ra
r y
gra ph
Ġa t
ta ne
Ġdeta il
Ġs ta
anta sy
u d
e c
Ġs p
m et
Ġoc tane
s i
Ġf antasy
rou nd
o th
b er
Ġs ho
Ġd ra
m e
Ġ lo
Ġb e
Ġ M
Ġb l
Ġa l
ger m
Ġ un
re alistic
ol d
Ġa s
Ġ 0
b o
Ġ la
Ġf ace
Ġf rom
n ing
Ġa r
u p
ra c
re al
Ġe x
hi te
Ġ S
Ġb ack
Ġ 1
Ġs mo
s h
ul l
Ġc lo
c o
igh t
Ġphoto graph
Ġart germ
te d
Ġ 3
un k
met ric
a p
Ġco m
Ġe le
Ġw ear
er y
Ġc h
o lu
er s
a d
Ġ R
Ġb o
Ġbl ack
p le
Ġs k
Ġwear ing
k ing
Ġm an
g round
t ure
od y
g ine
Ġf i
Ġ ta
ul tra
Ġ 5
Ġ G
Ġd ark
k a
Ġ B
Ġw hite
al l
m an
Ġe y
Ġc y
Ġsmo oth
Ġ te
Ġha ir
Ġback ground
Ġ ultra
Ġ is
t y
g ant
Ġc ha
p unk
Ġc a
uc ha
Ġ D
Ġen gine
Ġun real
Ġ C
Ġele gant
Ġn e
Ġ H
Ġv ery
c i
Ġw in
a y
ph on
Ġh o
Ġh ea
er e
c k
Ġs o
on g
Ġ (
Ġ 2
f f
l l
Ġs ha
Ġs y
u ra
b le
re d
it y
Ġ T
ac h
Ġy o
s c
Ġ J
ir l
om an
re ss
Ġb lu
Ġsho t
im e
un g
p ic
f t
i ma
Ġm ucha
Ġde s
phon se
es s
Ġcolor s
w ard
i a
Ġp ro
l d
rac ter
Ġ qu
Ġb ody
Ġey es
Ġ P
ie ce
k s
Ġs u
Ġf ull
w or
at er
Ġw oman
Ġo il
id e
Ġ )
Ġma ster
ud io
i x
t te
ro w
i an
Ġdra matic
Ġg ra
p iece
Ġ z
Ġma g
Ġb a
g s
Ġre d
ig n
Ġcha racter
Ġv i
r on
Ġal phonse
alis m
Ġn o
Ġcy ber
y a
Ġj o
po rtrait
th e
Ġm e
Ġh d
ic al
ti ll
p a
Ġmaster piece
Ġg old
in o
Ġblu e
Ġst udio
Ġg irl
Ġphotograph y
t re
Ġ up
Ġdetail s
Ġphoto realistic
in s
k o
Ġsy m
el l
!! !!
Ġ 9
Ġv olu
to r
Ġan ime
Ġin s
Ġs ur
e p
Ġb r
Ġ W
v ie
Ġ L
Ġvolu metric
a nd
Ġo r
is h
Ġsc i
tre me
Ġd o
ali ty
Ġf e
Ġf il
d s
Ġan g
Ġe pic
Ġw ar
am es
on e
u v
n s
Ġma tte
el d
ut ur
n a
la ss
Ġs till
Ġdes ign
Ġc ity
b i
lo p
utur is
Ġs un
ec t
Ġf or
Ġex treme
Ġqu ality
u te
i on
Ġh or
le s
Ġma de
in ka
Ġ E
wor k
Ġ ti
li c
Ġcyber punk
e an
a v
Ġl ong
g a
m in
Ġa ward
ta iled
ti ve
Ġmo vie
Ġclo se
Ġ u
Ġm ar
ĠA rt
Ġ F
Ġwin ning
' s
Ġw lop
Ġsha d
Ġ K
Ġr u
Ġw ater
y s
Ġf low
r is
us h
i v
Ġo ut
i ant
ap e
le y
Ġre s
re n
t s
Ġs te
Ġn ight
Ġhea d
p p
m ent
Ġfil m
Ġp la
ma le
Ġs m
uturis tic
metric al
de tailed
Ġm ed
Ġa c
re st
ie w
a tion
m er
s on
Ġo ver
Ġh er
Ġc re
r in
Ġv iew
a rt
il d
us e
olu tion
Ġso ft
Ġc an
Ġsp ace
Ġm on
o k
n am
th er
mo s
on al
ta n
u b
sc ape
Ġar m
et y
Ġg low
Ġsk y
en e
Ġ ,
Ġg o
f i
Ġg od
Ġd i
si tion
ran t
Ġcom po
nd s
Ġres olution
Ġfe male
f e
u e
Ġf ea
ci ety
Ġp ix
s hi
mos ph
en s
c ent
Ġd is
Ġyo ung
Ġgold en
Ġro ss
le n
Ġp er
re alism
Ġvi b
Ġ :
Ġco lo
Ġat mosph
in i
k er
h an
Ġm m
Ġextreme ly
Ġj ames
g g
Ġcompo sition
Ġd ress
Ġb ar
Ġw or
um an
Ġf uturistic
Ġwi de
il le
Ġm od
am e
Ġm i
Ġsym metrical
Ġe d
om e
Ġsta r
Ġcolor ful
p e
Ġh is
Ġfo rest
o ciety
t on
p i
m on
ino v
Ġc ute
Ġla nd
Ġro bo
Ġc ar
h e
Ġart work
uv sh
uvsh inov
Ġd y
Ġco ver
w s
a k
Ġfi eld
Ġc at
re am
row n
p hoto
li gh
v i
at ure
t le
in es
b li
Ġlo o
g on
i al
a ting
Ġa d
Ġang le
Ġsk in
Ġ I
Ġp l
Ġs w
un ning
c t
ko to
ph ic
Ġa li
ch e
nam ic
Ġhyper realistic
Ġh old
Ġf lo
gs ociety
inka i
er n
Ġs im
Ġper f
Ġc gsociety
Ġf la
il l
Ġo ld
b y
Ġb u
ro r
et er
Ġs e
m y
or d
Ġil ya
Ġt ran
ne y
Ġp in
Ġk uvshinov
Ġglow ing
g o
Ġh uman
Ġvib rant
h n
Ġj ean
Ġdy namic
â Ģ
Ġland scape
Ġf ran
w a
Ġpro f
Ġgre en
Ġhold ing
s te
i z
Ġ |
an g
as hi
Ġde p
Ġ ima
ing s
s tic
Ġ N
Ġfea ture
Ġd an
Ġs hi
Ġg e
Ġa b
k y
ma s
Ġpo ster
o us
Ġc ra
Ġg lo
Ġg lass
Ġp e
Ġ V
n er
a to
Ġdra w
a st
Ġperf ect
or g
o od
y ing
Ġst re
Ġm ic
b ra
re g
Ġex p
Ġf ine
d ra
u st
qu e
Ġw all
Ġdep th
Ġc le
Ġ 6
Ġs it
Ġsh inkai
Ġma koto
n y
to p
er a
Ġclo ud
an e
Ġ 7
in ski
Ġle ns
Ġf ac
Ġsu per
Ġarm or
v en
in y
Ġg ame
Ġpain ted
Ġstre et
Ġe m
Ġl ar
ir on
e y
z a
ligh t
Ġc am
hi bli
Ġsc ene
Ġra y
Ġw e
Ġar c
Ġd a
Ġv an
Ġ lu
Ġali en
en ter
Ġ it
Ġte x
in d
Ġsta nding
Ġs a
Ġne on
ks inski
Ġ i
Ġm us
v as
ul ar
ura l
Ġ &
Ġt ra
Ġh u
b eautiful
en ce
t ter
re s
Ġg iant
o s
Ġre f
Ġro ck
Ġrobo t
ha el
on d
Ġf ra
v a
io us
u al
p s
er ic
Ġe l
Ġb ig
Ġre alism
i er
n ate
Ġcan vas
ho t
Ġsit ting
Ġa le
Ġdra gon
Ġb lo
Ġflow ers
si onal
o id
la nd
Ġv is
Ġhor ror
ta ge
il li
b r
Ġg u
Ġf a
Ġa m
ð Ł
Ġde ep
ĠG reg
m ic
Ġloo king
Ġlar ge
ro p
Ġw h
Ġf ron
Ġcolo ur
es e
s a
le c
Ġor nate
Ġf ur
Ġst unning
Ġclo th
Ġg hibli
ic k
Ġli ke
dra ws
ashi on
Ġrender ed
ic e
b al
li st
Ġm id
Ġp eter
i um
Ġp rin
h r
Ġc enter
Ġb i
t ro
s ing
Ġjo hn
Ġu nder
ea d
v al
Ġima ge
Ġd ream
w e
Ġbr ight
Ġh e
ran ge
ch ed
Ġli fe
o t
!! !
ric h
Ġtex ture
s et
ach er
g y
b e
Ġf ashion
Ġcon tra
b a
or phic
Ġm u
y o
Ġmo un
Ġfi re
ch an
Ġth at
Ġar ti
Ġen v
es sional
Ġra in
c ess
Ġillu min
Ġwin d
Ġb ra
ra l
Ġw ood
v ing
Ġcontra st
n o
ar y
Ġpo se
ĠR o
Ġbe e
Ġro om
Ġbe ksinski
i st
u nd
a z
Ġc ry
Ġlight s
on es
Ġ O
Ġcloud s
Ġin ter
Ġmag ic
bi us
Ġto m
Ġt w
Ġw al
b org
Ġs il
am i
Ġb rown
rou gh
Ġk o
w er
Ġfran k
Ġfron t
Ġins ide
Ġenv iron
Ġ im
b acher
l ing
v el
e m
Ġsu it
Ġg oth
ow n
the tic
Ġshad ow
it ch
Ġg ig
i ver
c y
Ġp ers
li e
Ġma s
Ġwor ld
h igh
Ġhyper detailed
Ġmo on
le d
Ġg r
Ġatmosph ere
nd t
a g
co lor
Ġb ut
Ġpin k
Ġ /
om et
u g
Ġenviron ment
w ay
h er
Ġs ea
ĠR utkowski
Ġde vi
ri an
Ġ _
Ġmoun ta
bra ndt
hr bacher
Ġ low
Ġp en
Ġp ic
la y
Ġross draws
e bius
ĠH D
Ġb at
ull ins
y e
Ġin to
v id
i ve
Ġt rac
Ġprof essional
Ġv in
ap an
pi red
Ġbee ple
Ġm in
Ġ ir
m s
or ge
tion s
j o
Ġme tal
anta rt
Ġbu ild
i f
s u
Ġb us
Ġth rough
Ġcy borg
es cent
Ġc or
Ġha nds
Ġcom ic
ci ent
Ġof f
ro om
es thetic
Ġtran s
Ġpa le
Ġto p
Ġf ig
ic to
a th
e st
Ġsur real
Ġm y
Ġdraw ing
Ġsm all
Ġillumin ation
Ġref lec
m m
ha rt
on s
Ġst r
Ġp sy
han ce
Ġsc re
Ġk n
is s
Ġatmosph eric
Ġli t
Ġ U
h yper
Ġdevi antart
Ġsho rt
Ġcam era
Ġa esthetic
av id
um p
j i
v il
Ġsc ul
Ġmod el
!!!! !!!!
Ġglo bal
Ġ rich
Ġarc hite
Ġins pired
Ġma le
in ting
a w
Ġshad ed
Ġre al
Ġste am
ar le
Ġcra ig
ly ing
c ra
Ġsim on
Ġte ch
d o
en ta
0 0
Ġco s
Ġvi vid
g an
in t
ti an
Ġth o
z z
Ġf an
Ġsh e
Ġan th
c lo
at ural
Ġc ur
i or
is m
Ġpix iv
ha w
Ġa re
er t
el low
Ġp ur
Ġpo st
Ġmo hrbacher
Ġmo ebius
ress ion
pt ure
Ġfeature s
is e
Ġm ullins
Ġsu b
ri or
Ġc hi
d ess
Ġa bo
Ġmed ium
al f
c ing
om orphic
an ce
Ġbo ok
Ġey e
Ġale x
illi am
li t
Ġcenter ed
e lic
apan ese
ie val
w ell
il ing
Ġp re
Ġpain t
ched elic
omet ric
Ġgoth ic
Ġhd r
li s
ate d
Ġm c
ĠJ o
stra ct
d i
Ġm ark
Ġde f
Ġpa rt
pa per
Ġv icto
Ġch ar
r u
Ġsun set
ke h
on y
ec ker
Ġm ac
Ġs ing
Ġb ea
c ular
Ġra d
Ġa ir
us ta
d a
Ġy ellow
Ġj e
d le
Ġj ack
Ġn atural
ro id
Ġan cient
e k
Ġw a
Ġd on
sta l
a ther
f o
Ġhyper realism
) )
Ġpur ple
Ġa f
le ss
Ġbo keh
Ġ +
ber t
ĠArt station
w n
Ġmo ody
o on
Ġmon ster
Ġpix ar
Ġb ro
Ġyo shi
u ve
Ġp i
e v
tion al
at ch
Ġsta tion
met ry
Ġn or
Ġmic hael
Ġo p
o ple
ille ne
Ġclose up
f ace
rt h
Ġcre ature
Ġpl an
Ġk a
uv eau
Ġwar rior
p per
illene uve
d y
Ġgig er
rop omorphic
gs haw
c ture
Ġbe hance
st y
Ġco l
Ġt r
d z
Ġpa ste
art h
Ġp or
Ġne w
Ġl ine
Ġd ay
Ġs to
in ed
Ġins ane
Ġ Y
k es
Ġs er
nd ecker
us hart
ren z
Ġf rac
Ġpic ture
b b
Ġpla ying
en g
dz is
clo se
ac es
z ed
Ġs n
Ġre tro
Ġgod dess
o g
il la
rom e
Ġ1 9
ĠArt germ
Ġw ay
co la
Ġpsy chedelic
t to
orge ous
tic al
Ġr id
Ġsteam punk
Ġwind ow
Ġmod ern
t en
Ġtre e
Ġca st
Ġf lying
Ġsmo ke
Ġarchite cture
Ġscul pture
Ġs che
ĠA l
Ġk ey
Ġflo ating
ful l
Ġv illeneuve
Ġf in
chan ical
Ġpaste l
Ġb al
Ġwall paper
Ġtho mas
si on
Ġmed ieval
Ġca rt
Ġru an
ar o
Ġd own
ima list
Ġcle ar
li m
c on
Ġcom ple
c a
Ġmag ical
Ġon e
ar s
Ġs ide
Ġtrac ing
Ġh i
m ing
Ġcom p
Ġ es
Ġpe ople
Ġj ia
Ġtre es
f ord
Ġb io
Ġdress ed
Ġgre y
li sh
Ġh el
k en
Ġg i
Ġho use
im al
Ġhu ge
Ġd ri
Ġfrac tal
i th
i es
ol f
Ġmid dle
Ġfig ure
Ġj ung
ir d
Ġh at
Ġan ima
on de
ta tion
Ġsur round
ta r
Ġwater color
et ti
Ġsche me
Ġv e
Ġma x
re e
Ġh y
Ġmas k
Ġf lu
Ġho ur
Ġ Z
ĠM a
Ġb ow
Ġno uveau
u gh
Ġin k
in a
ant s
Ġir id
et ta
Ġplan et
Ġh ard
Ġv al
high ly
Ġg orgeous
Ġy ear
ĠT he
man o
Ġsk ull
Ġf igh
d en
wa ve
Ġco her
a re
Ġab stract
pp y
ir ds
c ha
e e
Ġb ur
Ġta n
âĢ Ŀ
Ġfeature d
l ar
Ġha nd
hi p
Ġp ar
Ġd avid
Ġsurround ed
Ġde co
i ble
Ġm ach
Ġfo g
Ġro b
Ġb la
Ġam bi
c al
Ġan ato
Ġsha p
ec k
Ġcle an
Ġde mon
ke y
Ġac tion
Ġt er
ma z
ere my
Ġim p
ti o
si ere
Ġg er
Ġbl onde
Ġba arle
Ġin d
ĠC h
um ford
ut ure
Ġb re
ĠJ ames
i te
Ġf ish
Ġshadow s
r ie
Ġle ye
e en
Ġleye ndecker
Ġg ian
Ġcoher ent
ha ds
Ġ) ,
Ġp an
d er
Ġm or
Ġsci fi
Ġirid escent
Ġj apanese
Ġdis ney
g es
Ġh alf
Ġt ri
Ġe ating
Ġs et
Ġand re
Ġcart oon
Ġc ushart
Ġbat tle
ens hot
et ch
v y
s ur
onal d
Ġs and
ec tor
ast on
Ġra tio
Ġsp aces
graph ic
un ge
graph y
Ġdes ert
Ġr hads
z etta
Ġw illiam
Ġwal king
Ġw ho
Ġambi ent
v es
Ġch ris
d uc
Ġlo ish
âĢ ľ
Ġba gshaw
Ġlo is
ver y
Ġh ar
c er
ri al
Ġinsane ly
il de
Ġe ff
Ġblu r
! ,
Ġbus siere
Ġbuild ing
Ġlo ve
ĠA n
Ġk renz
il y
r ing
Ġa round
Ġ tal
m ed
Ġo range
Ġc ard
si an
h u
u er
bo v
Ġtw o
Ġmag ali
Ġv ector
t t
ra te
b l
Ġway ne
y p
Ġin f
ur ney
ur y
ha g
Ġa st
Ġanth ropomorphic
el an
ĠM o
x y
a ut
Ġf ro
Ġbe ach
el s
m p
Ġta ble
Ġvin tage
pp ing
w ater
c tive
Ġg aston
Ġkn ight
l er
Ġeff ect
Ġg al
bov it
Ġman ga
b ow
ilde brandt
id en
ro ss
Ġsil ver
ce an
u th
Ġn ature
Ġprof ile
( (
st one
Ġe th
Ġbar o
ere al
Ġj eremy
Ġrad iant
Ġnor man
s p
Ġr im
li ke
L O
Ġsym metry
Ġdo g
o ra
len hag
inka de
Ġbaro que
Ġ x
Ġcry stal
re c
Ġs qu
Ġcloth es
Ġsm iling
li an
s ide
Ġti me
Ġinter ior
u ro
Ġg usta
a b
Ġgian cola
Ġrock well
Ġcolour s
cra ft
Ġsta t
Ġcon te
ini tion
Ġa maz
Ġbr u
pa inting
an a
LO P
k in
Ġgra phic
ch er
Ġro man
ra y
sy m
Ġs am
Ġfac ial
Ġpers on
ic a
ic h
Ġcover ed
Ġl ines
ĠW LOP
Ġe vil
Ġb as
Ġpo wer
Ġal l
Ġstar s
h d
Ġdon ato
Ġsta n
z e
Ġsn ow
Ġm ix
Ġsk etch
Ġp al
ino us
Ġcine ma
Ġk im
or is
Ġb le
Ġra ys
Ġha s
la sh
Ġdef inition
Ġanima tion
Ġm umford
s o
Ġmu ted
Ġo cean
, ,
ĠM ar
Ġd im
Ġbr ush
Ġwar m
Ġz dzis
li zed
or m
Ġflow er
ard en
low e
Ġsci ence
e x
Ġlight ning
ul a
Ġmag az
ul t
Ġs tor
lo g
i k
Ġle ather
Ġfra zetta
ron aut
Ġn a
ali st
Ġpo p
Ġt ur
Ġf er
ga i
Ġcomple x
Ġhel met
ho use
Ġr iver
Ġmagaz ine
top ian
av es
c le
on ed
po cal
a ge
iss ance
Ġrid ing
Ġdis tan
Ġqu een
Ġfra me
m en
Ġsho w
Ġmac ro
Ġal b
ĠM ucha
uc k
v an
Ġs po
Ġs le
pocal yp
w in
Ġeth ereal
Ġc ent
id er
Ġmus cular
Ġa ss
a ss
Ġcos mic
br ush
Ġbo y
Ġvis ual
a le
ic ial
Ġ ice
om b
Ġphoto realism
Ġk ar
Ġmounta in
Ġw ings
Ġma ss
Ġcast le
Ġk inkade
Ġexp ression
Ġj es
gg y
. .
or n
ho st
ne tic
n ie
Ġg ar
m i
Ġin c
Ġan imal
z y
el f
Ġs wor
Ġr un
ha m
Ġshi rt
Ġk ing
ro t
ic tion
Ġand roid
c ute
Ġst one
Ġsc en
Ġp ark
Ġpale tte
Ġscre enshot
Ġm ys
t ty
Ġprin cess
Ġfigh ting
z ard
Ġflow ing
p ec
Ġamaz ing
Ġv ide
m inous
p ro
ĠL e
br id
Ġpa tter
Ġop en
Ġexp lo
Ġ ðŁ
el ly
Ġstat ue
Ġw ild
us ion
Ġabo ve
s ho
Ġstr ong
Ġcolo red
Ġch e
Ġp h
v ed
Ġmounta ins
ff y
ep y
s ky
i ti
Ġ us
ur ing
Ġd en
ut er
ĠJ ean
ine matic
Ġhands ome
Ġti m
et te
Ġru le
Ġhea ds
Ġor gan
o f
ke le
na issance
o la
Ġg arden
Ġstan ley
ille ard
Ġy a
ĠS h
u rt
Ġtal l
hi ro
!! ,
Ġarti st
Ġh an
ta ka
Ġpa per
in ing
Ġd ys
Ġpro duc
n ess
Ġlit tle
Ġang el
Ġn gai
r im
Ġc ap
Ġsta lenhag
Ġte m
Ġhuman oid
Ġ ]
Ġfac es
j ima
Ġsur realism
la w
ic an
Ġf iction
r it
Ġc lass
Ġf uture
h ind
ent s
Ġm ul
Ġdesign ed
Ġg en
Ġspaces hip
s ed
Ġc ir
Ġta tto
b s
Ġm ead
Ġe arth
h ead
Ġst ra
ĠT re
Ġ ;
Ġg host
Ġhea vy
Ġa ki
Ġar mo
d ing
c il
Ġsho ul
ble s
Ġast ronaut
o c
Ġe mo
Ġed ward
Ġth irds
Ġc g
o re
Ġgr im
and oned
Ġbe hind
Ġ ic
Ġmach ine
tra ctive
Ġw itch
ĠE d
ĠRo ss
Ġsty lized
Ġsing le
Ġw as
Ġhy brid
pec tive
ĠD e
ress ive
ĠAl phonse
o p
Ġrender ing
Ġbar lowe
od ak
Ġpers pective
al low
Ġfo x
Ġha ppy
Ġla ke
Ġbe ard
Ġa mano
Ġh ildebrandt
Ġv illa
ĠP a
gra m
Ġlo go
Ġac c
Ġglass es
Ġa pocalyp
Ġ [
ber punk
Ġfa ir
nd y
n g
ug uer
Ġs um
Å Ĥ
o ks
Ġa u
Ġmi st
Ġm er
Ġl ush
Ġsm ile
Ġfur ry
Ġblo od
b all
Ġre naissance
Ġtr ump
Ġpre tty
ra va
Ġs ad
ĠU n
Ġprin t
Ġchar lie
Ġma d
o rtrait
ric k
Ġw at
Ġ iv
Ġf u
Ġher o
Ġle ge
Ġf re
l in
Ġcyber netic
Ġmar ble
ri st
lis m
Ġjack et
Ġw et
pp ed
Ġbe ing
Ġc row
b u
Ġc rown
Ġw ea
hi ko
Ġdi rec
Ġb an
st ro
Ġloo ks
Ġswor d
Ġb ed
n th
Ġho od
un t
Ġsc ho
o v
Ġdraw n
Ġc el
Ġyo u
Ġcomp uter
ush room
Ġpo lar
Ġreflec tions
il m
ĠB e
Ġg a
lim t
x t
ĠTre nding
gg io
T he
Ġro und
le t
Ġtem ple
Ġgra in
Ġrain bow
ren t
y ami
Ġto r
le jo
Ġg urney
al ly
ÅĤ aw
la d
kele ton
Ġvide o
r uc
Ġmar c
et s
Ġun iver
g ent
rava ggio
Ġbow ater
er ie
c is
Ġd nd
Ġman y
Ġjung le
la in
Ġcre epy
Ġo ther
te s
Ġit s
Ġli p
w atch
Ġs ung
Ġch ild
uguer eau
f ish
lo gy
un e
j sing
Ġsim ple
Ġab andoned
c ed
Ġne xt
c les
Ġk at
ber g
ĠS t
Ġp unk
Ġc e
it s
sh ing
Ġm ushroom
Ġc al
qu id
ap or
Ġd ust
re y
Ġgra di
Ġsun ny
iz on
Ġsp lash
Ġdys topian
in ity
pi re
Ġorgan ic
Ġfla t
Ġb er
Ġ2 0
g u
!!! ,
ar i
ĠS im
Ġpl ants
Ġje w
Ġth ick
Ġc ris
Ġen g
en ti
Ġg round
c re
Ġme chanical
Ġfo ggy
Ġd rin
ĠE n
a u
Ġunder water
Ġmy ster
li stic
Ġgo od
ĠA nd
rth stone
um e
at ter
Ġre m
Ġgra ss
A n
ph e
Ġcloth ing
Ġt y
Ġwi zard
Ġmic ro
p or
Ġb all
ines e
i red
n ed
p lay
Ġa mer
Ġst ro
Ġt iny
Ġlo ok
Ġh q
Ġsh iny
Ġu hd
Ġdi ff
ph en
Ġco w
Ġsc ary
h ns
Ġpla y
rt y
g irl
in k
con cept
l an
S tation
f ine
Ġsha pe
Ġr i
Ġat tractive
or y
ad ing
Ġshap es
Ġflo or
Ġb li
Ġne b
Ġba by
ri es
j a
Ġde l
hns on
Ġb et
Ġhor se
ur g
b an
Ġho pper
fi eld
ond er
Ġde ad
ĠArt Station
d ark
bo y
Ġmix ed
Ġsmo king
Ġb ear
ta in
Ġto wer
ment s
ac o
Ġgal a
ĠH o
m es
Ġm en
Ġhea rthstone
bo x
b in
Ġpen cil
w o
ce lain
Ġr y
Ġs al
Ġc ho
Ġarti stic
Ġba k
Ġabo ut
p ple
Ġfo o
an ime
Ġb oris
Ġre p
Ġg illeard
Ġshad ing
g ed
Ġm el
re alist
Ġge ometric
za ki
Ġs old
lu cent
ĠUn real
li ta
Ġwood en
c an
al d
ĠF ran
Ġli sa
Ġjes per
Ġmass ive
un ny
Ġwh ile
Ġwin ner
Ġh ill
bo ard
Ġk limt
f it
Ġpor celain
cess ing
Ġuniver se
Ġe jsing
Ġfin al
Ġs li
lass es
Ġtech no
Ġyoshi taka
Ġli quid
Ġc la
ph er
ec ha
per a
ter est
Ġla dy
H D
Ġw olf
to ry
Ġinc red
Ġma ke
j es
te l
pt y
lu min
Ġscre en
Ġstor m
ĠH igh
Ġfair y
se ph
a ki
i ta
Ġsp i
c ho
Ġo minous
Ġj ones
Ġscho ol
ust rial
Ġpolar oid
ut y
Ġv apor
Ġde lic
ust in
Ġcris p
len t
nd o
uturis m
Ġv er
or k
d ed
Ġalb um
Ġt ro
pa rent
Ġ3 5
Ġroman tic
Ġor nam
Ġoc c
ĠR e
ura te
Ġpo ly
Ġen er
Ġn eck
Ġr us
Ġand ers
ĠY o
il s
Ġlife like
Ġwi res
ĠP hoto
ĠM ark
v g
i b
Ġsy d
Ġsy nth
Ġw u
Ġfo od
gg ed
ron e
c om
l ine
li es
Ġoff icial
Ġrem brandt
Ġmo uth
Ġe erie
Ġproduc t
Ġjo e
Ġca ve
Ġillu stra
m ar
Ġshi p
Ġtrans lucent
Ġm es
Ġsc atter
Ġneb ula
Ġj u
Ġun if
ura i
ĠEn gine
ya zaki
Ġde ath
Ġdan cing
Ġmor ning
f uturistic
ard o
Ġvilla ge
Ġsung lasses
1 9
o ts
Ġhor izon
m ical
Ġdream y
Ġha ired
Ġfro g
up p
t ch
Ġc li
Ġth in
ĠS te
Ġd ol
e th
Ġlege nds
Ġmys tical
Ġval lejo
Ġg un
Ġfoo tage
ĠI n
ch rome
Ġe ld
bl ack
Ġra p
Ġmin imalist
d igital
Ġsp ec
ya ma
Ġbi ome
j ect
Ġic on
ff iti
Ġst range
id ent
Ġdistan ce
Ġble nder
Ġm echa
to mo
Ġline work
Ġf le
Ġco st
Ġle e
Ġtexture s
Ġs at
u it
Ġo b
we en
Ġed ges
Ġsimon etti
Ġv am
Ġe nd
Ġto wn
Ġmyster ious
che v
Ġcur ly
ch ess
w ar
sym metrical
ra d
Ġconte st
Ġc ross
v ad
Ġray tra
Ġe ar
tan ley
Ġacc urate
ĠSim on
Ġf ar
b re
as h
Ġout fit
Ġvicto rian
Ġha d
th o
Ġw ell
Ġed i
a i
Ġis ometric
Ġho t
Ġunif orm
Ġste ve
ĠN e
c hi
sta r
Ġbet ween
Ġgusta ve
ia bovit
s es
iabovit chev
Ġar ch
m id
Ġsum mer
Ġmed ia
Ġind ustrial
Ġflu ffy
th ers
mic han
Ġpin terest
Ġs ol
Ġem pty
m us
u ki
Ġpo sing
Ġover watch
mo to
u nder
er o
n i
cy berpunk
Ġh ell
Ġgra nd
Ġs ar
Ġla s
Ġst ri
Ġcent ury
f x
li g
Ġapocalyp tic
Ġsh allow
Ġc ub
Ġr unning
g ing
Ġs na
Ġla u
Ġg ear
Ġtrans parent
Ġf all
Ġlo t
f ilm
Ġbla de
Ġultra fine
P ortrait
Ġh am
Ġs tic
ĠJo hn
Ġca ravaggio
Ġb en
Ġstr uc
Ġb rom
Ġele c
Ġbre ath
l usion
Ġyoshi da
Ġb ird
Ġbo uguereau
f all
Ġpa ul
Ġsp ider
Ġs ome
lor d
Ġle aves
ti s
Ġpower ful
Ġgra ffiti
ĠB o
v ent
o lo
Ġko jima
anta stic
ĠS tanley
Ġbuild ings
Ġcan on
p g
ri f
Ġfo re
Ġro ad
ĠAnd re
Ġj a
Ġarm s
bb it
Ġshe et
ĠP eter
e pic
Ġdo c
Ġe ars
lita ry
Ġwat son
Ġstruc ture
Ġset ting
Ġdrin king
Ġf am
Ġs keleton
t ri
Ġs ec
ten se
ation al
Ġkar ol
ss on
Ġgre at
rou p
Ġw onder
Ġheads hot
s ch
Ġpro por
Ġang ry
ines till
Ġrob es
lu stration
Ġbo t
Ġback lit
ha il
Ġel f
Ġes ta
Ġle ng
Ġpain ter
Ġpo int
Ġwar s
Ġkat su
ta king
Ġde c
Ġste phen
Ġmul ti
Ġta k
Ġc ell
sc uro
Ġne o
Ġpor tal
Ġcinema to
co co
on za
aro scuro
om en
hyper realistic
ach in
h en
Ġleng th
Ġin tense
la ge
Ġclo ak
Ġbut ter
Ġelec tric
ac on
to m
Ġm ir
Ġarti f
Ġman chess
Ġlu x
bli shing
Ġd unge
Ġvapor wave
Ġex po
c es
Ġamer ican
Ġsw im
Ġat ta
Ġbo x
Ġa yami
Ġvam pire
le x
Ġrobo tic
c inematic
Ġtra vel
Ġso ul
ag ue
ey e
re t
inka wa
Ġsqu are
Ġchi aroscuro
Ġrun ner
Ġgra y
Ġle on
o o
Ġth ree
Ġtan k
ĠHD R
li te
Ġzdzis ÅĤaw
Ġdirec ted
Ġdelic ate
sc ent
ma sh
omb ie
Ġte en
en ami
Ġe very
Ġfan art
Ġbea uty
Ġs ign
ĠM i
Ġshap ed
it t
a o
l s
lo ck
Ġte eth
rit te
el b
Ġle gs
Ġch inese
Ġsw irl
co re
b ur
sty le
Ġco at
Ġanato my
Ġgra iny
Ġsp ir
Ġv ray
Ġta rot
Ġdeco ra
urg ens
Ġcost ume
a tor
en se
Ġca nd
n ight
Ġbiome chanical
Ġc as
ma moto
Ġfla re
Ġsam urai
ren ch
Ġglo om
Ġsp ark
ad er
f ra
Ġgala xy
is on
Ġpa th
i el
ry lic
st ruc
Ġw av
qu is
s an
close up
Ġesta blishing
vg ren
Ġw atch
Ġwall s
un ter
d ers
Ġg la
bovit z
jes tic
Ġp ig
Ġe ver
w al
!!!!!!!! !!!!!!!!
sur face
Ġdo re
ka to
Ġpatter n
Ġre y
Ġthe ir
Ġultra detailed
Ġillustra ted
Ġimp ression
Ġbio lumin
li a
ris e
Ġn i
Ġn ear
Ġst ud
Ġhea rt
Ġmi litary
Ġw ha
Ġphoto sho
Ġstro kes
u an
Ġanato mical
Ġvis ible
Ġscatter ing
i i
ho u
Ġ ern
v is
Ġj im
Ġf antastic
Ġpla stic
et ro
cha racter
ĠBe ksinski
Ġblo om
Ġde pic
Ġener gy
o king
na b
Ġm ini
Ġk i
Ġac cent
ri ed
Ġk odak
Ġfor m
Ġs ed
Ġk e
Ġmo tion
Ġgu y
ea t
Ġraytra cing
Ġexp ressive
Ġro coco
Ġma rt
Ġg roup
Ġta ken
Ġb ub
Ġno se
ream ing
Ġry den
Ġg ta
Ġmir ror
Ġli ving
ĠD an
us k
u ff
Ġmi ke
Ġg row
bo ok
Ġn ic
ga in
Ġbeautiful ly
Ġa te
Ġco ol
w oman
Ġan nie
low n
Ġre c
Ġs elf
Ġgradi ent
Ġex tra
hail an
ic hael
ol phe
ĠM c
vi et
Ġwe st
Ġm il
Ġsun light
Ġan am
Ġtatto o
og ue
Ġa enami
Ġreflec tive
Ġd ali
Ġs ki
Ġz a
ĠB a
Ġjew el
Ġc ut
d in
Ġa pp
Ġto oth
Ġle ague
ĠT om
Ġanam orphic
ĠA r
Ġa gain
Ġfan box
Ġbru ta
Ġde v
Ġman n
Ġscen ery
Ġfil led
b or
la bo
Ġ ur
Ġe mer
Ġaki hiko
Ġbe er
Ġb ord
ĠP o
Ġac rylic
ed i
Ġdragon s
g al
Ġh im
Ġge o
Ġta r
re ct
Ġn in
Ġgre ek
Ġho lo
Ġg il
Ġje ff
Ġyear s
Ġk yo
ig er
Ġj elly
Ġsold ier
iz ed
Ġale na
lo t
Ġd iv
li d
Ġpi rate
Ġbur ning
Ġaf ter
la s
Ġma nd
Ġpo ol
l r
o il
Ġgusta v
Ġbutter f
vad or
Ġd r
Ġta ke
b ar
Ġern st
Ġp res
Ġl in
Ġfran cis
ver n
p ed
Ġwater fall
Ġf rie
Ġlo st
Ġwindow s
ach e
p la
Ġno ir
Ġhea ven
lu m
n old
Ġse en
Ġbo b
a nder
u a
ta ble
wor ld
photo graph
Ġpo rtra
Ġg hailan
ora ble
Ġair brush
Ġsym metric
ĠMa koto
Ġa symmetrical
use um
Ġn ational
a de
Ġjo seph
phon e
as ley
m od
Ġs or
Ġate y
Ġzdzis law
ss y
b ody
top us
Ġp ear
Ġro be
Ġth is
Ġmake up
en n
c king
Ġch rome
Ġw omen
Ġwe ta
Ġr ing
Ġcre am
Ġb old
Ġarmo ur
ho l
po ra
Ġpar tic
i bovitz
on o
is tic
Ġyo ji
en tal
r ight
pic al
ligh ts
Ġmon o
ric an
Ġbl an
mas z
Ġkatsu hiro
Ġbro ken
lish ed
Ġt ones
Ġg onza
Ġro y
Ġgi ra
ĠSh inkai
Ġdi rty
Ġg am
ĠPa inting
Ġma jestic
Ġshoul ders
Ġf ir
Ġli on
quis ite
wor ks
Ġth ere
Ġsh ining
ĠL o
Ġsh inkawa
v ille
Ġbl ond
) ,
ning ton
Ġbr id
Ġha lo
an tic
Ġda wn
Ġgr unge
i us
g ar
ff inity
w ood
Ġy ork
k u
ti al
o tic
Ġwh elan
Ġjo han
Ġko pera
Ġagain st
d es
Ġlip kin
Ġthe me
Ġco t
Ġaccent s
uc hi
Ġba se
Ġco ff
Ġjo san
l la
rou d
Ġhad id
Ġc lay
Ġcolour ful
Ġdo or
Ġmetal lic
Ġmus ic
shi p
Ġb iden
Ġd ia
ke mon
Ġhu ang
ĠM ichael
ta il
ĠN o
Ġdi am
f or
Ġla te
Ġo tomo
Ġr pg
Ġis land
Ġcha ir
Ġc ig
ro c
ti me
Ġg lit
Ġdo f
sta gram
Ġmo st
Ġs light
2 0
Ġout side
Ġh all
ĠA mano
ky o
a f
Ġto y
u ache
Ġsci enti
Ġa sian
Ġrich ard
ill er
Ġsar gent
Ġsur face
Ġp y
Ġmi yazaki
Ġbru ce
as on
Ġjewel ry
ter ial
un ch
ĠEd ward
Ġd re
Ġbli ss
Ġme ch
Ġba nd
Ġspir it
Ġ iron
li p
ï ¼
Ġh ow
Ġflo ral
Ġd s
ur ry
Ġmar s
Ġj an
Ġmel ting
Ġanders on
Ġsc ale
Ġpla te
Ġth rone
Ġpart s
Ġpart y
w ide
Ġde stro
ar row
Ġon ly
Ġup per
Ġad orable
Ġd uring
it z
Ġjo hnson
Ġcli ff
a h
l ace
Ġwin ter
p en
pa rt
Ġad vent
t wo
Ġoc topus
et t
Ġk it
Ġcom ing
man n
Ġmic h
rt x
di tional
Ġd onald
Ġ lord
Ġbo sch
Ġsed uc
Ġb ul
li ce
ma ster
in n
Ġsc ot
Ġh id
en ing
ure d
Ġs i
Ġincred ible
Ġsynth wave
win ning
Ġm useum
Ġco ld
Ġp ier
iz za
pora ry
6 0
ko v
5 0
Ġha un
ura ted
ac t
Ġel vgren
ma t
Ġem ma
Ġmo od
Ġcon f
o ut
ï¼ Į
Ġla b
Ġcow boy
Ġf at
Ġv ogue
si ve
Ġv o
if ic
ger s
Ġ id
ma x
ĠC G
Ġz ombie
Ġmag ritte
Ġli ps
p son
Ġmi sty
ĠSimon etti
Ġw hi
Ġgraphic s
labo rate
Ġan ton
y an
Ġgo uache
er ed
ly a
v in
ĠSt udio
in al
Ġfam ily
Ġandre as
Ġt one
k ini
Ġh ol
Ġe ach
Ġbra in
z en
Ġb ad
ĠZ dzis
Ġma ya
u ch
Ġh ome
min al
s till
Ġt v
f antasy
Ġto masz
ing er
Ġwav y
Ġru ins
Ġcomic s
ham mer
z u
Ġc lu
Ġoff ice
Ġma terial
Ġa ra
Ġ er
Ġv fx
Ġus ing
f a
Ġvis ion
ĠMar c
Ġs an
Ġshow ing
log ical
d onald
Ġstreet s
Ġseduc tive
ĠD avid
ord an
do or
Ġf rench
eck el
âĢ Ļ
Ġo w
r id
Ġcinemato graphy
Ġv a
)) ))
Ġcoff ee
d ay
h ar
ch ini
Ġfa b
c ut
s ure
rif ying
Ġt enta
qu i
Ġa len
yo ung
Ġk id
Ġth under
Ġsc reaming
Ġswirl ing
ĠP ix
ur ie
Ġc inestill
Ġch rist
Ġl one
Ġr is
ĠI lya
Ġtra in
sa ur
Ġb acon
cra f
Ġc lown
at s
u el
Ġtak ashi
to rial
r ig
Ġra bbit
Ġex quisite
ĠK o
ĠL au
ĠE l
Ġsym bo
or i
ura ta
Ġsto ry
n t
Ġsur realist
b at
Ġbi kini
Ġh ang
Ġ #
Ġla st
fra me
Ġde an
ĠS p
Ġal bert
Ġsp e
Ġem b
ĠM on
Ġma ge
Ġemo tional
ĠYo shi
g iant
le ar
Ġdri pping
Ġmar vel
Ġmin ima
Ġultra realistic
ry ing
Ġen ti
ra k
ho r
Ġgeo graphic
craf tian
h ere
m porary
ster n
Ġfla sh
Ġsub surface
Ġclass ic
Ġstra ight
Ġk ir
mo vie
Ġwe ird
Ġg ather
Ġra l
Ġe laborate
y ed
A rt
Ġpro cessing
th ing
Ġcos play
ter ior
son a
photo realistic
Ġfocus ed
Ġchris tian
m ber
Ġanth ro
Ġza ha
Ġbreath taking
low ing
Ġve ge
Ġsa ki
Ġre ne
ĠA d
Ġtra ditional
Ġcol lage
Ġgo gh
Ġdim en
din and
Ġ âĢĿ
th ed
Ġb rian
Ġval ley
us tic
Ġ rtx
ad a
Ġsta ge
Ġg ate
Ġarc ane
hou ette
Ġv ar
ĠW illiam
Ġfe min
Ġglit ch
Ġover g
p es
an th
im ir
Ġswim ming
Ġse xy
Ġsun rise
Ġka wa
n ic
Ġro bert
a ra
Ġsp ell
Ġin stagram
Ġau to
g ue
tter ed
n es
ber to
.. ..
Ġshoul der
Ġr ight
Ġlo ts
Ġds lr
p ar
Ġa way
Ġj ustin
sym metry
Ġc r
Ġp izza
Ġp ris
Ġli ve
Ġsh ell
Ġpainter ly
ms ical
Ġle vel
Ġn ad
Ġb ones
Ġa we
Ġfur sona
i tar
ĠK ar
Ġbot tle
Ġdoc tor
Ġir is
Ġwor k
ep ing
Ġan a
one y
Ġs ac
Ġso viet
Ġbruta list
Ġs ig
es el
Ġto kyo
Ġw aves
Ġphotograph ic
ĠC o
i fe
Ġw o
Ġch est
Ġgloom y
ent on
j u
Ġlo u
Ġiv an
od a
g en
Ġdo ing
Ġf al
Ġdol l
ĠCh ar
Ġscen ic
Ġty ler
uc lear
un ner
co lo
Ġcreature s
w ear
ut ter
Ġass ass
Ġa ge
Ġla ugh
ad o
Ġma p
Ġsna ke
Ġa v
Ġru gged
Ġmo use
Ġconte mporary
Ġpix el
a ve
li ty
ĠT o
Ġfine ly
Ġste el
Ġjelly fish
Ġdistan t
Ġd ino
Ġwh ere
Ġpo lished
Ġcor rect
Ġk is
h ur
Ã ©
il lustration
Ġr on
ick en
Ġf ru
rac k
Ġfac ing
Ġtatto os
g as
Ġgar mash
Ġsaki michan
Ġfle sh
and a
ter n
e le
us s
in ess
Ġw es
ĠU HD
Ġw ra
Ġd usk
Ġno vel
Ġtechno logy
Ġti l
Ġ Ġ
Ġfer dinand
Ġcg i
ĠA lex
Ġpo kemon
Ġv ines
Ġte le
Ġarmo red
ĠDe tailed
e f
Ġfo rt
Ġf ight
li on
Ġs av
Ġkyo to
in tricate
Ġbe st
mon d
Ġexpo sure
ur n
um n
Ġmus k
Ġwood s
Ġta kato
ik on
ea th
Ġroy al
po rt
Ġan ge
ĠHo pper
Ġsor cer
treme ly
ver ti
Ġpen nington
Ġmini ature
Ġvin cent
Ġfin n
ma re
Ġ ian
Ġgrow ing
ty pe
Ġa z
Ġj urgens
Ġad am
Ġspe ed
ess ica
ĠM at
Ġmu ch
Ġk nab
Ġya mamoto
li x
Ġn et
le z
Ġrobo ts
Ġnad ar
Ġli minal
Ġd in
Ġca bles
Ġcrow d
to pher
Ġglo ssy
Ġgig antic
Ġbu st
Ġbra d
Ġwor king
v ic
Ġsil k
Ġexplo sion
Ġt u
mo re
Ġcry ing
Ġb irds
li er
Ġr ings
Ġb el
Ġme ga
am p
j ian
(( ((
ud d
Ġa ura
Ġgu itar
ac tic
Ġbra id
Ġcom m
ĠFran k
un ji
d is
Ġto c
ce l
la nds
ll ar
Ġhor ns
Ġfigh ter
Ġtoc chini
Ġvin ci
ĠAndre i
Ġfea thers
Ġassass in
ura ffinity
lad imir
Ġ X
enta ro
ĠB ro
Ġpropor tions
sc ra
c at
Ġmon et
Ġwhi msical
top ia
Ġsing er
or ph
nd a
ĠC ra
Ġu fo
Ġandre i
s m
Ġg ro
u ble
Ġromantic ism
ang jian
Ġlux ury
Ġele ments
rak li
d ie
Ġt eng
en a
ma tion
Ġro of
u ke
Ġz brush
Ġa part
Ġpa ge
Ġart em
Ġco zy
Ġtexture d
b row
ap ti
Ġtro pical
Ġwatch ing
z ki
Ġself ie
Ġflu id
u de
Ġre t
re k
Ġf unny
Ġmar io
Ġsal vador
Ġs achin
st ing
Ġi rakli
Ġgather ing
Ġmushroom s
Ġdi esel
fi ed
ĠT ran
Ġshi ft
Ġbro oks
Ġtake uchi
Ġaf rican
Ġbord er
Ġf uturism
Ġh unter
Ġscot t
Ġnin ja
Ġa pple
Ġsym b
Ġf eng
Ġe ven
Ġlas er
y uki
Ġdunge ons
Ġstic ker
la x
Ġa ut
Ġki lian
ony mus
gy p
Ġ '
ut in
Ġc up
Ġfemin ine
Ġoverg rown
Ġpo rt
ph ant
lu e
Ġ5 0
Ġcrystal s
Ġha eckel
su it
phon es
Ġrap hael
Ġha ving
ren ce
mo us
Ġocc lusion
ĠG hibli
Ġsw an
h uman
te in
er ial
Ġb ill
Ġta il
Ġ2 00
Ġl an
bo t
pa g
te c
er ry
ib ly
Ġdri ving
ĠRoss draws
scra per
gyp tian
Ġmc c
ĠM an
Ġ ï¼Į
ini te
Ġdemon ic
Ġbe an
st on
j ime
ne c
th ul
ĠC inematic
Ġpo in
Ġro ger
ur ch
Ġger ald
Ġle ibovitz
Ġdes k
b lo
h in
Ġse e
Ġz e
c tane
s to
Ġsc a
ĠCh ris
Ġt ub
s ci
Ġs ch
m or
Ġsta ined
n ch
Ġh ier
te ss
Ġla y
er ing
pa th
Ġfan cy
Ġta king
Ġfab ric
Ġfall ing
Ġlove craftian
Ġwa ve
Ġfir st
Ġv ol
ba ma
Ġpatter ns
apti ste
ti es
c ar
photo graphy
Ġblo ck
ĠB ar
Ġg as
ya o
Ġaut umn
Ġc er
cre te
Ġra iny
Ġla w
Ġtravel er
max imalist
a ble
Ġsil houette
Ġgira ud
Ġco urt
ri er
ĠG re
Ġs ens
Ġp et
Ġden is
ĠE m
enta ry
Ġthe y
Ġthe med
Ġh en
Ġl ace
om orph
Ġcar ved
ct ural
Ġedi torial
Ġcol lec
Ġpainting s
Ġh ed
Ġtor n
Ġtri bal
Ġf enton
Ġintricate ly
Ġhood ie
ĠD ev
Ġser ene
Ġte al
Ġhang ing
oth er
Ġfla mes
Ġmes sy
Ġyo ur
arp unk
Ġkir by
ĠG o
g re
Ġsc ar
Ġsky scraper
Ġalex ander
ar on
Ġc ro
ĠCra ig
Ġreflec tion
Ġch an
fe male
Ġp iece
Ġger ard
ĠG iger
ach u
Ġho le
ra tion
Ġob ject
Ġcharacter s
Ġbed room
Ġgu angjian
el ing
ron ic
Ġti ger
Ġsho p
f er
ĠHigh ly
zz ard
Ġto ward
ĠW ar
gh t
upp et
io s
Ġchild ren
Ġro se
Ġv ast
Ġha yao
Ġwea ther
Ġb ay
omet ry
da ily
Ġz en
Ġpl ant
Ġdan iel
Ġma ndy
Ġdino saur
w ers
Ġt urt
ĠT ho
Ġbrid ge
Ġte a
Ġsto re
Ġfil ter
v o
Ġsac red
ĠR uan
ol ar
Ġho ly
rom an
Ġen chan
ĠS tar
Ġpe ace
ho g
Ġpa ra
Ġdark ness
Ġtenta cles
Ġcon crete
and ro
Ġfig ur
8 0
Ġnight mare
Ġana log
Ġ range
Ġcam p
Ġle ft
Ġa qu
Ġflo od
ĠJ ia
ĠK uvshinov
tor m
Ġn uclear
Ġpo lice
Ġra t
her o
Ġleon ardo
bar ian
y ard
Ġwea p
Ġde m
ĠR iabovitchev
r ump
Ġref rac
ĠC a
Ġli bra
ell ing
Ġarch daily
Ġg et
Ġad verti
to ric
f low
Ġm urata
ad in
Ġs ense
Ġi to
Ġwar hammer
Ġh r
Ġstor my
s ha
Ġphotosho ot
Ġz hu
Ġwar craft
Ġpla in
ro matic
on ic
Ġow l
Ġ Q
Ġcity scape
Ġge ometry
ĠPix ar
Ġf uraffinity
Ġsnow y
Ġspi ral
ĠB ow
Ġw ill
Ġso ph
Ġtex t
Ġad olphe
Ġtil t
Ġfa de
fi re
Ġti tan
Ġlaugh ing
Ġanatomical ly
Ġimpression ist
Ġla urie
Ġsw ea
ĠBa gshaw
Ġsoul s
Ġn ec
Ġn ikon
Ġc arp
il t
Ġt un
tan t
ge lo
Ġto ge
go t
Ġso lid
se y
ĠH e
Ġfu ji
y d
ha e
Ġhi ro
Ġex per
o per
re an
Ġf ul
Ġro ll
Ġas h
Ġbas ed
Ġspo rt
Ġrus sian
ran ger
Ġd ru
ĠRe nder
Ġtoge ther
s hot
Ġmo tor
Ġscienti st
Ġd ie
an ye
k et
shi ft
Ġslight ly
Ġv oid
Ġ19 9
ĠMa x
Ġdis co
ub by
ĠG e
Ġo ri
Ġwor ks
pag anda
o om
Ġo li
pro f
Ġk ind
f uturism
Å Ħ
Ġf roud
si zed
Ġb on
al a
Ġdepic ting
sur d
Ġeffect s
t in
f orm
e u
Ġmo re
oth ic
Ġoc to
Ġtrac ed
ck ed
Ġco ral
ÅĦ ski
Ġd m
lo oking
it er
Ġal che
Ġbut cher
Ġcon tro
Ġal ley
Ġn ix
Ġr iabovitchev
tri x
Ġan other
Ġcub e
Ġk en
que en
Ġhigh lights
h ong
Ġmax imalist
ri ff
ried rich
am punk
b ing
itch en
il ly
ĠC y
Ġk on
g ic
Ġfigur ine
en gine
ĠC on
Ġw he
Ġche ese
ma il
Ġbiolumin escent
aco ste
Ġj ar
Ġv io
Ġj ump
ran ch
Ġmead ow
Ġgla mo
Ġsha man
Ġcot tage
Ġsty lish
Ġbo ss
star k
i re
Ġla p
Ġno t
g in
Ġmag n
Ġd ro
Ġm al
anth ropomorphic
Ġha ve
Ġsens ual
Ġhead phones
Ġab surd
si ÅĦski
d d
ĠO ctane
st unning
Ġhan s
Ġ era
am ic
w here
ĠChar lie
thul hu
ti sh
Ġsh utter
ĠMo hrbacher
Ġwater house
sc re
are tte
Ġbar barian
Ġfre ck
Ġch urch
Ġcal m
Ġspo t
mo tional
u rant
Ġkn ife
ma id
ir ing
Ġe at
Ġso ra
ĠJ apanese
Ġinf inite
Ġjo y
Ġfore ground
Ġde vil
Ġal one
Ġin tel
ea rt
pro cessing
Ġfrie nd
Ġc ape
Ġadvent ure
ud ini
Ġpartic les
a king
Ġdiv ine
Ġp ea
Ġd uck
ea listic
Ġsh in
Ġk itchen
b on
ĠG usta
Ġme chan
Ġca thed
Ġfur n
Ġeven ing
ĠM ullins
Ġm ind
Ġen gra
ta lie
Ġmo ss
Ġhi p
Ġcir c
sp ace
Ġsol arpunk
Ġcathed ral
Ġlu min
Ġmus cles
Ġf ung
ha us
Ġur ban
Ġdiesel punk
p y
Ġp ul
!!!! !
co t
Ġp ho
sta urant
Ġdi st
Ġp le
Ġm ud
Ġj unji
i ro
ge hog
ĠH ildebrandt
on a
Ġbutterf ly
ign ola
a tive
Ġcig arette
ĠV in
Ġpal ace
Ġmys tic
l k
Ġarchite ctural
Ġsm ith
Ġfe et
Ġfea t
ĠJo hnson
Ġout er
Ġholo graphic
r itch
Ġha jime
w hite
sta d
Ġhero ic
en gh
ac ha
Ġhyper maximalist
Ġthe m
n el
Ġsora yama
ra mid
Ġe gg
Ġcast ing
ri a
Ġca ndy
uc ker
zz zz
Ġlibra ry
Ġac ross
Ġj essica
or man
Ġsp ri
Ġed ge
J o
Ġst ream
Ġra w
f ect
bo ra
Ġre staurant
Ġocc ult
Ġful ly
p rin
Ġmart in
Ġdo om
Ġgrim dark
Ġsta nds
ĠRo ck
it ty
ĠE x
Ġbal d
Ġbal ance
Ġco up
en ix
Ġme ta
ĠL a
Ġaf ro
Ġsymb ol
Ġs ph
Ġlone ly
lo on
Ġpal adin
Ġg az
Ġro ses
Ġfla g
Ġes cher
Ġele ct
kov sky
lu ring
Ġun i
Ġocto path
ĠB y
Ġstar ing
Ġa w
ac ts
way ne
Ġmon key
ĠG er
ĠB ak
Ġlu is
stad t
te ch
Ġcon ta
Ġra ve
Ġchar les
ran ce
ĠKar ol
c ast
Ġpa ss
Ġapart ment
Ġmcc urry
ĠB la
it ure
Ġru b
Ġin se
Ġre ading
ĠT a
Ġcloud y
Ġs us
Ġbli zzard
u ka
engh ua
Ġbo ots
Ġcar s
Ġw ere
Ġaki ra
Ġgonza lez
' t
Ġh al
Ġve ins
Ġpan ora
Ġpro paganda
ier stadt
Ġmulti ple
Ġme g
eld ing
ĠBow ater
ul k
P G
es c
em ma
Ġvege tation
ris tan
Ġre lax
ff e
ge m
Ġnix eu
sc ul
Ġp r
Ġ1 8
Ġmoon light
elan gelo
Ġbo at
Ġsle ek
Ġpo tter
Ġclo sed
Ġral ph
ha t
v ia
Ġhier onymus
Ġa aron
Ġchris topher
Ġe gyptian
Ġcer amic
Ġp ra
ĠS o
roman cer
Ġex otic
ho p
vie w
Ġa i
Ġfractal s
ĠH yper
ĠSte ve
Ġle d
Ġso ciety
Ġg ent
t ent
Ġch icken
Ġsim pson
li fe
m ac
o ise
sh in
Ġclo ck
Ġro cha
olar oid
an y
Ġbat man
Ġjack son
Ġsle eping
Ġturt le
d om
Ġsur f
ĠMo ebius
ĠW at
g od
ĠM ag
Ġs up
el on
Ġca ustic
Ġth an
Ġfor mat
bi es
Ġbea st
Ġ1 6
Ġis o
Ġg all
ra ys
Ġgre asley
and y
Ġph ys
ĠD ra
d an
us ed
oc lass
Ġdiff er
st udio
Ġp u
ĠTho mas
ce p
ĠS aki
s co
bora tory
ron es
Ġrock s
ov sky
Ġch ubby
Ġmin imal
Ġg ap
Ġpal m
ay a
Ġmand elb
ĠH an
Ġvi king
Ġstar ry
Ġdis play
Ġclass ical
Ġunder ground
Ġcry engine
Ġl acoste
ma te
Ġsig ma
an cient
Ġan ti
hen ie
is sion
ĠM e
Ġjo ker
ĠW hite
Ġmi ura
Ġce iling
Ġfreck les
ro ll
Ġblur ry
g reg
ver se
ur er
Ġne ut
ile s
Ġdecora ted
ed o
T A
master piece
Ġfade ev
Ġd war
Ġla boratory
Ġcat s
ac ing
unk o
aw ad
Ġb ranch
Ġr it
Ġover sized
Ġla va
ĠH Q
Ġcar l
Ġgu ard
Ġhar ris
Ġs ti
Ġc ron
er m
Ġanimal s
Ġg li
Ġgen er
Ġblo ss
ar re
Ġsw amp
Ġdel ville
Ġkawa ii
o to
Ġher pen
ad y
Ġw ow
er on
iant Art
Ġarm y
Ġfeat uring
row ave
Ġornam ents
art work
Ġma king
ass o
Ġvision ary
Ġd om
Ġk entaro
Ġminima listic
i p
Ġabsurd ly
Ġco unt
Ġbi rth
Ġgradi ents
he i
co at
Ġart gem
Ġj ason
Ġcon c
Ġter rifying
ĠKo jima
te ctive
el li
ach ing
Ġe os
Ġfo ot
Ġcre w
ver s
ay ne
awad zki
Ġ ly
ĠD is
Ġlou is
k ers
Ġtoward s
k achu
Ġfurn iture
Ġgall ery
Ġb od
Ġwonder ful
Ġp hi
Ġre se
Ġp ie
Ġapocalyp se
el le
Ġpro cess
Ġp ony
Ġfla me
y on
an o
ul ti
Ġv en
b us
Ġpy ramid
Ġf un
Ġbe low
Ġv ader
Ġcolo ss
ĠC ushart
i ting
u ta
Ġteen age
Ġfru it
nd om
ad s
su per
Ġwas h
Ġre ality
ĠH ar
Ġsuper hero
Ġstud y
ion s
Ġout door
Ġsto ck
Ġbloss om
Ġz ero
Ġco uture
Ġincred ibly
b en
d ress
s k
Ġa erial
Ġgr itty
Ġden se
Ġdiffer ent
Ġba th
ond on
Ġv ic
Ġele phant
Ġemer ging
Ġil lusion
o ver
Ġcoup le
Ġcap tain
Ġge orge
we g
Ġb aptiste
Ġgent le
Ġwith out
Ġevery where
Ġs tal
is ley
ig an
Ġcloth ed
Ġbub bles
Ġs lim
le scent
Ġ: :
Ġjes us
Ġneut ral
bl in
Ġwe stern
Ġlu minous
Ġgal actic
Ġsh ark
Ġhood ed
Ġwh ich
u to
po p
sta n
is ha
ĠR PG
Ġor ig
der unner
Ġkis sing
Ġart hur
ĠMat te
Ġh om
Ġmy th
Ġkim ono
Ġn as
ĠG od
ĠB ek
ish ed
a ster
ine craft
al ter
ach rome
in ted
to s
Ġrain ing
Ġla ying
h ard
Ġdiff use
r us
ĠP ortrait
l ack
on ds
Ġgra ce
Ġray mond
j un
z ation
ĠD igital
Ġcaustic s
ber ry
Ġali ens
arle tt
Ġj en
tor s
Ġc rim
ĠA yami
Ġim po
Ġan t
Ġb ron
y m
Ġskull s
Ġs iz
ma rt
Ġdm t
o ting
z i
Ġred shift
s torm
Ġbo ard
ĠL eye
Ġcre ated
ate s
Ġgirl s
Ġsub tle
min ator
Ġcor n
ĠLeye ndecker
ligh ting
ir ly
al s
Ġwal ter
Ġmon k
mod ern
Ġc ru
od achrome
Ġsta ir
us a
Ġcy an
Ġskin ny
u stration
Ġa th
en berg
is ed
ud y
Ġvib e
tch ing
Ġb unny
Ġmo ther
um ber
Ġcolo ured
ĠAn ime
Ġb one
ra in
ex tremely
bur ger
ĠH a
ĠWat son
e et
Ġ ent
ĠBek siÅĦski
z o
igh ting
Ġwi elding
Ġro set
Ġartif acts
Ġpho enix
p iring
Ġc l
Ġj ak
sh arp
gu y
h is
ini ster
ste m
Ġhed gehog
Ġp ub
ĠG u
n ical
ĠK renz
Ġdestro yed
iv ing
Ġsec ret
lo us
um b
ĠM ac
ub rick
ba ra
Ġear ly
ĠDev iantArt
\ '
Ġgreg ory
o u
us es
Ġad rian
ad ed
og lu
Ġmon ge
Ġfire f
Ġb ec
Ġan na
gg ing
Ġsp la
ti l
Ġp ants
Ġch in
b ea
Ġal luring
istic ated
i ra
ĠBro oks
jo e
Ġil ustration
Ġ( (
m ark
Ġf ear
ce oglu
b ack
Ġe v
b lue
Ġatta ck
Ġshort s
P hoto
Ġlate x
ĠD A
Ġswan land
Ġdem ura
e z
ĠSaki michan
lo ut
Ġcon nec
ĠG illeard
b by
Ġbo tan
Ġass et
rig ger
Ġro ots
si ons
be th
Ġwra pped
nd ed
Ġphotograph ed
Ġ19 7
on ge
Ġre b
Ġi ta
if er
yo shi
y n
Ġk ne
Ġret rowave
Ġski rt
Ġfinn stark
Ġti ght
Ġmul tic
Ġs la
roc ki
Ġbus iness
ab rocki
hae lite
h ic
r ish
Ġmonster s
Ġange lic
ucker berg
Ġor c
Ġma trix
fo rest
re l
d rop
prof essional
Ġf ast
ro us
Ġd u
ĠV al
Ġhaun ted
g ame
Ġne oclass
Ġs id
Ġde tective
Ġpi lot
Ġwi re
Ġge m
ti en
Ġco ck
g or
ti f
th y
Ġte am
Ġno ise
fo re
b ig
Ġsph ere
ĠF o
Ġp ress
ut s
u per
Ġm is
Ġser ies
Ġartif icial
z al
Ġart works
mo e
Ġfea ther
Ġpic asso
Ġfriend ly
Ġanima ted
Ġsat urated
Ġbub ble
Ġcount ry
Ġblo ody
ger y
Ġcre ative
c as
Ġho tel
bo b
Ġcir cle
Ġo m
ul ation
wa re
Ġb ierstadt
Ġto mo
Ġj on
Ġcent ral
Ġro yo
ĠW ayne
Ġover looking
ab stract
Ġfi lig
ĠG ra
Ġbla derunner
Ġv r
Ġcomplex ity
Ġphoto real
uro ra
Ġmer maid
ĠA ki
ds on
ugh t
Ġgli tter
Ġen ter
Ġpeace ful
Ġd av
Ġb il
Ġw right
Ġsp a
Ġcom bat
Ġgo ing
Ġar nold
Ġz orn
st r
Ġo bs
ĠI S
Ġcra zy
ep e
ste ampunk
Ġstra w
Ġru sty
van ced
Ġa ud
Ġsp ring
Ġbu ilt
w ing
Ġpl ace
Ġillumin ated
Ġa x
men tal
ĠW h
Ġser ious
Ġbraid ed
Ġmagn ific
org i
Ġprofessional ly
Ġlumin escent
le on
ical ly
Ġflood ed
w ski
n et
Ġa pe
Ġ lying
per or
world ly
Ġsoph isticated
Ġy u
Ġca ke
pa int
Ġpan el
Ġmono chrome
Ġe lite
Ġv s
ĠB oris
ev es
es ti
Ġo rt
w olf
Ġlar ry
ĠC ar
ĠS w
Ġdiam ond
vin tage
Ġp ond
Ġun ic
sh ar
ĠR ed
ci al
ti le
Ġhair style
Ġe c
Ġma t
Ġwar frame
Ġbus y
Ġdunge on
Ġpsy cho
ic ature
Ġn er
Ġel ven
Ġchi bi
o lor
Ġfor ms
tto m
Ġvol can
Ġs inister
Ġgear s
Ġprin ce
Ġperfect ly
ĠDA Z
Ġrep in
Ġhill s
Ġand y
ci a
Ġe i
Ġp utin
u es
Ġb ern
Ġenti re
Ġw ed
Ġind ian
Ġris ing
k odak
Ġin ceoglu
Ġdo uble
m b
in as
Ġbron ze
ndo za
ali en
ĠT eng
Ġm ur
Ġsy stem
qui at
k as
Ġi f
Ġre gal
g et
Ġang ular
e the
Ġj ordan
iz arre
Ġmid night
Ġeld ritch
Ġgap moe
en omorph
old en
Ġpres ident
Ġk odachrome
Ġsp rigger
ple s
n igan
Ġstar ring
ĠF ra
bu ild
Ġve hic
ĠRock well
Ġa ged
Ġb ud
Ġt su
man uel
Ġartist s
Ġsw irly
Ġsqu id
ĠT rump
z el
Ġm ignola
Ġexp lor
B eautiful
Ġno stal
vis ion
Ġra ndom
e ff
Ġb ell
ver ing
Ġpro motional
Ġdream like
Ġenchan ted
is a
sc al
Ġpl ush
Ġf li
Ġdef ined
sur real
d ream
Ġt in
an ge
Ġka ethe
Ġj apan
Ġdiam onds
ĠA mer
Ġha ss
a ward
c ke
cola te
Ġfla ming
org an
!!!!!!!!!!!!!!!! !!!!!!!!
iv az
Ġf red
do g
es ha
ĠS achin
land scape
te m
Ġh it
Ġbo ttom
f ting
Ġmax im
Ġc iv
as to
struc tion
m und
ĠS ta
ph in
Ġsa i
cy cle
ĠZdzis law
Ġg n
Ġproduc tion
Ġb ull
aco b
Ġli am
Ġsho ot
ĠG urney
Ġfish eye
ge y
Ġcollec tion
Ġban gs
Ġbutterf lies
Ġexplo ding
Ġin ti
e ve
i ers
ĠNe o
Ġspark ling
Ġjump ing
ut ch
ĠZdzis ÅĤaw
!!!! !!
Ġheaven ly
tre nding
Ġhis toric
Ġma id
y lor
Ġre n
Ġv el
Ġplanet s
Ġm etro
Ġeld er
Ġfilig ree
les tial
H Q
ch en
ĠO r
ĠIS O
ts u
ch ing
Ġbo oks
Ġz hong
ĠF antasy
ĠAn nie
ight on
Ġclu b
h y
Ġf enghua
Ġiv ory
ĠPa ul
f la
Ġm elan
ĠR em
Ġg rin
Ġz awadzki
Ġrock y
ĠO il
scre enshot
p sy
Ġor b
Ġz i
Ġlove craft
Ġj ust
Ġfo li
Ġam ong
Ġpier cing
Ġe ast
Ġti e
Ġgo blin
Ġle af
Ġco llar
Ġe van
Ġsign s
Ġal an
Ġed die
Ġm om
Ġcon rad
Ġcha os
colo ur
Ġconc ert
Ġsc hi
Ġm ural
ĠWh elan
Ġmed ita
Ġvis or
Ġro t
Ġj et
Ġsho oting
Ġca bin
li za
Ġpa scal
Ġele ment
Ġemb roid
me er
Ġstunning ly
Ġtrans for
l on
Ġrock et
ĠR ich
Ġz oom
Ġis mail
Ġfoli age
sc ale
Ġj od
ari us
z an
p ix
Ġsc an
am une
Ġfo und
A d
Ġb it
c ol
Ġ ted
Ġa g
Ġmon um
Ġbattle field
Ġf riedrich
Ġwar hol
tan g
Ġdre ad
Ġsc ra
Ġne ws
Ġjean s
Ġhall way
i li
Ġblan che
Ġmagnific ent
ul d
Ġother worldly
Ġber key
Ġjak ub
Ġhaun ting
z illa
Ġf it
sto ck
Ġp ile
Ġconf ident
e ta
Ġ ric
Ġg own
Ġj aw
Ġbe fore
Ġle vi
ĠDis ney
s d
Ġr utkow
f ic
Ġ rick
Ġp ack
tic elli
Ġch ess
ĠFran cis
enn ifer
Ġb izarre
Ġback drop
Ġpro ps
ries tess
Ġget ting
Ġa p
Ġsiz e
Ġth ing
or s
Ġfigure s
er ence
Ġsit s
Ġmark et
Ġneck lace
Ġgrace ful
ĠM umford
u rop
Ġbio punk
Ġn ice
Ġsub ject
at urated
Ġed lin
ar ing
ĠB iden
ĠC ha
ia ra
Ġex terior
ere hin
ta le
Ġexpression ism
liza beth
Ġu e
Ġfac tory
Ġad vanced
c ap
Ġbow l
olo red
Ġmaterial s
ep pe
etro s
Ġel son
Ġrit ual
ec tion
k el
Ġple as
s er
Ġda z
Ġp ed
Ġfo ur
Ġna talie
Ġ *
g th
Ġa va
all s
m ist
y er
Ġg inger
b ro
red d
Ġjohan sson
ic s
Ġel more
Ġgonza les
h q
nder e
Ġtra il
Ġha ute
ron t
l tra
Ġsta nd
Ġmotor cycle
cel lent
li co
Ġart s
Ġth or
ĠR y
Ġdan ce
Ġf ree
Ġkit ten
ma to
scul ine
s el
Ġn arrow
ins on
elb lad
ivaz ovsky
Ġg lor
Ġwe b
ma d
ore scent
Ġsport s
in ts
ĠD o
Ġdec ay
Ġw ine
co on
qu oise
Ġph one
Ġvar ious
Ġv ladimir
Ġban k
Ġengra ving
p ress
uc iara
!!!! ,
ok y
med ieval
Ġnic o
Ġtub es
eld a
lig ence
Ġch romatic
ĠB eautiful
Ġpi kachu
har me
Ġartstation HD
Ġth ird
Ġimp asto
Ġfrie nds
Ġu topian
g lass
per ture
Ġlege nd
Ġh ulk
Ġmas cot
Ġretro futurism
Ġd ry
ur ious
Ġvib es
Ġp ri
Ġg or
color ful
and ra
Ġhead dress
Ġse mi
Ġbas ket
Ġgen era
ã ĥ
gh etti
ig e
al ing
Ġj ura
bor ne
Ġm iss
ðŁ ĳ
Ġco uch
Ġf ern
us hi
Ġro d
Ġha ze
Ġhuman s
Ġglamo ur
te ndo
ho las
Ġwith in
by ss
Ġya ndere
Ġban ana
Ġcas par
Ġj in
Ġm eat
Ġwed ding
n ite
Ġk ubrick
Ġf aded
ĠCa ravaggio
Ġfro zen
u ous
is ometric
ins tein
Ġcontro l
Ġma sculine
nder son
pla te
Ġge isha
Ġy oda
Ġru ined
Ġger man
and alf
Ġen hance
Ġle mon
Ġfuji ta
ran cke
ĠH ay
Ġsa ul
Ġflu orescent
s elf
Ġs pher
Ġlip king
Ġfar m
Ġcand le
rancke vic
Ġb es
ish ing
gg les
Ġcomple te
Ġweap on
ĠArt em
Ġwa x
Ġda g
Ġconcept ual
Ġfi er
Ġcar icature
c enter
Ġpl ane
ĠN orman
Ġf light
l ane
ĠD a
i ju
is ted
Ġro ugh
ĠA t
Ġr if
Ġunic orn
ranckevic ius
Ġtur n
Ġsymbo list
Ġra ce
r il
Ġj am
rin k
Ġsol ar
Ġufo table
Ġvio let
Ġbotan ical
iv al
ster s
ck s
Ġdirec tion
ĠT im
Ġf ed
Ġte ars
aro que
Ġex cellent
u le
Ġle tter
Ġsta ff
Ġel on
Ġwha le
Ġno rth
Ġmy tho
ĠMi yazaki
ĠYoshi taka
um ps
Ġra m
ĠV icto
ed ric
Ġho uses
ĠS c
bb ie
Ġs ay
Ġf unko
ĠD on
Ġback lighting
ĠC hi
ĠY a
ĠB lack
Ġdust y
Ġsca les
Ġqu art
Ġins piring
b id
Ġz oo
Ġme ndoza
Ġtur quoise
Ġh ack
ĠP ro
ato shi
rie st
Ġa perture
ðŁ Į
ma ta
Ġp riestess
ĠD ark
hyper detailed
or mous
Ġid ol
Ġle go
Ġsing ular
Ġ q
Ġw is
Ġch erry
ĠW u
Ġgod s
ar rie
Ġcha ins
Ġdes ola
Ġross ier
Ġho pe
mo th
ĠL ighting
ĠAl bert
Ġp upp
el ds
im inas
Ġima x
ti v
Ġatta cking
ĠD em
Ġac id
Ġhan nigan
urop ean
b old
Ġmil ky
Ġmas amune
stan ce
Ġra ven
Ġce lestial
Ġcomm ission
Ġg ad
Ġmach ines
Ġsorcer er
Ġpar rish
Ġshi row
mas aki
co li
Ġmc queen
Ġstri king
o se
v et
Ġco pper
Ġpar is
.... ....
Ġima gery
Ġwas te
wal ter
Ġro berto
Ġta c
Ġmax field
Ġmil k
y le
Ġma in
Ġtur ner
Ġpre c
c tion
p ur
Ġmu tant
ka zu
Ġrad ia
is to
Ġca fe
Ġlu ci
i ac
ha ra
Ġ1 0
Ġtre nch
Ġph il
ĠBar lowe
Ġlaw rence
ĠJ es
Ġdimen sion
g ly
Ġsold iers
Ġski es
Ġaz tec
Ġori enta
in en
Ġm ck
ow ski
ep lay
Ġadverti se
Ġintel ligence
ĠM andy
Ġin t
re nder
Ġend less
c z
ch t
po lis
Ġdraw ings
ed a
Ġdream s
Ġscul p
Ġdie go
Ġcar rying
id ian
ian o
Ġcho colate
ĠBo uguereau
Ġbr un
7 7
om ber
um ble
i ft
Ġth ings
Ġtor so
ĠG TA
Ġcrim son
Ġt ristan
Ġhair y
ta to
Ġcrew dson
Ġs top
h s
p ing
Ġm uppet
an ing
od e
Ġ8 5
Ġch eng
Ġartstation hq
Ġmed ical
Ġpear l
ma g
Ġfo c
Ġwa ist
Ġbirth day
Ġgra ve
Ġheads et
Ġsorcer ess
Ġf ate
Ġskin ned
Ġ7 0
m ia
om ing
Ġhor key
shi rt
Ġmelan cho
Ġdesign er
Ġsli me
D onald
s un
Ġcand id
Ġn am
Ġle n
ĠNe w
Ġd un
hyper realism
s ma
Ġ .
Ġg ang
ĠJ urgens
Ġfor d
uff e
esti val
f an
c en
to se
ĠB ee
Ġgo ggles
Ġnec romancer
m ith
ĠS a
Ġeat on
m mer
r un
ub e
itch ell
gy n
Ġcirc uit
Ġ å
Ġc orgi
Ġand ro
uc ci
Ġstar ship
Ġfiref lies
Ġort ho
i light
Ġa urora
stic k
si a
Ġcur vy
esc ence
Ġth rones
ug ene
Ġfort ress
io t
Ġka ta
p us
ĠC om
Ġba g
Ġeng lish
ar ch
o b
l ants
Ġs ep
Ġpa nda
han g
Ġmad house
ruc tose
lan tis
Ġdru id
Ġc thulhu
Ġe tern
Ġmich elangelo
Ġg ames
Ġnet work
Ġter minator
Ġrid ley
Ġmedita ting
Ġto wers
Ġdesign s
Ġa byss
Ġhe len
Ġinter est
Ġtal king
Ġscre ens
sp ital
Ġspirit ual
Ġpris on
ul ate
ile t
Ġem peror
ĠLe on
ear s
Ġda ta
m less
Ġpe tal
Ġx enomorph
Ġbase ball
Ġw w
Ġle g
Ġdes aturated
b ly
Ġsw eet
Ġvolcan o
te ad
Ġback light
Ġornam ental
Ġshi eld
Ġhass elblad
v ell
Ġd j
Ġbrad ley
Ġnature l
Ġmen acing
Ġmaster ful
k n
Ġking dom
rt on
Ġart style
Ġca ge
Ġw ing
Ġgod rays
Ġeld en
Ġartstation HQ
lu c
Ġornam ent
Ġperf or
Ġwonder land
Ġw ol
Ġstructure s
ĠRy den
qu in
Ġed gar
Ġho udini
Ġbar low
no op
ĠDem ura
ĠD el
Ġita lian
Ġpo l
Ġto dd
li th
ri tish
y bara
Ġsp ray
illi ant
Ġtw in
l ac
way s
zal ski
ye th
io ra
Ġandre w
Ġara b
gyn ous
Ġs ony
ed iminas
ill ing
Ġgo ro
zz eta
p re
z er
Ġgrim mer
Ġpupp y
Ġw en
Ġspo oky
Ġno ah
Ġover head
gy le
Ġp lu
ĠS e
Ġho spital
Ġc ec
ndo roid
u x
od ore
Ġaf shar
Ġspec ular
Ġvib ran
Ġstro ke
Ġlux urious
Ġl sd
Ġimpression ism
Ġtech nical
Ġg henie
Ġl ondon
to wski
ie j
Ġbre ak
ĠA f
ĠC ol
s il
Ġp it
Ġe k
Ġsub stance
Ġspaces uit
od ing
ĠB rad
ag le
in ation
Ġne k
be e
Ġcas ual
Ġfoc cus
g un
Ġf estival
ĠB at
Ġfro st
ok u
Ġbas quiat
Ġ199 0
ĠR ealistic
Ġno ble
ĠJo seph
Ġhair cut
Ġpear lescent
Ġg riff
Ġbal loon
Ġspa ghetti
ap ple
itz weg
t ling
ec ca
Ġrif le
Ġc rack
len gth
2 2
Ġcur ves
Ġs atoshi
Ġmar y
ath taking
o ter
Ġfe w
Ġcra sh
Ġadam s
lo yd
Ġhu gh
Ġ19 80
ĠBee ple
ĠS al
Ġat tri
ĠG rim
Ġko rean
sc ious
Ġreal m
w art
ro bot
Ġsta ples
Ġs onic
Ġk ra
Ġdimen sional
Ġb ol
Ġp red
Ġme me
Ġf ructose
u ma
Ġf el
Ġgra v
Ġath le
Ġblu th
ĠNo uveau
ĠS he
Ġphotosho p
len n
Ġru towski
ill s
Ġya masaki
Ġlas ers
e ting
es is
Ġb isley
Ġfron tal
acha d
a a
am s
Ġse ver
edi ted
Ġtomo yuki
u k
st s
Ġsc roll
Ġ4 0
Ġsp itzweg
vern ay
b ess
Ġlo ading
Ġred head
1 60
Ġun edited
Ġla m
w ling
Ġcla ws
Ġclay mation
Ad olphe
Ġc iti
Ġal ter
ge lion
ĠR ay
Ġsky line
Ġalb ino
Ġshirt less
h ea
ta chrome
ge nds
en ed
l lustration
ho le
Ġbr illiant
c lay
ra vernay
Ġins tead
Ġu nd
S ociety
us sian
Ġv ir
Ġd arth
Ġt rying
Ġfern and
ĠCy berpunk
Ġvibran cy
Ġeye brow
p lace
Ġo s
Ġg iving
Ġenti ty
ĠEm ma
Ġhar ry
ĠRem brandt
Ġspla tter
Ġle esha
Ġam ber
Ġmultic olored
Ġava tar
Ġ( ((
ex p
arius z
Ġfer ri
Ġmyth ical
Ġe ly
Ġtu x
Ġn av
jo hn
Ġcoloss al
acob son
Ġfig ura
Ġver tical
Ġcottage core
Ġp riest
Ġre v
Ġj edi
Ġrep res
Ġo bama
Ġlap top
ĠJo e
ric ks
o ka
Ġb ush
ĠVal lejo
c ity
ĠHay ao
sa ber
Ġbra z
Ġelect ronic
Ġdesola te
ic y
Ġcos mos
Ġgaz e
Ġprocess ed
Ġandro gynous
Ġh oney
Ġey ck
iz ing
Ġge ms
Ġste ven
Ġwho le
Ġjen ny
build er
i ence
ĠV an
Ġsle nder
Ġcir cular
Ġcrow ded
Ġkid s
Ġport man
s is
allow een
Ġaqu a
ĠFra zetta
e la
Ġto ri
ord on
id a
Ġwear s
Ġpla sma
Ġvic tor
Ġd ar
Ġpa tric
Ġcla ude
sta nt
ĠH er
ĠC he
ĠT h
ra s
Ġfe lix
Ġfron ti
un a
Ġbre aking
Ġo h
Ġscar f
Ġpa t
Ġun f
tom u
flow er
itt mann
p ack
illi e
iora ma
ho b
Ġ âĢ
Ġe uropean
redd ine
Ġd rone
si ao
4 9
Ġmus ta
ĠTo oth
Ġgenera tive
Ġinterest ing
Ġm all
mo v
Ġfi ery
ĠJ ack
c lass
Â ł
ha nds
Ġdwar f
d ow
Ġdim ly
ĠChris tian
Ġuni que
im en
ĠP er
Ġembroid ered
Ġmad ison
i et
Ġfo ss
ĠC an
Ġref erence
Ġv est
Ġn ick
Ġinse c
Ġfier ce
re tro
rou nding
Ġbra nd
re et
Ġli zard
Ġdan cer
Ġtw ilight
b aroque
j andro
Ġt ony
ĠA ward
Ġexplo sions
Ġwha t
Ġgam eplay
Ġpetal s
ĠE r
ba ev
Ġlow brow
Ġborder lands
ie f
Ġac t
Ġbas tien
an i
Ġnek ro
Ġbeard ed
Ġsm ir
d u
Ġlight saber
Ġfi ve
ĠP ea
ind er
Ġd ish
Ġd ull
Ġta ylor
s ub
Ġman sion
Ġinf inity
Ġadvertise ment
Ġy us
sc ar
ĠJ ordan
nold s
mon y
ul b
ĠL ight
ĠS am
Ġtech ni
Ġdec ad
Ġdin ner
Ġfull body
ĠMi ke
Ġba u
ins ky
ĠJo han
Ġwhe el
Ġcover ing
Ġtor ch
Ġre alist
E m
Ġd ig
Ġla mp
ĠL ong
Ġwe ed
Ġgala x
Ġradia ting
Ġsho pping
ĠL ee
Ġja ma
Ġpen gu
Ġblur red
Ġa ivazovsky
Ġartstation hd
ille m
prin t
at su
Ġjeff rey
Ġen ormous
Ġrad io
Ġplay er
ak ura
Ġ um
Ġto ilet
co pe
Ġhid den
Ġfigura tive
ple x
Ġsur rounding
a ir
Ġha zy
Ġal ong
Ġscul pt
Ġmc bess
Ġal f
art station
ĠYoshi da
Ġac ade
Ġpony tail
ti e
al t
Ġra c
ĠT y
and s
Ġdream ing
Ġtri ang
Ġsn ea
ĠM art
Ġcor y
ola s
mar ine
ĠGusta ve
b et
s ociety
min imalist
Ġfer ra
Ġe a
Ġsk ate
ĠG ian
Ġde er
Ġhyper real
ka de
Ġc u
Ġso lo
and re
Ġp etros
Ġad ult
Ġsa int
G othic
Ġha le
zz y
Ġedi tion
Ġimp lants
Ġopen ing
Ġshutter stock
Ġdecad ent
Ġz abrocki
Ġworld s
Ġkn ow
tes que
Ġo ak
per fect
Ġfe eling
ĠAmer ican
stra l
ute s
Ġmar co
li pp
19 9
Ġcomm un
Ġskyscraper s
f ront
ĠB ru
Ġp ranckevicius
ac io
Ġver sion
Ġdoc um
center ed
er ful
Ġm r
Ġco le
sho ck
Ġpu ffy
Ġs mart
ri el
Ġlo f
Ġch al
Ġro zalski
Ġnam ed
Ġgalax ies
ti a
Ġgu we
Ġtw isted
Ġpanora mic
Ġbranch es
Ġal p
Ġs in
o i
ath an
ĠMa ster
ĠMc C
Ġemer ald
b ash
s la
ĠCG Society
ant um
Ġz uckerberg
Ġlin eart
Ġtri ppy
Ġmandelb rot
n on
bi lity
Ġspec ta
Ġf ly
Ġu gly
Ġsculp ted
Ġm oney
Ġre g
Ġjo sh
Ġroof top
le m
ĠR al
Ġspot light
Ġgun s
ĠQ u
Ġbod ies
ph an
psy chedelic
ĠYa mamoto
Ġtux edo
Ġa ma
Ġcol lier
ca se
Ġver meer
Ġe agle
les ome
ba ge
Ġcal led
Ġtac tical
Ġh ue
ph y
Ġhu gging
Ġto ys
Ġda ve
ta ins
Ġen han
Ġcha otic
Ġge org
2 00
ace k
Ġillustration s
Ġ) .
Ġlove ly
Ġperfor ming
r ings
in f
Ġin door
la tion
ĠR a
Ġcig ar
Ġhistoric al
ĠH iro
Ġvel vet
ra m
ic hi
Ġj umps
1 0
Ġwal k
Ġtri p
Ġmes h
Ġma kes
Ġbot ticelli
Ġcron enberg
Ġover cast
i to
i ff
ha ven
mid ating
Ġdia gram
Ġrub ber
ing ers
Ġfilm ic
Ġobs idian
Ġbu rton
b um
Ġ1 00
Ġmon a
Ġ197 0
in ci
ĠS uper
Ġde ity
ĠN ic
Ġblan k
Ġsp ra
ĠCon cept
onge bob
Ġdi rt
ith s
ĠGian cola
Ġv hs
Ġbl ind
Ġsha w
Ġpro j
Ġrelax ing
Ġb lowing
Ġtre k
Ġenhan ced
Ġd iorama
Ġshi mmer
Ġpar ti
Ġa ber
ro g
ress ed
Ġsli my
ish kin
ĠDon ato
Ġb omb
ig o
Ġtra sh
Ġri bb
Ġmusta che
Ġre a
Ġtim es
f u
qu arrie
Ġstr u
r up
ins ide
is y
Ġse b
Ġjam ie
b ble
Ġcot ton
on i
Ġe p
ig en
um i
Ġsa tan
ili zation
Ġw rest
Ġevery thing
Ġoff ic
Ġbody builder
Ġad olf
o graph
ĠMar io
Ġfre ud
i ed
onal ds
Ġmax ence
Ġc ult
Ġm inecraft
Ġy uki
Ġshad es
Ġgor illa
b ile
Ġengine er
cy ber
Ġswor ds
s ea
at tractive
c red
Ġbo u
Ġrain forest
Ġconnec ted
Ġtechni que
g b
Ġmo ving
Ġale jandro
ap ix
Ġgo at
Ġlay ers
Ġsing ing
Ġat ti
ens en
Ġwor m
Ġtr uck
Ġn az
Ġkar cz
Ġvolu me
Ġreflec ting
Ġinti midating
Ġultra wide
Ġiv y
Ġfran zzeta
ĠPea ks
Ġc rop
Ġti an
Ġgu nd
Ġ] ,
Ġfantastic ally
Ġd utch
Ġpe ach
Ġwilliam s
Ġp ine
ss ible
Ġdemon s
Ġpropor tion
Ġt ong
co al
Ġwh irl
oc ado
ur bing
Ġbrun ette
Ġb elly
ur i
ball s
Ġminima lism
Ġd une
ĠN a
p it
ĠK inkade
dra gon
stro us
us c
Ġba re
Ġoli ve
c am
z ing
Ġf ingers
ĠD en
Ġciv ilization
Ġwh en
Ġ20 77
ĠTa kato
Ġathle tic
Ġpatric k
Ġt enn
Ġle ading
Ġsky rim
Ġpub lic
in terior
Ġres in
Ġfi lip
Ġfronti ers
p ink
Ġar ri
Ġcha in
Ġvi k
Ġmon i
ub ble
Ġwha len
Ġwen jun
ĠB acon
rit er
Ġlof tis
g ger
Ġse ven
Ġ8 0
Ġham mer
Ġpleas ing
h el
i ted
Ġli m
ĠS ch
Ġround ed
Ġs uc
le e
Ġpa blo
co unt
Ġme x
Ġins pi
Ġt en
Ġcry sta
Ġgund am
le tt
Ġfam ous
Ġparti ally
Ġco o
m al
a ks
Ġa ug
Ġcross ing
flow ers
Ġtori yama
Ġ ign
Ġco ok
c art
Ġwa iting
. ,
ile y
Ġn el
im p
Ġcar n
Ġth row
Ġob ese
ut u
Ġn on
Ġjura baev
Ġspri tes
un tain
Ġfor ce
Ġsub ur
Ġpo v
Ġab s
zzzz zzzz
ĠRo bert
Ġma tt
Ġan no
Ġch ev
Ġscienti fic
Ġgro tesque
Ġth ous
Ġto o
os keleton
Ġw yeth
Ġmo ve
b ach
ĠJ im
Ġspri te
Ġde harme
Ġbrush stro
Ġamer ica
: :
Ġsim ulation
Ġpul p
u ce
Ġpo ses
Ġamaz on
Ġc lim
Ġm iller
Ġkind kade
Ġwho lesome
Ġattri b
Ġ â
in ished
si te
Ġtom b
Ġt ron
Ġar station
4 0
e on
Ġnight time
enta tion
Ġbea ms
pple s
Ġbright ly
sm all
Ġco lum
Ġwh is
ric e
og ame
Ġat lantis
Ġpix ie
Ġthunder storm
Ġi phone
Ġmc quarrie
Ġwa nder
Ġe ugene
it ting
Ġstat ues
g el
Ġpa tch
Ġbra ss
Ġcor ner
Ġsub way
Ġcand les
Ġsymbol s
pus cular
wal ker
Ġn ar
ĠC ity
lo s
si um
Ġaesthetic ally
water color
Ġemotional ly
Ġd arrow
po st
Ġattrib utes
m entary
Ġh siao
Ġw ong
Ġsuper man
Ġpi pe
Ġfal lout
ĠL isa
Ġmo th
bold o
Ġ19 8
Ġchrist mas
ra p
Ġw il
lo se
Ġex tre
ĠLe ibovitz
Ġstory book
ac tion
Ġal berto
Ġyo h
im boldo
ber s
Ġsp an
lock s
Ġgloom haven
ĠAki hiko
Ġc edric
Ġfo lk
ĠB lo
ĠK im
ĠB os
ac ci
Ġpa olo
ĠG ar
Ġarc hi
ag ger
Ġ20 49
Ġstud ent
Ġgate s
Ġp iano
is ion
Ġp s
Ġre lig
pa inted
Ġbro ad
sc ene
Ġda ma
Ġni hei
Ġwitch er
Ġpla t
Ġpin up
Ġg ediminas
Ġang els
Ġdevi to
Ġwaste land
Ġdra ped
dra matic
Ġwaterfall s
bi te
ĠS ha
Ġmar ling
ia tor
Ġbr itt
Ġbur ger
Ġadverti sing
a ult
Ġb oth
hu a
Ġevan gelion
Ġphoto s
Ġs ile
k si
Ġb rick
Ġfore head
Ġbrushstro kes
Ġp ill
Ġbasket ball
i fied
Ġme eting
b ie
le g
Ġl loyd
ĠM or
Ġsw ift
Ġser gey
Ġbio shock
Ġm et
hi on
Ġle hr
Ġfu mo
Ġhow e
Ġconta ct
ĠBos ch
h alf
Ġha pp
med ium
Ã Ń
Ġho vering
so ft
Ġtower ing
Ġo pera
Ġh um
Ġ8 00
pla ying
M ar
ima g
lar ge
Ġ ig
Ġe qui
Ġguwe iz
Ġd apple
pt on
Ġlo vell
ĠB rom
ĠF e
Ġbes ide
Ġp ure
Ġze iss
Ġeyebrow s
Ġk al
Ġn ier
ush ing
Ġmicro sco
Ġek tachrome
f ly
Ġla nding
ok er
ar ti
mo oth
Ġta pe
Ġmirror s
Ġschi ele
Ġd ariusz
Ġcan yon
Ġandre ws
ĠVin ci
Ġt on
ĠW ars
Ġpin cus
Ġw rink
Ġk and
Ġinf la
ĠBe hance
Ġrea per
S p
Ġw re
el in
ss e
Ġ1 50
Ġexpo sed
Ġpie ces
Ġima ges
Ġhe w
Ġkat s
Ġextra ter
Ġpincus hion
Ġnostal gic
ne w
ble t
Ġmagic ian
arle t
Ġp epe
Ġmoun t
Ġnin tendo
ran s
ĠF ull
l ers
Ġcarp et
mac ro
utur ist
A N
Ġdapple d
Ġinf lu
Ġty pe
Ġtele photo
s ol
ly wood
les ov
cy borg
Ġday light
2 4
Ġle ica
ens tein
ðŁ Ĳ
Ġtele vision
l ong
ĠJ eremy
colo red
Ġlo c
st reet
ĠJ u
na h
Ġtsu tomu
Ġpengu in
la b
de ma
Ġn ow
ta ting
Ġj er
Ġgood man
Ġpred ator
Ġschool girl
h l
Ġe instein
Ġma iden
Ġyo shin
bb ing
bu ster
Ġga udy
p an
Ġd er
Ġcre puscular
ste llar
Ġshe ep
Ġswea ter
Ġtenn is
ĠS ky
Ġne il
Ġretro futuristic
Ġcho i
Ġbay ard
Ġdist urbing
Ġbo un
n st
Ġma sa
ĠG il
ashi an
Ġcomplete ly
i yoshi
ard ashian
Ġhar ve
Ã ¡
ha ppy
D e
Ġcompo sed
Ġdan ger
Ġjew els
wal k
hands ome
p se
Ġne ndoroid
Ġexper im
I n
Ġre ady
Ġv ess
Ġtech nic
Ġcho ker
form ers
nder s
do x
let ta
un ting
aro v
Ġbur ns
Ġyoshin ari
b rant
o shi
Ġham ster
ĠB as
Ġloo se
Ġfra mes
Ġdev iant
c hart
Ġme mber
!!!! !,
Ġinf ra
Ġgrass y
to u
Ġgo ya
Ġcam eron
Ġrich ter
p olaroid
Ġc all
Ġv ign
ka i
rad ise
Ġtorn ado
Ġcru ise
Ġtong ue
ðŁ ı
Ġvehic le
Ġfli ck
Ġy et
ĠR ey
ĠI Q
Ġspecta cular
Ġca ta
Ġso fa
Ġ9 0
ĠX F
Ġweap ons
Ġpra ying
ĠLeon ardo
Ġshimmer ing
Ġal ma
ã Ĥ
Ġhyper realist
ĠTy ler
Ġn an
Ġbi ke
Ġben ch
Ġdecora tive
Ġcarp enter
Ġra cing
Ġqu antum
Ġse inen
Ġe gon
ma tte
Ġem press
hart z
pocalyp tic
ĠK on
Ġmetro polis
ĠDel ville
Ġcor ben
uer re
Ġble ed
Ġfairy tale
bon acci
Ġkata na
Ġro bbie
Ġtun nel
Ġneoclass ic
b ster
om bies
Ġvi rt
lic al
Ġimp act
Ġp up
Ġfi elds
ft s
Ġdiff usion
ĠA sh
Ġcomple mentary
Ġworks hop
ard s
Ġz hang
b ell
ver si
ĠS ty
ĠB re
ay oi
Ġfran co
ĠGusta v
a ker
er ka
le go
te en
Ġmar ine
Ġko i
Ġbro thers
Ġfort nite
Ġsai lor
ti sta
Ġspec ial
Ġetern al
Ġme gan
Ġash ley
Ġto ur
j am
ge tic
Ġhen ri
tle d
Ġpe y
vid ia
ĠBru ce
Ġs ong
Ġex hi
Ġsuit s
Ġtech wear
Ġcec coli
Ġto uch
Ġlo s
Ġnico letta
ki yo
ter s
Ġobject s
Ġin u
qu es
Ġsp lit
Ġta vern
oter ic
g ang
j ack
Ġb or
Ġbe y
Ġca vern
Ġpi pes
Ġhen ry
ear ing
bo ss
Ġblue print
a ger
nd i
Ġli st
Ġfi bonacci
Ġrun es
go s
Ġjim my
o h
s ity
Ġpo inting
ĠSte phen
lk ka
ĠD onald
wor d
Ġor chi
Ġkit bash
Ġreb ecca
Ġpo t
ĠM ich
struc ture
ĠNo ah
ĠCG society
Ġc ere
Ġch ee
ho od
ĠS er
Ġmod e
Ġali ce
be x
Ġb ion
ar ium
Ġne ver
rt ex
Ġta dema
Ġhugh es
o ff
z ar
Ġa rian
Ġover detailed
ast ronaut
ĠGrim mer
Ġh alloween
es ome
is cher
el la
ĠGo gh
lay er
Ġbar clay
Ġsep ia
Ġk un
ĠP en
tho use
Ġtar kovsky
Ġsav ille
Ġskate board
ra i
maz ing
n atural
Ġde st
Ġbru tal
Ġmechan ic
Ġphi lipp
Ġro l
Ġen ix
bra d
Ġun kn
Ġgira ffe
Ġwere wolf
Ġh ung
Ġsta te
Ġvide ogame
imen sional
u i
sp lash
Ġco ur
Ġpo tato
ang u
ak ins
Ġfashion able
Ġswea ty
Ġanti que
Ġr ios
ber ty
Ġentire ly
Ġdread locks
Ġcro ok
Ġb uck
p ho
Ġp ick
Ġca pture
Ġru by
Ġcontrast ing
ĠBrad ley
Ġb un
Ġst ones
po ster
Ġkawa se
Ġgrave yard
Ġely sium
Ġp rim
Ġde b
ri x
ĠA li
ĠA nderson
Ġex oskeleton
ll ine
cha ir
Ġber ries
Ġja gged
Ġce le
Ġav ocado
t ronic
ma de
Ġz elda
su i
Ġreal ly
Ġin no
iv id
Ġover alls
iden tal
Ġ Â
Ġes ao
Ġes oteric
Ġpanora ma
or ld
Ġbe ige
Ġta ttered
Ġste fan
ific ation
Ġunf inished
Ġpey ravernay
Ġ ranger
Ġpo wers
Ġte nd
ĠU ltra
oc tane
Ġspider man
ĠSal vador
am oto
Ġsc arlett
ĠI llustration
Ġhe nd
ons al
m it
Ġw ri
qu et
Ġdo gs
haus er
E R
l int
Ġback pack
gre en
re ad
Ġde mo
as ian
Ġglo ves
Ġlens es
Ġeast man
ra ge
len cia
land o
Ġmart ine
mod el
ĠVin cent
onsal ves
Ġener getic
Ġlost fish
ve ly
Ġund ead
c u
Ġma pping
Ġpicture s
Ġcap ybara
Ġcamp fire
Ġhigh way
g orgeous
Ġphotograph er
one ment
ĠEx tremely
Ġent rance
Ġre ve
od as
ĠS hi
ya hu
Ġthan os
Ġzoom ed
ĠEr nst
Ġrac coon
ta ils
Ġgo og
C h
Ġco de
ĠJ ones
Ġcra b
Ġpass ion
Ġatti re
Ġna tive
Ġham burger
Ġblossom s
Ġau blet
Ġlot us
g lo
ad im
ba by
Ġke ys
ĠSp ace
Ġjumps uit
Ġ ran
ir onement
Ġcre ation
Ġsh rek
sy nth
Ġbi li
ĠMi ura
t les
Ġha sui
ĠK limt
Ġstreet wear
Ġast ro
Ġbern ie
x i
Ġg list
ig i
Ġdys topia
Ġwat ers
Ġrave lo
Ġd ittmann
ay ison
al bum
Ġey ed
)))) ))))
ra il
Ġe asley
Ġk anye
k ami
Ġbath room
ĠJ eff
Ġpoly count
Ġrey nolds
Ġrefrac tion
p in
Ġd am
Ġhid ing
cep tion
ta gon
rt ing
Ġv erehin
ke an
as ure
Ġprin ting
Ġbil al
ĠR ap
ĠC re
Ġger hard
ĠLe gends
ĠOr gan
Ġum bre
Ġen ki
Ġsp ar
Ġsho es
ĠI van
ĠRo b
Ġe lizabeth
Ġro gue
pa ir
Ġmar ia
sa i
Ġbro s
v ich
Ġv on
mer cial
Ġp unch
ene gger
t w
me g
vil y
Ġk u
ĠW in
Ġem il
ĠO tomo
Ġdri ps
Ġgad ot
Em ma
a ka
Ġso uth
Ġri pped
ide o
Ġgu ay
Ġter ra
Ġfal len
c ur
Ġalex andre
ĠW est
Ġwet plate
kel mann
Ġc ali
ur ce
jes us
Ġicon ic
Ġphys ically
b lock
Ġg ran
Ġwater colour
Ġvo rtex
agger ated
lencia ga
Ġhour glass
com plex
Ġinfra red
Ġview er
ille t
ĠI nd
eric h
ĠCh inese
Ġri pples
Ġha w
rom pt
Ġshi ps
00 00
Ġcolor ized
Ġfan gs
b ed
ric lot
Ġwin kelmann
s den
ra h
Ġt um
Ġbraz ier
rest rial
os a
ĠðŁ ĳ
Ġp on
Ġde ck
aro und
so v
Ġchar coal
Ġroll ing
g n
Ġe tching
Ġne ural
room s
Ġdis c
Ġfla res
Ġsplash es
Ġcrysta lline
Ã ¥
Ġre aching
Ġmed usa
Ġfish ing
bre athtaking
Ġunkn own
ing ton
Ġ âĢĻ
Ġris ograph
Ġzoo topia
Ġd urer
Ġgam ing
ĠMaster piece
Ġcountry side
Ġprec ise
p lane
Ġco oking
ful ly
Ġis ola
guy en
Ġto ol
Ġca sey
Ġhead piece
aco ck
Ġsna kes
Ġinse ct
Ġign acio
il ar
Ġr ud
ĠJ ason
lie f
Ġdestro ying
D S
Ġal so
Ġholo gram
Ġa ven
Ġgre e
co tt
ĠC ho
bre aker
Ġsymbo lic
Ġbey ond
ĠOrgan ic
ash in
Ġalche mist
g ig
p al
Ġex ist
Ġmaster s
ot one
Ġare a
Ġfernand ez
Ġdest iny
Ġb udd
Ġan ne
Ġsand ra
bow itz
ĠðŁ Į
G reg
Ġs on
Ġra ck
Ġ3 0
Ġarc imboldo
s ley
Ġko lesov
ca ke
f ar
Ġm iles
Ġcom ma
W alter
Ġcolor ing
ri o
va in
Ġape x
Ġbion ic
ang el
under water
Ġcub ism
cart oon
Ġbl unt
pe ople
nab is
Ġlou ise
Jo e
Ġmytho logy
H igh
Ġca ss
Ġper i
j ol
le ge
duc t
Ġfre sh
Ġrec ord
Ġ eric
Ġsp ea
Ġgian tess
f y
stra lian
Ġswim suit
T om
re cht
Ġbe et
to phe
rif ic
Ġbili bin
Ġa stral
us ai
Ġkar l
Ġche erful
Ġspark s
ura tion
ĠRo ger
udd les
Ġfred eric
Ġfu j
ĠA I
Ġbe en
Ġwild life
Ġblock buster
Ġhar sh
erm al
M an
O S
ut ers
Ġn vidia
ĠC ap
Ġimp ressive
f lix
Ġbu ff
illi an
Ġrid er
Ġacc idental
hob ia
Ġglist ening
k night
Æ Ĵ
Ġsta re
og en
Ġbel t
f lo
in cred
Ġwho se
Ġnic holas
Ġb ard
Ġma y
Ġenv ironement
Ġclu ttered
Ġmeg apix
ĠRich ard
ar c
ĠP olaroid
ĠK ing
ue en
sho p
Ġheart s
Ġcarn ival
Ġstyle s
no on
Ġmoon lit
Ġelectric al
Ġfung al
Ġs ink
Ġo ur
tra it
Ġciti zen
d ium
Ġ =
Ġd ome
Ġbea m
war z
Ġbox ing
b io
Ġg onsalves
Ġmich al
Ġdav inci
Ġb ritish
ĠM aya
Ġorig ami
jam in
Ġb in
Ġb umble
Ġrender er
Ġinter stellar
Ġsea mless
e nd
Ġp uppet
es z
Ġj unk
Ġy ang
Ġex aggerated
Ġax e
g ia
ĠW olf
ean u
ga tive
lit tle
t r
Ġsmo ky
Ġz ombies
Ġsub marine
s am
ers er
ĠG a
Ġstudio s
Ġbi bin
Ġcomp any
Ġdr um
ĠMag ritte
c ony
as kas
Ġcha mp
Ġmodel ing
Ġter ror
Ġche f
Ġb riclot
god dess
lo go
Ġas her
Ġse uss
Ġmic key
Ġdr unk
Ġmex ican
s en
ĠE arth
Ġad o
ĠI t
Ġbal cony
Ġaber ration
Ġdama ged
un real
Ġch ina
Ġpa radise
Ġla t
Ġsim p
Ġsto ic
Ġs kele
to wn
Ġcom mercial
ĠAd rian
3 5
or u
Ġhold s
Ġhorizon tal
Ġfe el
Ġlu cas
ĠAn ton
Ġur bex
Ġsid es
sh e
Ġqu iet
O N
Ġspace craft
Ġmas ks
Ġbre ad
ĠDra gon
Ġted dy
Ġdelic ious
Ġsever al
Ġc ri
Ġn y
ura nd
Ġhead ed
Ġcre ating
Ġlan tern
l ant
Ġsc ars
Ġba ss
ĠF u
Ã¥ lenhag
1 00
b ird
f ashion
Ġs en
Ġth ermal
Ġtra pped
20 1
Ġara ki
Ġg lenn
Ġma ture
Ġgi us
ĠDe vi
Ġs ized
co s
Ġsur realistic
ĠF an
Ġswirl s
Ġfoot ball
Ġluci an
Ġkats ura
re me
po ol
set tling
Ġ' ,
Ġlay ered
' m
Ġhea vily
Ġlot r
Ġva lent
M o
ra tional
Ġli e
ce nd
sh ine
Ġsy n
ĠCh rist
warz enegger
Ġm p
ac ro
us o
Ġme m
Ġhor rifying
Ġoffic er
Ġgius eppe
Ġj ud
Ġta kes
Ġter ri
f al
ir st
Ġti red
Ġmasa kazu
Ġs lu
ĠH or
Ġdan ny
mic hael
Ġhe x
ĠLo is
Ġrelig ious
w ich
Ġp uddles
Ġpa st
Ġho bbit
ak es
Ġim per
ĠLe ighton
(((( ((((
erm it
Ġimpo ssible
b orn
Ġg ild
Ġrus tic
Ġafter noon
Ġkis hiro
Ġfung us
Ġyuki to
c tor
Ġ ÆĴ
Ġk ardashian
Ġsh ishkin
Ġtechno logical
p elle
ï ¸
Ġpan els
des ign
Ġfo ld
Ġrelax ed
Ġfla w
Ġstair s
th an
th ree
Ġre ma
ch romatic
ĠL i
ĠK atsu
Ġsub mer
ed y
pic ture
Ġmel moth
Ġa ustin
Ġuni ted
Ġle co
Ġte st
Ġh ig
ran g
Ġdra ws
Ġfi f
Ġhair s
ura kami
ian g
got ten
Ġturn around
Ġea stern
Ġclim bing
le na
Ġstyle d
ĠK en
H A
Ġo tto
Ġh arp
um my
Ġde lo
Ġde akins
ĠH en
ĠL uc
ĠPhoto realistic
Ġdec or
Ġhol low
Ġsus pe
Ġflaw less
po leon
Ġne ed
Ġfran z
Ġmyster y
ry an
Ġem manuel
fo ot
ĠY ork
Ġalche my
m ly
ta it
ac y
Ġgod zilla
Ġrap haelite
Ġpr ime
tia go
ed ish
Ġcon tent
Ġfra med
Ġmove ment
Ġj acobson
ud i
Ġun settling
Ġmu g
Ġsynth es
Ġen jo
iz ard
Ġ19 50
Ġleco uffe
mo unt
Ġju lie
Ġoh rai
nd e
Ġh eng
Ġpe acock
f rie
Ġm illi
Ġima g
ĠDan iel
g olden
Ġco re
ir rel
ka wa
Ġpla gue
rin th
Ġop tical
omb at
o type
Ġroll er
Ġmandelb ulb
Ġthrow ing
Ġvirt ual
d onalds
ĠT er
Ġhe ight
Ġmach in
Ġvign ette
ric al
Ġva se
Ġwing ed
ĠRap hael
Ġtre asure
by rinth
Ġv as
iny l
ĠDra matic
Ġsha un
Ġsum mon
Ġsile nt
Ġre lief
Ġle w
Ġch em
Ġcolorful l
w an
ian a
ĠW al
Ġem pire
Ġwe i
Ġdre w
Ġdin et
ad ic
Ġga ga
Ġyus uke
v ens
Ġk elly
Ġnor iyoshi
Ġalb recht
Ġscatter ed
Ġbruta lism
Ġcrack ed
Ġcha sing
Ġca ble
Ġbut ton
ĠSim pson
Ġf inger
Ġed win
Ġlu c
Ġcon scious
Ġal gor
sh ell
Ġmod ular
Ġwa re
hu ge
Ġpris matic
Ġnas reddine
re alis
hr hauser
lan et
Ġmonum ent
Ġpo or
Ġte sla
Ġmi ku
bid den
Ġequi p
P a
c ate
d arth
Ġk in
ĠK entaro
Ġplay ful
c inestill
Ġv ers
Ġex pired
ĠD ali
Ġdanger ous
Ġup on
Ġgr id
Ġplay ed
Ġspher es
M P
Ġly nch
Ġto mato
ran o
ille d
ber ries
ers on
Ġu kiyo
ĠK a
ĠPhoto graphy
mus cular
k anye
Ġo pa
Ġsta tes
Ġg ym
ol an
Ġsun bea
Ġima gin
hor se
hi to
Ġsa ge
Ġbi omorphic
Ġjohan na
ĠArt hur
Ġ é
Ġshi ba
Ġkand insky
Ġhew lett
z ombie
ĠAn na
Ġplat form
rt ed
Ġpo pe
Ġextre mly
le nder
Ġcon e
ter ns
ĠD es
Ġgar bage
Ġear rings
b lu
Ġn ord
Ġne gative
Ġcar ne
tar d
Ġni ko
Ġhack er
Ġp rac
ly ph
ĠR ene
Ġsy l
Ġval ue
Ġchev rier
Ġle i
Ġil m
Ġsw eat
do be
Ġghost ly
d imensional
Ġun splash
Ġcla esz
gal actic
ĠEl vgren
l ines
n ick
Ġmus cle
Ġale ksi
Ġbumble bee
Ġmo rty
Ġout line
Ġenchan ting
Ġtechnic olor
c lu
Ġma yan
Ġmodel s
Ġcur ved
Ġhard y
Ġcron o
Ġbau haus
re a
Ġste lla
ðŁ ¦
Ġneoclass ical
Ġalgor ith
Ġp roud
Ġn un
Ġla zar
Ġwind y
Ġteen ager
Ġumbre lla
s ad
Ġred d
Ġisola ted
ï¸ ı
m r
al lis
Ġspark les
ĠHan uka
Ġrutkow sky
f lu
Ġtr ue
Ġfu zzy
Ġglor ious
ĠCan on
u its
Ġd ic
Ġd ad
or fi
Ġk ate
photo graphic
Ġknight s
Ġdro ps
Ġbas il
N e
Ġn at
ĠB li
ĠB us
ca tive
Ġche val
ce nding
rom allis
Ġfrost bite
uerre otype
ĠKatsu hiro
b oding
o row
ĠM er
Ġpe te
Ġel len
Ġorienta lism
c cer
ĠR es
Ġcha mber
Ġdun es
Ġequip ment
ar m
Ġaw esome
str ong
d on
ta tto
Ġk ong
ca de
ĠHo udini
Ġexplor ing
m ach
Ġs ap
eld on
Ġdream scape
Ġinter face
Ġalley way
b la
d r
Ġp ump
Ġo scar
Ġbad ass
ĠSty le
Ġperi od
Ġp uff
ĠA uble
Ġti le
Ġpla ys
Ġelectric ity
acro ix
ĠAuble t
Ġk az
Ġma ze
Ġdi rect
Ġge of
Ġcl eric
ĠPer fect
Ġs low
Ġth ief
Ġj ac
Ġtrans formers
Ġcrono breaker
is ode
Ġsho re
act us
Ġpea ks
Ġortho graphic
t rans
Ġsu gar
ĠL ip
Ġtr im
Ġthe odore
ev in
Ġhar ley
can ny
yan ami
tic ing
Ġba lenciaga
Ġry an
Ġfrancis co
inn on
Ġlan terns
is cent
Ġk uciara
Ġcon struc
ĠS an
ĠH ea
Ġter ada
Ġflick r
mas k
Ġje ster
ĠTom er
roc od
Ġclock work
Ġsh r
Ġsp ear
Ġna ga
Ġado be
tatto o
Ġh unt
ho w
Ġli berty
lo ve
ch ar
Ġjohn ston
Ġkatsu ya
Ġzen ith
Ġsubmer ged
M A
Ġo wn
ĠR ep
Ġant lers
imag ined
Ġfor gotten
Ġcard s
ĠCol lier
b ey
Ġs akura
Ġpo ck
Ġbar n
Ġlip stick
b ian
Å ĵ
Ġta bby
Ġtri adic
Ġmo sa
Ġ4 00
Ġmc donald
Ġfin ish
vo cative
i en
Ġg ucci
ro bo
Ġfir ing
c row
ha ir
Ġro th
Ġle ighton
Ġy e
ga wa
Ġexp an
ite s
Ġphilipp e
Ġo val
Ġv inyl
Ġsc arlet
Ġv ac
ĠV ery
Ġcybernetic s
g ate
p at
Ġw illem
Ġk aw
Ġpo sta
haw k
Ġer ik
r ils
te x
Ġsh el
ĠW orld
br ight
Ġdocum entary
oshi ma
Ġc lar
Ġgrand e
Ġsec ond
b and
b stract
Ġo o
Ġre de
ĠP ar
Ġwor n
Ġfore boding
k ins
ĠP rin
Ġorig inal
Ġgn ome
Ġex ci
Ġwav ing
Ġkal uta
Ġwri ting
Ġd wayne
Ġm ess
ĠA dobe
Ġgo o
Ġstic k
Ġcom b
ĠEd mund
riter ion
b urg
Ġs ix
ar l
Ġre sting
Ġmo tif
ri pt
ci alist
de tail
ĠD i
Ġperf ection
Ġhu nd
Ġmask ed
Ġan y
ĠW es
Ġfor bidden
sp ider
bur n
Ġsurf ing
F X
Ġre ef
me tal
ĠJ on
ĠI s
Ġact ress
Ġr ig
ll ing
Ġcry p
Ġbal askas
Ġgener al
Ġtransfor ming
Ġhund red
Ġb icy
Ġw ise
ul ture
ur ity
ner ton
Ġemo tions
Ġ >
Ġgen esis
Ġdre ary
â Ļ
Ġd ere
st ones
Ġca re
Ġwor ds
iz er
Ġfra g
ðŁ į
hat tan
yn nerton
9 9
c led
v or
y l
Ġs lo
ĠM ad
!!!! !!!
Ġdrin k
ĠIn tricate
Ġdepic tion
hi ps
Ġtend rils
o mas
Ġre x
Ġre eves
Ġar row
na tional
Ġber g
C y
uc ks
ĠE at
Ġtan g
Ġm ol
Ġpix ela
Ġam ph
ustic e
Ġjoy ful
Ġfeather ed
re m
ab andoned
Ġsli ce
Ġrec tang
Ġexplor er
Ġlim bs
Ġpassion ate
Åĵ bius
A l
li gent
ro v
Ġsan tiago
Ġaz ure
A W
id o
Ġenviron mental
Ġair ship
Ġger hartz
Ġpartic ulate
Ġsup per
Ġaud rey
orow sky
u is
ch ris
Ġsle ep
Ġbord ers
Ġle ader
unk y
ev ous
Ġmoni tor
e vil
ard ens
Ġla byrinth
ĠR ub
pa ra
Ġblood borne
ĠAr c
Ġmich el
Ġfru its
Ġp han
Ġg olf
ow er
j apanese
m elon
Ġnet flix
l one
ne ck
Ġel lis
Ġvilla in
Ġke ith
ĠMac iej
s al
er al
ss o
Ġsu nd
Ġgig achad
Ġcomp re
Ġtro oper
e ch
h il
Ġp ac
Ġre imagined
Ġlo oming
Ġref ined
ib rant
ar ry
ĠM itchell
ĠLa urie
j e
Ġk iss
am ing
Ġcan nabis
men ted
Ġtattoo ed
Ġ <
Ġ ing
Ġsc or
Ġso ccer
ĠV ader
duc tion
Ġspi ky
Ġadvent urer
a mazing
Ġe is
Ġplay station
chi evous
Ġkyo ani
Ġauto mata
ĠBla de
k ra
Ġ ulti
Ġth r
ul us
Ġview ed
az z
Ġstru zan
Ġdecora tion
Ġkeys hot
Ġc riterion
ĠS yd
Ġca ught
L R
w el
er ina
Ġh us
ke e
ep ard
Ġmi k
Ġmom ent
E l
els en
com ic
Ġcommun ist
Ġw arp
Ġrus ted
Ġfif th
rocod ile
Ġo leg
Ġj r
Ġstraw berry
f ol
Ġp ut
Ġru st
Ġmand ala
Ġcliff s
Ġg lad
ant ine
po rate
Ġep isode
Ġp itch
bo o
ell er
Ġbr ide
ic z
uc ky
Ġcr umb
w all
le ct
Ġad d
Ġlu men
Ġtun ic
Ġglamo rous
Ġtriang le
Ġa go
Ġh ind
Ġultra sharp
ĠK uciara
Ġche ek
Ġsymbo lism
Ġsurf aces
ĠJ os
use i
Ġma ds
ĠG olden
Ġrot ten
Ġinspi rational
Ġj ennifer
ĠG onza
ĠJ an
Ġgod ward
Ġbrid ges
tin um
Ġinsec ts
c ross
p ris
ĠS ung
Ġele mental
Ġper sian
Ġed mund
em p
rist ine
Ġcompre hen
ti te
Ġco ast
Ġt int
ĠC as
Ġho p
ĠL ea
Ġpoin ted
ĠB er
ĠF red
ily n
ita s
Ġor der
Ġchi ef
Ġy elling
olu metric
ĠW e
Ġcra shing
Ġcircuit ry
Ġgrav ure
ig ra
Ġpo uring
ex treme
his toric
jol ras
t ched
ĠMax im
Ġthe at
Ġste ms
Ġus ed
Ġnear by
Ġp il
ĠN as
Ġlevi tating
s n
Ġa top
Ġta e
tro oper
Ġre master
Ġma the
ĠðŁ Ĳ
Ġbud get
rail h
Ġin stal
Ġon to
Ġfo cal
E D
Ġp br
Ġpa d
ap haelite
Ġhal luc
Ġsp in
oth ing
ĠM usk
Ġar gyle
Ġsw edish
ĠFan ning
g r
Ġvi ta
Ġwood block
ch ild
ĠC at
Ġsat uration
ĠGonza lez
Ġh ints
Ġlo fi
up iter
Ġbo ho
Ġsa iling
Ġcor rid
Ġcomp uters
ĠSh inkawa
Ġcourt yard
ce ll
ĠE s
re ns
Ġk its
po int
if ilm
Ġdepic ted
Ġp isto
ma ss
ĠD ore
son ic
Ġs anta
Ġf right
Ġro pe
ĠB ra
Ġsand wich
Ġmosa ic
b it
Ġb ong
Ġk om
ol in
ran es
ress ing
Ġsca red
iju ana
Ġrev olution
Ġf uturist
ther ine
und ra
Ġf usion
il a
Ġtho ught
Ġmor ris
Ġpop ular
ĠBat man
Ġb ark
Ġjohan nes
Ġinflu en
Ġto ad
Ġdis gu
iron y
ma ki
Ġsh er
Ġam bro
Ġdri ed
Ġvisual s
Ġa ub
19 8
class ic
Ġme ets
Ġsun shine
Ġsw ing
)) ,
Ġnews paper
Ġwander ing
ch el
co p
Ġdin er
andro s
ĠPen nington
Ġse al
ĠPhoto shop
ð Ŀ
ne on
fo rt
Ġnor mal
ĠGe orge
is hi
Ġst uff
Ġcon struction
im ed
ay lor
Ġti ff
Ġlegend ary
de mon
Ġbraid s
ĠJos an
ĠR unner
Ġfor rest
tagon ist
an s
ec o
ĠP i
Ġind ie
Ġchris tophe
Ġmelancho lic
Ġr ise
Ġwal ks
Ġbiolumin escence
Ġcom bin
Ġcra wling
Ġlo g
Ġka i
o ster
ã ģ
ang ry
Ġka iju
Ġedi ted
hor ror
ic o
pp ling
Ġstar k
Ġse wer
zz le
wart s
ĠBlo od
Ġgild ed
mo st
Ġha zel
ĠG henie
Ġdes er
ĠF riedrich
al y
Ġcon s
Ġca tho
Ġmor ph
Ġcolum ns
Ġcatho lic
u lent
Ġd c
li o
gh o
Ġk iller
ky rie
Ġbla ke
Ġanalog ue
Ġint rin
Ġb erser
Ġp ep
Ġligh thouse
Ġra il
ĠM oon
Ġca therine
ĠMo vie
Ġden ning
Ġextrater restrial
on na
po sition
gs hot
Ġpla tinum
Ġsea son
Ġapp ea
Ġmega structure
in av
Ġp c
Ġh odas
en sive
ĠPhoto graph
pur s
Ġde struction
la v
Ġj ane
Ġman e
Ġac cess
ĠCho i
c ub
w ind
re mov
ĠT win
Ġemo tion
Ġear ring
Ġmis chievous
Ġcos playing
Ġbank sy
Ġdra g
Ġjod h
ĠJes per
Ġcombin ation
Ġti tian
Ġware house
F ull
Ġsome thing
tech no
ĠEat on
s im
ent in
Ġfin land
ero tic
Ġstri p
Ġpoin ty
Ġnav y
Ġback rooms
Ġme aning
and inav
fo x
Ġ19 20
ti m
ĠD S
Ġka ws
Ġtur ning
z antine
ĠE pic
Ġnord ic
to ri
Ġe g
Ġj c
yo ut
ĠðŁ İ
Ġspi kes
' '
Ġpo ots
Ġmo bile
Ġen light
ĠYo ji
Ġoli ver
Ġmachin ery
Ġr iot
de ep
Ġtom boy
Ġshadow y
mp tion
Ġju ice
Ġpier re
Ġbicy cle
Ġb j
ĠR en
ĠF er
ĠV er
Ġhan nah
Ġemo ji
Ġcel tic
Ġ20 22
Ġglitter ing
g ura
ic t
Ġsha ttered
Ġser ver
Ġpill ars
a use
Ġart house
ĠV ibrant
Ġcele bra
Ġa gent
Ġth ier
Ġst ern
Ġhe al
Ġsqu irrel
Ġchal k
Ġexhi bi
Ġpo ker
od le
ble m
Ġi st
Ġsec urity
Ġmelancho ly
Ġrede mption
Ġjodh purs
Ġli ly
ri um
Ġmicro phone
Ġhol lywood
Ġsubur ban
Ġm t
Ġw it
Ġl un
ĠM urata
ĠV illeneuve
Ġjod orowsky
Ġtiff any
I N
f ast
Ġb omber
ta rt
Ġsho u
na tion
Ġhis tory
Ġblo use
Ġhom o
o rt
ĠC am
Ġso cialist
Ġoil y
Ġhor ned
An ime
ĠMon ge
Ġcrash ed
Ġlei bowitz
Ġw an
Ġpa ir
Ġpo sition
ss a
Ġor bs
ĠE jsing
Ġbloom ing
Ġmonum ental
B aptiste
b ill
Ġin te
Ġth re
ĠW alter
Ġdo gg
Ġbu zz
Ġchi e
cre epy
Ġhom er
Ġnaz i
ĠGar mash
lico p
t us
Ġc um
om er
Ġsand orfi
ff ic
Ġaesthetic s
Ġbea k
Ġexper ience
f inder
Ġp ristine
Ġpo li
ĠD ean
Ġmar ijuana
ok yo
f ia
Ġb ond
ma ge
Ġman tis
Ġop al
Ġcol lege
ĠAndre w
3 0
D an
R o
h al
re naissance
ĠSta lenhag
ro e
la imed
Ġn umber
b el
Ġsh y
Ġfi x
ĠG ame
ĠG riff
Ġtw ist
Ġatta ched
Ġhome less
Ġorchi d
Ġskele tal
Ġenjo ying
C lose
Ġmo ore
Ġso up
ian s
ames e
hol z
ele gant
Ġnaga oka
C on
h fra
Ġli mi
Ġsh usei
as is
pp ie
i lian
ta g
en ted
Ġn ur
Ġun canny
zz i
Ġsli ck
Ġconta ining
sub surface
Ġinstal lation
Ġthier ry
Ġli tho
Ġpa ral
Ġsea side
Ġmono lith
Ġg ri
Ġmin ion
Ġstri pes
ĠAndre as
Ġphan tom
Ġulti mate
v io
tic a
Ġti tled
Ġcre ed
y ear
Ġa yanami
Ġk or
Ġperson ification
Ġro me
Ġcat girl
Ġwind ing
Ġglor y
Ġgriff iths
A R
g othic
Ġqu inn
ru it
Ġclassic ism
Ġsatan ic
Ġalgorith mic
n an
in ter
Ġa ster
ta ted
Ġc actus
Ġfo l
ĠW ater
Ġball erina
Ġob sc
tou ched
Ġist van
Ġb am
en ting
ro ck
Ġworld boss
Ġmale vich
Ġday time
rit ten
m u
ate l
Ġno te
Ġclear ing
ĠJack son
Ġsnea kers
clu b
a lo
Ġpo ison
and owski
Ġpy romallis
Ġpris m
Ġos man
Ġlimi ted
Ġm ea
ĠD ead
ĠO ver
Ġbow ie
Ġben eath
ĠGre asley
Ġchan nel
ĠMart in
Ġa me
Ġs omber
Ġc rac
Ġr iv
lor ian
Ġim ogen
Ġ19 60
Ġshin ji
Ġphys ical
Ġvehic les
Ġh on
Ġpo meg
ĠB ur
Ġca se
pa ge
Ġflo ra
Ġkey board
Ġhy d
Ġdel phin
Ġsay s
Ġmck innon
mag ical
exp ressive
Ġmathe matic
Ġpomeg ran
Ġsp are
Ġch ecker
Ġti ed
Ġge st
Ġwhe els
z za
ra ne
Ġen jolras
b lical
s che
Ġsp read
Ġba rt
Ġimpo sing
Ġnorth ern
Ġalf red
u lous
unk le
Ġtho ma
Ġcur sed
f at
ul u
Ġyo uth
Ġdel acroix
Ġheart stone
Ġrot ting
Ġthe ft
co ver
Ġfantastic al
Ġintel ligent
ĠBla ir
Ġnas a
â ĺ
Ġvan itas
ved on
Ġven us
mb ling
n ant
ton es
)) )
Ġsand man
Ġhim self
lip se
Ġwrest ling
ĠMich elangelo
6 8
Ġo tter
or ies
Ġcon to
Ġto tal
Ġta i
ĠC la
Ġne igh
Ġmon strous
rain ian
as aki
Ġbo tt
Ġwarrior s
Ġdev o
Ġtenta cle
Ġrese m
g ro
w ick
ec ted
Ġstri ped
Ġdru illet
Ġexhibi tion
S D
b as
Ġe man
Ġjo urn
Ġwe ight
ĠO bama
Ġchar ming
Ġhar mony
ab riel
Ġtu omas
Ġspan ish
Ġposta pocalyptic
Ġin king
Ġre mo
ĠS ar
Ġcy ril
ĠJ oker
apor wave
Ġhope ful
Ġdol phin
Ġbec ause
Ġwright son
ed s
la dy
ĠD ep
ĠT ristan
Ġhor rific
Ġout run
ern o
Ġspaces hips
Ġapp ro
Ġd urand
an k
Ġro versi
Ġchi mer
Ġice land
Ġcloak ed
Ġspiral s
Ġd up
Ġw on
ĠN i
Ġbut ch
Ġcli ck
Ġav ant
Ġag nes
Ġcar ving
Ġvisual ly
Ġev oking
Ġastro photography
bat man
Ġdwar ven
ĠCha racter
........ ........
Ġbeet le
ĠEs cher
Ġf r
Ġh unting
ĠMon et
ĠDS LR
Ġb ir
ha nd
Ġle aning
Ġch en
min i
Ġfla gs
perfect ly
igen ous
Ġneoclassic ist
rane an
Ġya ta
j or
s kin
Ġf ind
Ġre ada
im an
Ġto on
Ġbr ing
Ġcar go
Ġhu es
Ġve il
Ġpropor tional
Ġkne e
Ġk an
el lo
Ġte mp
Ġnostal gia
Ġcomprehen sive
irony mous
Ġw ard
Ġg ardens
Ġwi fe
Ġy or
les cope
Ġsil ly
Ġair plane
ĠPix iv
Ġs enti
ar io
Ġn ag
as uma
ĠM ead
Ġta le
ĠT ing
Ġgo lem
Ġmc donalds
Ġrack ham
ĠK odak
ĠEd gar
Ġid ea
ĠMe tal
Ġin ner
Ġma zz
ster ious
Ġlo mo
ĠRal ph
f uture
on im
bl onde
Ġgrin ning
Ġconscious ness
w i
ta bles
Ġco oper
Ġis a
Ġel le
,, ,,
Ġmart ini
Ġquart er
Ġlo ck
Ġcy c
sc ri
ga ret
ls en
Ġdoor way
ta ry
ti as
Ġc rocodile
Ġst uck
Ġle o
ep burn
Ġmar got
Ġpatter ned
Ġkne eling
pix ar
ma gic
Ġqu int
Ġpi eter
Ġdecay ing
Ġs elling
ĠV erehin
sm ith
Ġsynthes izer
andinav ian
Ġs es
Ġu topia
ĠFu ji
o le
r ue
igh ter
Ġal ba
ĠG rey
ĠT i
ust ing
Ġbreath ing
Ġjosh ua
Ġk ush
Ġst ranger
Ġar tic
ĠH ow
Ġpartic le
Ġoutdoor s
' re
Ġo asis
Ġm itchell
Ġk h
pt uous
tle ss
ĠRe f
Ġbase ment
Ġral li
ĠT V
Ġup scale
Ġpsy ch
enta ur
Ġgaz ing
Ġinno cent
Ġgra ph
ðŁ Ĵ
clo ud
x ic
Ġf ring
Ġm organ
Ġpo le
ch ant
Ġmazz oni
A A
Ġs ick
ic hiro
Ġk ashin
Ġmo hawk
ĠG ood
Ġjo se
Ġglow s
Ġsea ted
Ġcor pse
Ġcirc uits
Jo hn
HA DS
Ġ æ
Ġg andalf
de lic
Ġsp ongebob
ĠH ol
ag es
ĠMcC urry
frie nd
w ise
ĠS tre
cyber netic
v ins
Ġv ene
ĠPo tter
Ġdesk top
Ġm urakami
Ġwi des
el ton
ĠM id
ĠS mooth
ĠG en
ĠE ld
Ġbi ker
Ġdiv inity
k usai
un tains
Ġsa f
str um
ĠLight room
1 1
i lity
Ġsha king
ĠBo b
acha pelle
Ġw adim
es tal
Ġma tter
Ġfo to
ĠR HADS
Ġbu ch
Ġyoshi i
Ġaki hito
Ġyo ga
Ġhy p
Ġo per
is er
gy pt
dy namic
Ġfrac ta
mi one
ĠGu y
Ġth om
Ġma tch
ĠM ik
rac tal
Ġyoshi yuki
ĠRender ing
an na
Ġdis g
res ident
Ġsat in
ena issance
z os
ra do
ac tive
ul ated
ĠR AW
ten tion
Ġghost s
ĠSte ven
Ġsmir k
Ġhend ricks
Ġpisto l
Ġk y
ge lico
Ġmo s
pen cil
Ġre touched
Ġk ur
Ġn ame
am ura
per s
Ġlo ss
Ġbody suit
Ġwar lock
lim entary
ĠB lender
Ġwor ms
Ġass em
Ġpyramid s
c or
e nder
Ġfo untain
Ġno v
ĠF inn
Ġwater melon
Ġsim s
Ġhiro shi
Ġdag uerreotype
Ġcorrid or
Ġco me
Ġr yo
Ġcon ven
Ġgra ding
ĠN ight
Ġsand ro
ĠSw an
Ġsingular ity
Ġfuj ifilm
c ro
f ried
sc hi
sc ow
Ġanth ony
ĠMo hrhauser
Ġpea k
pix el
Ġnat ura
Ġamph ib
ac ed
or ig
tal l
ver ine
ĠC or
Ġali ve
Ġhe licop
du otone
Ġm Åĵbius
ĠS cott
man us
ĠP e
Ġori ental
Ġp ud
Ġh ut
Ġnight club
Ġko stic
Ġbel la
Ġhomo erotic
Ġg ric
Ġl achapelle
Ġla yout
Ġho kusai
Ġdi ther
Ġdi verse
ĠZ abrocki
Ġsuspe nded
Ġmotif s
S te
j im
v ard
Ġ use
Ġt oned
Ġcon si
ĠKon ig
Ġhig ly
f orn
Ġh ide
Ġe va
Ġj un
ol lum
Ġhor n
Ġdis tor
ĠAr gyle
ju ku
Ġec lipse
Ġaccess ories
g arov
Ġsp arth
Ġpla za
Ġgo ose
Ġjohn ny
Ġwal ker
ug i
Ġser p
Ġcomp limentary
Ġjew ett
Ġwo uld
Ġreb el
bo ur
Ġarc ade
Ġmor tal
ĠHar ry
ĠVicto rian
Ġbuch holz
ĠA na
ern ess
rome the
Ġtak eda
ĠCo lor
Ġtub e
chen bach
w l
ul s
Ġr ut
ðŁ ¤
Ġair port
Ġna poleon
Ġpa gan
ea ting
Ġan s
Ġop ulent
ik ed
dan ny
Ġev olution
d own
Ġlo ving
Ġcir cus
Ġrese mbling
Ġlam ps
reg nant
Ġcor on
ana log
uguer ea
Ġintrin cate
d wayne
Ġp ull
us ual
po li
Ġjo hfra
Ġdis to
Ġpark ed
Ġrec ur
ĠPo rtra
Ġsunbea ms
Ġdisgu ised
Ġm ine
Ġbeautiful l
Ġsp iked
Ġwin ds
ia tion
Ġmar sh
Ġgar de
Ġgen shin
stant in
Ġmegapix els
Ġr ural
Ġan sel
Ġman ne
vi brant
ĠV a
Ġem bers
Ġi i
Ġcinemato graphic
zi lian
v ol
Ġl ind
ĠB en
ĠF rench
Ġbre ast
Ġdust in
Ġbill board
Ġrud nick
ĠY ayoi
Ġsna il
Ġbiolumin ance
Ġemb el
Ġcoral s
Ġisa ac
k rainian
m ish
en ko
Ġra chel
Ġdes pair
Ġind igenous
Ġsle eve
Ġferra ri
ĠCas par
ĠE ng
Ġri ft
Ġsho ws
Ġla unch
Ġi k
Ġlevi tan
romethe us
Ġa er
ra ting
Ġk ee
Ġpo trait
Ġportrait s
ĠR ange
Ġben ed
Ġpear ls
ĠWolf gang
y si
Ġa my
Ġra pper
Ġ1 7
ĠK yo
pe ti
Ġtra ffic
we in
ĠZ uckerberg
Ġwild erness
Ġclass room
R O
Ġpa ws
sh rek
Ġvi et
fo cus
Ġcour bet
Ġimagin ation
Ġr h
Ġsha de
Ġdo izon
Ġprin ted
Ġim mer
Ġpor tait
tical ly
Ġhat s
Ġboss chart
Ġenhance ments
a fe
Ġbu g
Ġs era
Ġo ss
Ġg ene
ve lop
Ġdri ver
Ġber ry
Ġskeleton s
Ġde li
per son
Ġdra ma
Ġmus ical
Ġcol la
iden tial
Ġdeb ris
t ue
v ate
ĠM ed
Ġcom edy
Ġsat urn
ius eppe
icken son
Ġbean s
Ġenter ing
re ll
che z
Ġsti pple
Ġcock pit
Ġom ni
Ġscroll s
Ġs ana
sta ble
Ġn guyen
Ġmes mer
U ltra
Ġo d
am er
ĠP at
Ġpin ea
Ġfac ility
Ġsuper model
er i
Ġg oku
Ġcon n
ĠH ugh
human oid
ĠLea gue
Ġc us
Ġth igh
ĠR uss
ĠW ood
Ġdo es
ton ic
Ġhuman ity
Ġink ed
Ġdiv ing
Ġvar gas
weg ian
Ġa gg
li us
sta nding
ica sso
Ġ18 60
Ġelder ly
Ġmo rt
Ġter ry
Ġtur ned
Ġexplo ration
Ġtro ll
Ġleon id
!!!!!!!!!!!!!!!!!!!!!!!! !!!
ĠRay mond
Ġvik tor
Ġbe k
Ġblue berry
iller mo
Ġartem is
c ry
sc ap
Ġcol on
Ġpar rot
s ant
Ġin vas
ĠL ett
Ġga ussian
Ġfar mer
Ġsch warzenegger
igra de
ĠLett l
T I
f ather
Ġt undra
Ġsim ilar
Ġbal an
ĠLo ve
p el
Ġro lando
Ġdra per
Ġmag enta
19 7
lego v
Ġaven gers
u f
nd on
mo on
Ġem itting
Ġmud dy
er ma
Ġn ine
ĠJes us
Ġwhirl ing
a in
Ġb is
ul ac
Ġsha ven
Ġer up
ats une
Ġde pp
ung y
ima tion
Ġsky walker
ĠRich ter
Ġproj ection
Ġarc tic
bor gh
g lowing
ce mi
Ġpe tite
Ġmc kean
Ġwo ol
Ġpara de
arti st
ta ken
Ġw ig
Ġv ent
Ġt shirt
Ġsh epard
Ġsy metrical
ĠJ acek
ĠChris topher
ĠMax ence
im inal
qu er
ĠD y
ĠJ ustin
Ġfor ming
Ġpoly gon
Ġaqu arium
Ġped estal
ĠChe v
n D
ra t
Ġv ice
ran k
fo e
Ġter rier
Ġspo ts
Ġdof us
Ġstair case
Ġv ul
ĠS andra
Ġper ception
rop omorph
Ġcor porate
Ġeth nic
ĠEd win
Ġfinn ian
Ġin strum
il ma
Ġtra ding
Ġalex andros
Ġegg le
m pic
Ġte lescope
ĠK night
Ġmen tal
a quin
Ġli u
Ġpo ppy
ss ic
Ġra ms
Ġso und
Ġpost processing
Ġmac manus
Ġmore au
Ġalche mical
Ġama nda
Ġinfla table
Ġm im
is ing
Ġj acek
ĠA bstract
met ery
ĠS ho
ation s
Ġse qu
Ġfire place
Ġpastel s
es ar
Ġtre nd
Ġdon key
Ġig or
Ġsyl vain
Ġo ly
ic on
id ers
Ġarm ed
cis ion
cre enshot
Ġrep tile
us te
Ġt yp
bo k
Ġar cher
Ġbear s
Ġvio lent
Ġsmir king
te ll
Ġe vocative
ĠS ur
Ġdo yle
Ġdom es
Ġlew is
borgh ini
Ġp ug
Ġf rid
il ton
Ġun usual
Ġmoun ts
Ġau stralian
Ġbul garov
ule an
Ġvita ly
Ġappea rance
Ġg av
to ro
or ite
Ġsta rt
onal do
Ġad orn
Ġrese arch
x ious
it ter
Ġsun lit
Ġfire works
ĠHyper detailed
arc hite
c ape
Ġs ame
Ġw ritten
ĠR ick
Ġvene tian
c omb
d el
Ġp itt
ĠG irl
Ġz dis
Ġspo res
Ġcow girl
Ġsar railh
mass ive
Ġdeser ted
ĠKyo to
a se
l ined
Ġthor ns
e ing
Ġa chenbach
on en
Ġmo usta
ĠA ra
ĠL aw
ub a
ced ural
Ġbreak fast
v aporwave
ate e
ĠP ark
ĠP icasso
ĠV ladimir
sty lized
tch es
ĠâĢ Ķ
1 2
Ġma tsu
um es
ĠH y
ĠF i
Ġwh eat
Ġchrist ina
Ġbott les
j in
ĠM ars
Ġwood land
Ġdown town
Ġpark er
Ġs layer
Ġun ity
Ġhor sley
Ġast on
ult ry
Ġdev ice
ius z
col n
Ġgest ure
a erial
Ġf ried
se xy
Ġle s
up per
Ġbo ys
Ġmytho logical
g il
in ty
lo ons
ur us
ĠI I
Ġse em
we led
ume i
ĠRender ed
Ġsimpson s
d avid
n is
li fting
Ġpo tion
Ġl on
Ġcy bor
Ġed m
Ġmix ing
id s
bo oru
ĠS mith
res co
aces hip
ĠGer hard
b ay
shi ps
Ġvis ta
Ġsche matic
Ġbust ling
c ine
t iny
Ġd id
po sed
Ġsun flower
Ġbar ren
Ġtra nding
ðŁ ĺ
Ġmin is
ĠLe w
Ġj ustice
Ġpro tec
Ġexp ensive
Ġhip ster
b ones
n eath
v ladimir
Ġbo red
Ġman hattan
Ġfran ces
hyper realist
ĠMar vel
Ġboun ty
b oris
Ã ¸
ta ro
Ġw eldon
Ġma kovsky
ch in
ri am
ĠS ci
Ġhd ri
ak ed
ti lian
Ġba thed
ron om
Ġwood cut
Ġaf remov
ped al
Ġbon sai
Ġpup ils
o is
v ar
ro s
om es
ĠM y
ak u
ste ve
que z
Ġunder neath
Ġmu er
Ġriver s
Ġcent re
Ġmer cen
Ġsome one
pur ple
ĠSwan land
Ġa ges
Ġg um
dra wing
Ġkn own
Ġtr unk
au to
Ġsus hi
Ġribb ons
Ġspin ning
Ġw pa
Ġg ay
uc asian
ĠD or
ĠL ord
art s
Ġlu r
Ġoff set
Ġpan ther
Ġfree man
Ġfracta lism
bo us
Ġup ward
ĠQ ueen
Ġhit ler
Ġneigh bor
Ġchimer a
) .
ber ts
Ġdream works
Ġbat ter
Ġharve st
Ġa to
ra tive
rac le
ĠJ a
ĠP al
Ġdy lan
Ġits elf
Ġnel son
ĠT his
Ġpro tagonist
ĠL SD
Ġdo ta
ord er
Ġsculpture s
Ġve gas
Ġpath finder
Ġmono chromatic
inf eld
Ġeg gs
Ġmousta che
Ġa vedon
ile n
Ġal va
ny der
ĠHa eckel
Ġorb it
Ġpri ma
Ġaster oid
Ġd or
Ġe ve
Ġmo ssy
Ġme te
ĠV FX
men se
ĠSt Ã¥lenhag
ĠDen is
ĠD nD
illa is
sur realism
Ġhan uka
Ġgrav ity
k ward
Ġp rice
Ġk ay
kow ski
Ġjo jo
Ġgo es
Ġeye balls
Ġgla mor
Ġdelo rean
ĠG al
Ġte ss
ys on
we ed
Ġtrans cend
Ġcur ls
pro duct
Ġalter modern
forn ia
Ġh ong
po ly
olu te
Ġc unning
ul f
Ġjo int
Ġsur pris
ior i
Ġfer ret
Ġass o
Ġdav is
Ġthous ands
l ining
Ġv acher
Ġta g
Ġab ra
ane ly
Ġmach ina
Ġja ke
p ie
Ġillustra tor
Ġbul bous
mac ulate
hea ds
Ġa ly
Ġca v
Ġpro gram
sing le
Ġcor set
ĠAd am
k inson
v icto
Ġst ubble
na sty
Ġdep ressed
Ġfur ious
cre en
Ġnic olas
Ġreada bility
l us
Ġb eck
ĠG iuseppe
Ġpre cision
bla de
Ġso urce
!!!! !!,
ĠG aston
Ġbal loons
Ġmiddle ton
Ġlucas film
c ury
us ing
ha ired
Ġbe ings
av ing
Ġcor rec
Ġraytra ced
ĠLip kin
ho ld
ea p
Ġro le
ĠA rian
op ard
fla t
Ġlun ar
Ġa ero
ur s
Ġne ur
ĠP in
Ġce metery
zzzzzzzz zzzzzzzz
Ġbam boo
Ġd row
ĠS un
za ar
Ġimper ial
d am
s ome
Ġf lies
la t
Ġbe es
iv es
tan yahu
Ġda isy
Ġdol lar
Ġdinosaur s
Ġmesmer izing
Ġj upiter
Ġsha u
Ġgreen house
Ġfall s
Ġb illy
Ġgr ungy
Ġ10 24
Ġthous and
Ġniko lay
k an
ar ck
Ġ1 2
ĠB lue
Ġjo urney
ĠW all
ub is
Ġbra ins
Ġsto kes
Ġhan ks
Ġshr ine
Ġthr iller
s w
Ġen c
ima lism
Ġti ara
Ġcock tail
incred ible
ph ire
Ġla wn
Ġtri um
ab re
Ġkit ty
scre en
h ry
Ġch ic
Ġang les
Ġsa us
Ġform al
iter ranean
Ġhip po
f urry
Ġc entaur
Ġw ick
ul as
Ġy an
Ġup side
Ġfor ward
Ġdis per
Ġju les
Ġsummon ing
th al
Ġcon tain
Ġme th
Ġph ysi
Ġdrin ks
Ġnel sson
ĠDevi antart
Ġma ple
Ġro erich
ĠM as
ĠI ns
Ġfa ther
Ġspec ies
Ġsai yan
p epe
Ġ uv
Ġ âĢľ
Ġdra gan
ĠF ur
Ġgo t
Ġven om
p rise
Ġs ean
ĠC ine
Ġpro ject
Ġsu bli
ond a
Ġhy ung
Ġphysi que
g le
wo rth
Ġdoor s
f ig
Ġsc andinavian
sa wa
Ġpaste ll
Ġfish er
ik achu
Ġriver a
ĠGre en
Ġkits une
b ear
Ġo da
po se
bo at
ad i
Ġcar bon
Ġic y
Ġbeast s
Ġhind u
Ġj as
Ġmat tias
Ġquart z
cub us
Ġn othing
Ġsc ream
ĠM ignola
ĠT ark
Ġor ban
Ġze us
A r
Ġe li
od iac
ĠW oman
my sterious
Ġmu gshot
Ġko ons
Ġbat tles
Ġhiro hiko
Ġimag ina
Ġcybor gs
Ġsta dium
Ġar k
ĠThe odore
Ġhero ine
Ġni ke
Ġni elsen
Ġsenti ent
p rompt
ea ki
ĠH u
vi z
Ġmy ce
Ġmel ted
tiv ity
Ġslo th
Ġto ro
Ġacade mia
Ġagg ressive
o e
w hat
ta t
ne th
pa ss
Ġcor rup
ĠðŁ į
Ġrus s
lid ay
ange chi
Ġvir gin
L iminal
i per
Ġm ight
ha shi
stra ted
ian e
bi ome
sk etch
Ġalp ha
Ġs noop
Ġde si
Ġt ent
Ġback round
Ġte ll
lis ed
Ġmad ness
ef ling
ĠGre ek
ĠAki ra
isto cra
b es
Ġdia blo
Ġhalluc ination
Ġnov eau
Ġinvas ion
p ow
y x
Ġb unch
Ġc ereal
Ġm unch
ss ey
ub on
Ġsoph ie
Ġcata log
Ġ Ð
Ġb org
Ġg lac
Ġon i
ki rt
ĠT okyo
Ġflow ery
Ġhe els
Ġsil ky
Ġdri ve
Ġass ets
ono red
Ġses ame
a po
a ver
Ġf used
Ġpo w
ĠR ack
Ġti les
ĠK asuma
Ġdepth s
Ġbi blical
Ġsad amoto
Ġspher ical
ĠRal li
Ġadolf sson
Ġs ultry
Ġg rant
Ġk ow
qu ality
Ġal tar
sc ary
ds lr
ĠE y
Ġres ident
aro lis
Ġcrac ks
Ġ ~
Ġa k
Ġs ear
Ġcom mon
Ġch ill
ĠR oman
ĠI to
Ġdef ault
Mo vie
Ġrema ke
Ġartemis ia
Ġha y
Ġno tes
Ġble ach
Ġbak ed
Ġlive ly
Ġblock s
Ġcoloss us
Ġmanne quin
to ria
la ma
ig ma
Ġpo lish
ut nie
ĠH is
Ġgo ss
Ġglo be
Ġengra ved
Ġbil lowing
ĠStre et
Ġmuer tos
utnie kas
T win
b ling
th or
ĠP an
Ġste phan
Ġwor ker
Ġ6 4
Ġshe ets
Ġind igo
Ġpolar izing
Ġcub es
Ġfab ry
Ġbou quet
Ġjud ge
Pa inting
Ġamphib ian
Ġminis kirt
to id
Ġal phon
ĠS ony
Ġru in
Ġbur ied
Ġju lia
Ġdisto rted
f ractal
Ġo l
Ġco unter
el berg
hi ft
Ġch es
Ġdark synth
Ġpro te
bl r
ĠPrin cess
ĠRef ined
en ment
Ġy ves
Ġra ised
Ġd roid
Ġp j
Ġen ticing
Ġra ndy
ucha mp
Ġang us
Ġsand y
war rior
Ġear l
Ġstic king
Ġtar d
c hip
c ula
Ġa tom
Ġf av
Ġe co
ma p
Ġle iter
ĠH R
Ġpro mo
Ġcra ne
Ġtemple s
Ġarch es
Ġav iator
dis ney
Ġaw kward
ĠBus siere
ĠG host
Ġsha ved
Ġsur v
Ġreflec ted
Ġty pical
Ġprec ious
Ġfel t
Ġhelicop ter
ĠChev rier
g onal
Ġna u
Ġstorm trooper
d eath
Ġ iden
Ġb ump
li ff
hi st
co in
Ġ2 4
ĠN or
Ġpre historic
Ġhi ppie
Ġspra tt
Ġkom arck
Ġ è
ultra realistic
Ġho g
Ġu ta
Ġsmoke y
ĠZ hong
Ġtri be
Ġble vins
Ġsad ness
upp ets
ĠMc Q
atel lite
Ġdisper sion
ac tor
Ġla brad
Ġdo t
Ġpe nd
Ġda hl
ĠY erka
Ġstan ce
Ġclown core
o graphic
Ġthe ater
Ġla ve
the w
ĠK e
jo urney
ĠGod dess
Ġletter s
Ġsc out
Ġpro s
mon ster
Ġim maculate
Ġtrac k
ĠChar les
Ġcro ft
prof ile
ĠHar ris
rus ted
Ġmercen ary
Ġasso ci
Ġc uc
Ġsta cked
Ġba zaar
ĠRo cha
' d
b ul
Ġd il
Ġh ere
ic c
Ġl angu
rac ing
Ġdis sol
Ġforest s
Ġtrac ks
)) ),
mi ya
Ġpro cedural
ub el
Ġrain coat
Ġmac iej
ĠðŁ Ĵ
Ġmt g
Ġs as
ur u
hi re
Ġsuper natural
Ġi w
Ġir ish
Ġhi per
Ġwash ington
ĠRack ham
n en
Ġf en
Ġe t
am pire
Ġobs er
Ġin ven
ĠA uto
Ġhid ari
usc ript
De tailed
Ġenlight enment
ĠFuji ta
b atch
Ġsh ards
ĠF enghua
ag i
Ġexpression s
Ġoss draws
s om
Ġs lic
it ted
ck ney
Ġsm ug
ĠV ic
ĠAf rican
ĠRep in
ĠBlood borne
E lon
f le
lo so
Ġpo ss
Ġste ps
Ġrec lining
Ġkor pi
2 1
m ell
Ġc rt
Ġe go
ĠS qu
Ġso ap
Ġjo el
Ġfa e
Ġwal ton
dy ssey
mod a
Ġsmart phone
ilen ko
Ġha z
Ġar istocra
Ġgod like
Ġsa il
Ġfle mish
Ġgentle man
Ġmilli on
Ġluc id
c ard
Ġg abriel
Ġk etch
ĠB ig
Ġu ang
Ġhow ard
umber batch
r ilenko
Ġ ide
Ġk ombat
Ġco uld
Ġho les
ĠT an
ĠJ unji
ĠW itch
tar c
men ting
Ġvik toria
k al
n ious
x el
Ġ Ã
Ġch uck
tre e
lic t
Ġgo atee
ĠN ational
we ight
Ġim mense
ism uth
Ġrefrac ted
Ġwrink led
f lying
z ine
Ġs sci
Ġw angechi
stra n
Ġdiff used
thy st
Ġseven ties
Ġcoo ke
p eter
Ġde ter
am el
me chanical
ĠR ussian
Ġmi ami
ick man
Ġbi pedal
Ġsea t
Ġlow er
Ġrun way
ĠWar rior
Ġsen ior
Ġsubli me
te ms
Ġj ea
ĠR enaissance
Ġmoon s
Ġkar lkka
oc tor
Ġgener ated
ĠAli en
ivid ual
8 5
u in
Ġa ver
ate st
Ġfo ster
Ġno on
Ġhor ses
ĠN in
Ġtur bu
hua hua
tex ture
Ġkh ali
Ġgav rilenko
s keleton
u o
re ts
Ġc i
Ġflo ats
ĠCo ver
Ġpat ina
ol ph
Ġto u
Ġl ing
Ġpic nic
ĠAn th
ĠAlex ander
ĠFe lix
Ġgoss amer
Ġs ith
Ġc ran
en ger
Ġth en
Ġro w
Ġpro to
Ġti efling
Ġac tor
Ġgrow th
Ġh epburn
Ġli ch
Ġsho cking
ĠD al
ff le
ĠP hil
ĠE van
br uta
Ġchi p
Ġfight s
Ġei ichiro
Ġin fo
ho ly
ric o
ĠV olumetric
Ġda rek
Ġsa uce
tian o
Ġcol ony
Ġball s
Ġartif act
Ġtravel ing
prin cess
k ed
id as
mon ial
ste in
Ġpan ting
Ġplay ground
pre tty
Ġchee ks
Ġsyn thetic
in et
Ġr ide
od s
Ġmo thers
Ġto rt
ino ta
Ġhel lish
Ġbob by
Ġly n
cos mic
Ġtheat rical
Ġo dd
Ġm utu
en o
Ġre le
ma ra
ve ctor
ud son
Ġman uscript
Ġfi st
ĠD r
van ni
Ġspir its
Ġrh ino
m c
Ġs nyder
Ġo x
Ġw el
Ġg ary
Ġpo d
Ġtr ig
ori enta
Ġhaw k
Ġjac ques
biome chanical
ti er
Ġh ur
ad es
Ġpro p
Ġspace port
Ġgar b
ĠWar hammer
Ġpri vate
Ġredd it
ar n
Ġg fx
Ġan n
gra ms
ĠB ack
Ġz ack
Ġadam us
Ġmeta verse
Ġrepres entation
Ġhundred s
Ġembel lish
C ha
ine m
el mann
Ġyo ichi
pe x
Ġcra yon
Ġvis u
Ġnor wegian
vad as
Ġberser k
Ġtwist ing
b ron
Ġde vadas
al an
Ġmid day
Ġmac abre
of y
Ġwea sel
Ġdro ple
Ġturtle neck
ĠRes olution
ranes i
Ġpa y
Ġru th
Ġstr ing
Ġrec laimed
Ġbean ie
Ġze bra
Ġterri fied
Ġan xious
Ġout lines
Ġshadow ing
Ġpen ta
con scious
Ġbla ir
rent z
Ġk no
Ġon yx
Ġsc oo
ĠC ru
ĠH ier
ff el
Ġdragon fly
led ge
Ġpark ing
Ġju an
Ġric e
Ġpinea pple
p ace
lo tte
Ġj ayison
at t
Ġsw e
Ġvicto ria
Ġacade mic
p ark
Ġcon cep
Ġqu entin
Ġpla ins
Ġcur tains
Ġhel m
Ġfung i
Ġimagina tive
6 5
Ġg an
ch re
Ġcha rt
ue z
Ġcere monial
b ene
Ġs ke
om ination
Ġla ure
Ġshot gun
pa le
)))) )
eath ley
Ġlomo graphy
Ġh ear
Ġma jor
Ġis lands
Ġwor d
ĠI MA
Ġspi ke
Ġsi en
Ġtum blr
n al
Ġg ordon
Ġi q
Ġgem stones
Ġlist ening
Ġsh ack
Ġha taken
Ġsho wer
Ġlo bster
ad as
ga ra
Ġcre ek
pro motional
ĠEm manuel
Ġmode led
Cy berpunk
Ġhataken aka
v ind
Ġc ulture
Ġdetail ded
Ġcom fy
Ġtan ko
Ġfre y
ĠKar lkka
Ġharp y
lo m
Ġe gypt
Ġwi ring
ĠW onder
Ġflo at
ĠN ikon
Ġlave nder
ul der
Ġco in
Ġy erka
Ġlo unge
sc ho
Ġmatte painting
bi ke
ton y
Ġgeometric al
Ġclar ke
ys ical
do om
Ġcart o
com p
Ġdisco very
Ġhus ky
9 0
Ġd ulac
or nate
ig a
Ġr gb
ĠD arth
Ġso u
Ġfed ora
tw ined
Ġsap phire
Ġcus tom
scap es
S h
Ġc lash
Ġart box
Ġpo oh
Ġsn iper
Ġdri p
Ġmer ged
Ġscot tish
Ġvege tables
Ġrol lo
Ġbuck et
Ġb less
Ġart fol
ch es
Ġcy cles
ĠT ur
iver se
Ġmicro chip
Ġsuc cubus
Ġeis ner
Ġdup lic
Ġd od
Ġw ic
Ġfo am
Ġto xic
Ġtree house
sym metric
Ġrub ens
ĠAsh ley
Ġchamp ion
Ġvers us
Ġnur se
u ary
le ep
am eric
Ġgre atest
Ġdo ve
Ġ] !!,
Ġco p
Ġj azz
Ġlo lita
ĠL ondon
Ġem blem
tis m
Ġjoseph ine
Ġarab ian
Ġproportion ed
F ilm
Ġf resco
Ġca ucasian
ach es
lop s
Ġcar uso
ĠI ron
Ġapp earing
ĠMag ic
Ġbudd ha
E S
m ine
Ġg io
Ġqu e
ĠE OS
Ġchi m
Ġben jamin
Ġfal con
ĠJohan sson
Ġcorrec ted
Ġtard igrade
ĠIMA X
p ants
li ed
Ġcom fort
and id
mosph eric
rie ver
Ġga rage
Ġdish onored
ĠGood man
ĠLew andowski
Ġassoci ated
s ted
Ġo ran
Ġta ka
ĠJ in
ĠRo bot
Ġchi mp
Ġble nd
Ġhid eaki
ĠAna to
N D
l ush
Ġpa ges
Ġlight room
Ġcyber tronic
Ġcir cles
let ub
Ġeng land
Ġfloor s
Ġsec tion
Ġconf used
ĠTark ovsky
t rump
u gg
Ġs vg
on t
qu il
Ġdetail led
ĠR id
Ġwin s
Ġcyber space
ĠL in
Ġdon ut
Ġtrig ger
f rog
Ð °
Ġ tic
Ġo lsen
Ġe ther
Ġk ang
Ġk uro
lu x
Ġn c
Ġch ung
Ġta ste
Ġsa nders
Ġgi org
Ġdev ian
ĠPo rt
Ġpunch ing
Ġame thyst
Ġdraper y
Ġsurpris ed
< /
it te
Ġtan ned
ĠHo use
Ġcross ed
ĠAr nold
Ġhen son
Ġcorn well
Ġton alism
Ġfranco is
High ly
Ġide al
Ġv aro
et su
Ġta rant
Ġho liday
Ġfor ces
mon aut
Ġcomple menting
Ġmer chant
Ġpump kin
Ġserp ent
ti ble
Ġp ean
Ġo k
Ġli the
Ġpo e
ki m
Ġle opard
ys tical
mas a
Ġcartoon ish
Ġlab el
Ġsav age
Ġhung ry
A ffinity
ch inese
Ġcon so
Ġsha ggy
ep rin
Ġpen ny
Ġpoly p
Ġcasual ly
Ġdirect ly
Ġdissol ving
tic s
Ġk er
Ġbo il
ess or
Ġi tems
Ġmark s
unge ons
ĠSky rim
ĠF or
sa ul
Ġtable top
Ġec sta
Ġkun is
Ġpsych ic
Ġsho e
Ġlong sden
Ġbro oding
Ġhar mon
ved a
Ġmal veda
Ġsla vic
Ġei ffel
Ġhit ting
sea mless
Ġcuc umber
D ra
L o
Ġs mash
is c
Ġn olan
na ke
ĠF ern
ĠN gai
Ġrob in
Ġfu ch
Ġcr us
Ġguard ian
ĠCar l
Ġtin type
ĠAmer ica
Ġloc ation
Ġbalan ced
S a
i ka
Ġp lum
Ġl lama
ĠM od
Ġunder world
no ir
Ġmarc in
Ġjan sson
Ġpoin ts
Ġgriff in
ĠVic tor
Ġhaz mat
g andalf
Ġv ine
Ġma fia
ap p
ĠG ad
Ġday s
Ġter rain
scul pture
Ġgang ster
ĠHugh es
ĠLaw rence
inota ur
scho ol
S till
ric t
wa i
ĠSp ider
Ġinti mate
S t
w itch
Ġm old
th us
Ġk lint
Ġare na
ora yama
Ġcas ino
Ġfinn ish
ĠHa jime
Ġresem bles
Ġhyp no
Ġaero chrome
Ġturbu lent
O R
g ary
Ġh ul
Ġby zantine
Ġe arle
ig matic
Ġphoto lab
Ġto ons
co unter
Ġmod est
Ġgeorg ia
Ġpixela rt
Ġyouth ful
ropomorph ized
f old
Ġal ps
sc arlett
Ġcar lo
ĠYo u
Ġmur ky
Con cept
D igital
g roup
Ġg le
Ġv ari
id es
row th
Ġinter twined
Ġfair ies
Ġrefrac tions
ĠDen ning
Ġspar tan
Ġtrooper s
Ġremaster ed
Ġembellish ments
E A
Ġp regnant
ĠM in
ima listic
Ġcam pa
full body
Ġsee ing
ym ph
Ġspra wling
Ã ¨
Ġd ub
ali zation
ir y
ĠG ear
mon a
Ġab stra
Ġhu bert
we st
ĠU S
ĠGer ard
Ġtouch ing
Ġp rom
us an
Ġli me
Ġmo ra
Ġfe m
ĠV R
Ġlu t
ĠMar iusz
Ġpark inson
Ġsal t
Ġdec ol
Ġhol land
ĠLong sden
Ġinte gra
m ian
re ality
Ġwi dow
Ġle aving
Ġne st
ga zine
Ġsa ber
Ġair craft
c thulhu
o ch
Ġs no
Ġy as
ĠW ink
ones ia
mar io
Ġever ett
Ġband ana
Ġseb as
gho st
Ġchecker board
ĠFur Affinity
Ġconcep tart
f red
ho me
ma k
ly n
at ra
Ġen amel
Ġne tanyahu
Ġgo gos
Ġfur y
we k
Ġtho ugh
Ġange les
ĠGer ald
ĠDes ign
Ġcomb ined
Ġambro type
Ġpow der
b ac
e mon
n wein
p ect
Ġm ali
Ġha se
ĠJ ayison
ĠP utin
Ġcan non
pi kachu
Ġgu illermo
Ġfle ischer
ĠDev adas
Ġbleed ing
Ġwides creen
g old
Ã ³
Ġb ismuth
Ġf as
Ġe vent
Ġl ink
Ġsw ynnerton
Ġtrac er
Ġmy st
Ġja de
hen ge
Ġwre ath
rang ling
Ġjea lous
Ġh eld
mo rous
Ġ1 5
ĠB ol
Ġpower ed
Ġmer cury
Ġplu mp
Ġloc ated
b is
an n
Ġe qu
as ing
Ġfa int
ression ist
itt ens
Ġsay ing
c akes
le in
to on
Ġre med
Ġk unkle
Ġfa i
Ġx f
cle ar
til us
Ġpock et
heads hot
i tage
ti d
ac ho
Ġmar garet
illi er
Ġconte mp
Ġsor row
Ġviet nam
Ġpa w
ine tic
Ġcon tin
Ġlo ony
ĠR iver
ĠB rown
ale x
ĠGra nd
poli tan
z ee
er aphaelite
Ġart ful
ĠF ord
Ġda ily
no va
Ġvam pi
Ġaw ak
Ġswing ing
Ġgri zz
ro ad
Ġy ard
Ġsp ee
iew icz
Ġdy ing
ĠV en
Ġbur nt
Ġlipkin ng
Ġinsec toid
Ġcheek bones
Ġleo tard
orig inal
Ġpull ing
li um
ap id
Ġfac ed
Ġtra ce
ugh ter
ĠLo ish
Ġb ac
Ġart sta
ĠB urt
Ġti ki
Ġdy nasty
Ġwa in
Ġham ilton
Ġphi loso
Ġdisg usting
Ġc umberbatch
Ġk ent
Ġha bi
Ġsta in
Ġsho ck
res ted
aro o
ĠFo rt
Ġreve aling
Ġmatsu yama
Ġlangu age
A S
M ichael
d ust
ti que
li fied
Ġw and
Ġan to
Ġar mas
ĠJ acobson
ĠP sy
va bene
ðŁ İ
Ġmin er
bu lous
Ġtor res
hol son
Ġsup reme
Ġtomo kazu
blu eprin
Ġspee ch
w hel
Ġa y
am an
Ġbe ks
Ġfi ona
ĠT ony
Ġstar fish
Ġthin king
ĠDan ny
Ġlen se
Sp ace
Ġglad iator
ĠWink elmann
Ġremed ios
e jima
ti ght
Ġco con
Ġco bble
Ġma miya
ie go
Ġsharp ness
Ġra re
Ġbl ush
ĠS tation
Ġdo ts
ag u
ula tor
Ġret riever
igen ori
ndi tion
T wo
f irst
th on
Ġpo ur
sh eet
ĠT aylor
Ġblu es
wor na
Ġarm strong
Ġsam ura
Ġturt les
Ġwash ed
net sov
Ġappro aching
g rim
Ġt ric
Ġpi ranesi
Ġdecora tions
Ġaub urn
Ġryo hei
st ino
Ġsle eves
Ġmer riam
ĠEl on
Ġ200 0
ĠGo ro
Ġjon athan
Ġscor p
Ġo chre
od on
Ġsty lised
Ġsa fe
pper s
Ġbio logical
Ġbaby lon
Ġcapture d
peti tion
americ an
i lia
Ġs ma
Ġover la
Ġtrench coat
mach ine
C ar
j n
ali a
Ġl ane
ach sh
lop e
hu oc
Ġsad ie
Ġchrist ensen
Ġspell s
Ġon line
Ġ1 4
Ġcom es
ĠB ot
har ry
Ġmicrosco pe
y al
Ġd ump
ra sov
Ġre ndition
Ġma pped
Ġbus cemi
Ġmor i
Ġni elly
ĠBli ss
Ġato mic
i tation
j eff
Ġd ickenson
Ġh ilma
ul y
Ġab omination
Ġi tem
Ġpre m
Ġroad s
over watch
ĠFinn stark
1 8
g arden
p as
Ġd rop
ro lla
Ġmo to
Ġto ast
Ġra men
ĠP ino
Ġstre tching
Ġcard board
Ġwild ers
Ġcrook ed
Ġketch up
u igi
ric a
ant on
io si
ĠO f
Ġser v
Ġza tista
G iant
i tive
Ġd one
an as
Ġart pal
Ġla go
ĠC ry
Ġge hry
Ġbat tling
Ġsplash ing
k ari
o bi
Ġp rometheus
Ġnic ola
ĠQ uan
Ġwis ps
Ġadorn ed
tarc tica
s qu
Ġc law
rac al
Ġblack smith
Ġho ckney
ĠF ilm
Ġlu be
lace k
ĠMat rix
cast le
Ġdom in
Ġbec ome
H yper
k h
m el
ta tor
ea rth
Ġoc tan
Ġhea de
vi es
Ġbra zilian
ony mous
Ġbal let
Ġastronaut s
Ġuniver sity
gig antic
Ġexci ted
M T
a ti
Ġb ang
Ġ3 00
tter ing
Ġcol labo
Ġes cape
Ġsli cked
sk ull
Ġelectronic s
ĠGriff iths
Ġnau tilus
P ro
g ical
Ġen igmatic
ĠB ill
Ġengine ering
ins ale
Ġside walk
Ġhy ena
Ġkon stantin
!!!!!!!!!!!!!!!!!!!!!!!! !!!!!!
Ġopa lescent
ĠD eath
Ġjo aquin
ual ly
Ġornate d
ica go
ĠNic holas
Ġlube zki
g wick
Ġc ad
Ġe ats
ĠF RO
Ġover lay
Ġbar bie
Ġtran quil
Ġ6 0
sp aceship
Ġillusion istic
Ġyu umei
Ġorienta list
ĠRub ens
l li
Ġc uto
ol l
ran ian
ct v
Ġposter s
yo u
Ġcub ic
Ġevery one
Ġpol lock
Ġmicrosco pic
ĠCap tain
s noop
Ġs ir
Ġhigh t
Ġan ten
Ġlo vers
Ġla nds
ĠD inet
ĠE ver
Ġover whel
Ġfran ce
ĠZ elda
rist ina
Ġcost umes
ĠGe ographic
Ġfranco ise
ĠNas reddine
apid ated
i ster
t ron
er ian
ĠJ essica
ĠP hi
va ge
.. .
mi ke
op y
ĠWilliam s
sha dow
Ġfright ening
Ġre actor
un ger
ĠS orayama
ĠH atsune
Ġba thing
Ġpla ted
Ġgod ly
lec tion
Ġnew ton
ĠSte ampunk
ĠPin terest
M ark
Ġ ç
ma in
Ġcy l
Ġwor shi
Ġstar gate
Ġdep ressing
aw n
Ġneb ulas
Ġvr ubel
w ith
Ġp ino
ac ial
la st
Ġn ymph
Ġsh ine
ĠR yan
han os
Ġsea weed
ĠNe on
Ġsed lacek
Ġgro ot
hin de
Ġpea sant
Ġphi lip
Ġgem stone
letub bies
achsh und
Ġro oster
Ġen e
Ġdra cula
Ġta na
man y
Ġje well
Ġexpression ist
bat tle
Ġner dy
o bama
ma jestic
gra iny
ĠJ en
Ġcre ator
Ġpix els
Ġmin ing
Ġcol li
sim ple
auto mata
s word
u ber
Ð µ
Ġb b
Ġn ano
Ġyo ko
ĠFo x
Ġmothers hip
h eart
ar ian
Ġe uro
Ġco la
Ġto e
Ġface less
Ġfi res
Ġmon ks
Ġfur suit
Ġmac ron
Ġcir ca
Ġpig s
chen ko
Ġcomma nder
to o
Ġla tent
ay an
Ġclear ly
Ġandre a
lin ton
Ġbones tell
Ġei lish
Ġeastman color
Ġfai rey
I S
un zel
ge ometric
po t
Ġte acher
ĠL y
Ġda foe
Ġel ves
Ġcos monaut
Ġafro futurism
ulti st
dream y
ĠTi tan
i ko
Ġsp ines
Ġbo realis
Ġru g
Ġsa les
Ġwh it
Ġtan guy
Ġnatura lism
Ġaston ishing
Ġdevian art
S uper
Ġb etta
Ġp iles
en cil
Ġt ry
Ġdetail ing
Ġal li
Ġho ver
Ġjo lie
ag onal
Ġbet ter
Ġbotanical s
osa urus
Ġgree ble
J es
Ġd uel
Ġp un
ver ted
low s
as ca
ĠD ream
Ġsur gical
na ge
Ġcrow s
Ġcr ime
Ġric ardo
Ġwhis key
ĠHen ry
Ġbek siÅĦski
g um
Ġc ruc
Ġg ory
Ġr io
od es
ve la
Ġch ang
Ġte k
Ġca b
ĠH am
Ġba gs
ðŁ §
Ġbea tiful
Ġauto chrome
Ġpie ck
Ġalf ons
Ġene my
S c
ti sse
Ġf ries
Ġbo oth
ĠT here
Ġdef ense
Ġval kyrie
19 50
Ġwheel chair
Ġgfx artist
Ġth umb
Ġk ha
Ġk ick
ph ren
ir i
so viet
(((( (
ĠChi ang
Ġnar uto
Ġneighbor hood
k iewicz
Ġd al
Ġco ca
ir k
qu era
ĠR ing
Ġcha m
Ġqu ad
Ġcar rier
Ġblo b
ĠMa gg
Ġrectang ular
d or
Ġtre vor
Ġto ga
Ġbr ue
Ġgo tt
Ġmand a
Ġap ron
Ġabs olute
Ġfring e
i u
o ur
Ġla ura
Ġjeremy g
Ġanton io
zo phren
Ġcoron ation
l ly
n iss
p tion
Ġen rich
Ġle page
Ġsta ble
ĠS till
Ġvolu ptuous
ðŁ ĩ
Ġve iled
Ġroman ce
rain bow
Ġhog warts
v ous
Ġde ss
lo ci
Ġe igh
Ġk ermit
Ġex c
Ġste al
Ġcre scent
Ġty po
Ġhiro aki
ĠSo viet
Ġguard ing
Ġamong st
Ġmck ie
Ġpac ific
bruta list
Ġfrey tag
k ind
ĠT ra
Ġu krainian
Ġmed iterranean
Ġher c
Ġi ke
Ġandroid s
ĠGre at
Ġtitan ic
Ġexpan se
ĠHier onymus
h m
m il
ro di
ka vage
Ġoil stick
Ġmar tian
Ġda is
ĠSt one
Ġscientist s
sil houette
Ġjewell ery
f ur
r um
Ġc lan
Ġw ant
Ġin tro
Ġco ins
ran n
Ġbe nding
ĠB rian
Ġchi ho
Ġandre y
Ġtank top
Ġkne es
ĠBat tle
Ġtakes hi
Ġdic tator
G e
ra ted
la us
Ġt onal
ki es
Ġla ra
va tor
Ġside view
Ġtele phone
Ġdeter min
o sh
p lo
il on
Ġre i
ph ia
Ġsh red
Ġsc y
Ġch ucky
ĠB al
Ġsu ff
ĠW ild
Ġlu igi
Ġsa rah
Ġinf ected
enti al
ĠMc Donald
Ġcamp bell
Ġnec ro
retro futuristic
knight s
victo rian
F W
e ther
o ke
p ha
x ia
z io
le ts
po tent
Ġra ins
ck lin
Ġno isy
ĠDan gelico
Ġcali fornia
usan agi
Ġma m
ĠP huoc
Ġdo ug
Ġpla tonic
Ġfrank enstein
Ġden im
Ġaqua tic
Ġexperim ental
sam urai
y r
ta ylor
Ġf ischer
Ġli lies
Ġk ill
sta tue
Ġwar f
ape st
ĠO ne
clo th
Ġwatch es
ĠDep th
Ġgott fried
Ġb ry
st ri
Ġth icc
Ġsp y
Ġz u
Ġru ff
Ġinter cross
Ġbla des
Ġfoo lish
Ġmulti verse
ĠMc K
Ġmim mo
som mar
Ġs ite
Ġc udd
Ġin j
Ġma ra
Ġma te
Ġbe th
ĠF al
Ġlu strous
Ġam i
cle an
Ġom bre
Ġknow ledge
' ve
g li
n uclear
lo o
Ġk arolis
Ġmo scow
Ġsp iders
Ġelegant ly
Ġso ejima
Ġsea s
Ġeye ball
Ġchar lotte
Ġflu x
Ġmother board
ĠSar gent
v ish
th is
ut ube
Ġat tention
Ġch illing
Ġba rack
Ġhel p
Ġtable s
Ġmix ture
organ ic
Ġkra ken
ĠBre athtaking
z ka
ta rot
Ġbe zos
mp us
Ġsan chez
Ġjin ping
ĠMagg iori
c ow
g i
Ġs atellite
lo re
Ġan ger
at ron
Ġsh igenori
om i
Ġen counter
ĠD J
ĠP ic
Ġgray scale
Ġsid ney
arti stic
Ġeggle ton
Ġling erie
e j
n in
Ġa aa
Ġj ing
Ġcon an
Ġha ag
Ġex pa
Ġch er
Ġpud dle
d iz
ic es
Ġli fting
ec tive
ĠS igma
av ision
rin a
vent ure
ĠJohan nes
Ġcass ette
Ġsma shing
ĠFRO G
Ġk el
Ġpo tions
Ġpo sed
Ġle ad
Ġover lord
len ce
Ġskin tight
ast le
Ġvo legov
Ġrepres enting
Ġmanda lorian
Ġherc ulean
ac ity
la te
ge st
de mo
as a
sh uman
ĠG arden
ĠD ave
Ġmon roe
ĠV o
Ġkn itted
Ġcoher ence
Ġind ividual
orm al
Ġcent red
Ġchan ge
Ġth ink
ĠB ea
Ġho ody
ron o
Ġdan te
Ġtw ins
Ġcor ona
Ġmark er
Ġbio logy
ĠTre k
ĠCG I
Ġortho dox
loci rap
Ġa po
ha bi
ĠA sian
Ġey vind
Ġsun flowers
Ġvan ishing
gan ce
Ġ19 40
Ġhow l
Ġfel ine
sn ow
Ġdil apidated
M E
ti t
et to
Ġr ush
Ġr hy
Ġro aring
Ġal most
ĠB ad
Ġz one
Ġmag no
sa o
Ġdri fting
Ġfer ns
van ia
Ġsig ils
Ġjura ssic
Ġmartini ere
Ġrecur sive
a int
Ġn eat
Ġro berts
Ġra ge
ond z
ba g
Ġmin jun
Ġstone henge
Ġsol ondz
ĠMc D
Ġflash light
Ġpr eraphaelite
Ġlam borghini
a esthetic
c ings
f rank
Ġli cking
Ġsta tic
Ġartgerm m
man ga
Ġ2 5
Ġlu m
Ġpor sche
ĠSh in
Ġrep tilian
ĠRe eves
gas can
Ġstraw berries
usc ious
Ġbros min
cro pped
Ġlur king
g und
m inecraft
o range
Ġf x
il lu
Ġle t
Ġca ra
Ġbra vely
Ġser ving
Ġhed a
Ġtape st
Ġmik hail
u um
w ild
Ġpa isley
Ġco un
gra nd
Ġra ider
ĠJ apan
ide lity
pa in
Ġmar g
Ġold er
Ġshi moda
ĠO n
Ġwat ery
Ġchair s
ãĤ ¤
ĠHor ror
B R
g us
Ð ¸
st en
Ġmo vies
ke ys
Ġl ac
ba ta
Ġvapor ware
Ġdimen sions
mark et
Ġbush es
Ġyus kavage
Ġhapp iness
ta na
en ery
Ġde w
Ġen ric
ĠAn gel
Ġnar rative
gig achad
techno logy
Ġoverwhel ming
B ob
Ġpa ick
Ġca esar
Ġse g
be nder
Ġstra utniekas
Ġvo ss
Ġsav rasov
Ġpotter y
Ġwol verine
Ġdere lict
ĠVer meer
E L
b ol
s mooth
Ġg ets
ad ian
Ġwar ning
Ġhead band
ĠI ta
Ġcam ou
Ġmu tated
Ġpost cyberpunk
Ġwizard s
Ġtrail er
Ġthom pson
ĠVa lent
Ġsleeve less
F O
a ke
ac ade
od ed
de en
rou ded
ĠB ell
ĠT oc
Ġmus cled
Ġbea ds
Ġpoin til
199 0
ĠToc chini
ch ment
man s
ĠD octor
ĠC lo
Ġac hi
Ġima ging
ba ut
Ġtan ida
rim p
Ġairbrush ed
ĠPro f
Ġk evin
Ġle ds
ĠS ym
ĠG old
ĠK un
Ġpe e
Ġdef or
Ġga udi
Ġomni potent
v ings
Ġp rompt
ph ysical
mon key
Ġfa uv
Ġchi ps
Ġhi kari
ĠLe ica
ĠðŁ ĺ
ĠSh arp
ios ity
ĠHe ironymous
Ġdro pping
Ġarts lant
ĠInd ian
Ġin v
Ġv od
Ġk as
Ġco bb
Ġst up
Ġcha d
ĠF ate
Ġgo s
ab lo
Ġopen ed
ĠðŁ ¦
Ġeng ulf
Ġpier cings
Ġwo j
self ie
Ġarri vabene
yahu asca
Ġdevo uring
Ġcunning ham
le te
Ġo ku
it tle
Ġta x
ĠG ira
Ġme al
op atra
vg en
Ġara maki
Ġcr ush
Ġtitan ium
ĠSa ul
Ġhum ming
Ġpean ut
s law
se v
ĠS and
Ġca racal
ĠH ands
wor m
ĠL and
eld er
ga tor
Ġsa w
thul u
Ġpr ide
Ġmete or
Ġhul king
ta s
Ġk eanu
po v
ĠA z
ĠC age
uv ian
Ġprin ter
Ġtri pping
Ġrey na
ono ke
O ctane
b ug
m allow
p u
s mo
te le
Ġsho wn
ĠT ed
Ġba ggy
Ġje weled
ĠZ e
ĠAn imation
Ġgam mell
Ġhal ft
ĠCla ude
a x
c orn
g io
ta ck
Ġh udson
ar ta
ur on
id ed
Ġsh ut
io se
Ġl ined
Ġdo lom
na il
ĠArt work
bal t
!!!!!!!! !!
rist en
sci fi
Ġdry ad
D arth
ro ma
is matic
Ġro chin
Ġso ck
ĠF ire
Ġvib rating
Ġradio active
Ġcere mony
Ġago stino
Dan ny
Ġcontemp la
. âĢĿ
Ġb ali
Ġg ue
Ġle ar
Ġyo utube
Ġz odiac
Ġmar x
Ġbar s
Ġbea trix
Ġscen es
Ġnebula e
Ġtak amura
Ġlin coln
Ġsup port
Ġweb site
Ġwis py
Ġsimp lified
Ġvas netsov
robo tic
Ġfr illy
ĠMid dle
e ga
p lanet
er ies
te k
Ġex am
Ġsch mid
Ġmea de
D wayne
R ealistic
v fx
Ġli es
ve y
tra l
ish er
ris co
Ġpl aced
Ġka le
Ġbla st
tt ps
Ġfinal render
Ġbul let
Ġschi zophren
Ġhex agonal
ĠBurt on
ti stic
Ġd ow
Ġf idelity
Ġst encil
Ġr onald
Ġsp ears
ĠT hor
Ġes cap
Ġhel nwein
Ġdag ger
Ġarian a
1 6
Ã ¶
Ð ¾
Ġ !
Ġa oshima
Ġd uty
Ġth ie
Ġe un
Ġmo ran
ud ere
ture d
sc a
Ġbu gs
Ġdestro yer
Ġemb ed
Ġflesh y
Ġphys ics
Ġpep per
Ġpo pp
rom orphic
Ġta ils
ĠB u
ĠP et
bi st
Ġbro c
Ġdavid son
Ġfish es
Ġinc lu
Ġgam er
ĠCo le
Ġku udere
4 7
c in
o val
y u
Ġin o
Ġk illing
lu nd
Ġtre nds
qu art
Ġpl us
ex posed
Ġsle epy
Ġmagn um
Ġbol ts
far lane
Ġinstrum ents
3 2
w et
Ġc n
Ġf ame
an ish
Ġsc ri
ĠS inger
Ġcre ate
ome z
Ġda inty
az ar
Ġop risco
Ġfro gs
pher d
mar ish
ĠGra nde
Ġbull dog
ĠFrancis co
Ġhack ing
Ġtorch es
Ġmakes hift
Ġcolon ial
ĠDor Ã©
Ġdetermin ed
diz slaw
ãĤ¤ ãĥ
z ens
Ġl uscious
Ġy ue
ĠM r
ad man
Ġse eds
Ġbro ther
Ġtsu k
Ġdisc ord
ĠPar is
Ġmol ten
Ġparal lax
ĠSqu are
S creenshot
f ter
ra x
le an
Ġr onaldo
um mer
Ġz o
for table
Ġcock ro
Ġoper ating
Ġbened ict
blueprin t
es que
id os
Ġto mer
Ġle gged
Ġra ver
ĠP ink
render ed
El le
9 85
t win
Ġa uth
an zee
ne v
ĠF uraffinity
we ta
ca ss
Ġblender nation
cry stal
Ġconso le
ĠGad ot
K odak
f ted
u rice
Ġh atch
ĠS ub
ĠC arp
ys topian
Ġi y
Ġgu er
ĠO gura
Ġanima tronic
Ġmad gwick
Ġstud ying
Ġmis sing
elin er
Ġprac tical
Ġtrium phant
m un
Ġm uppets
il lo
ac a
el ves
old ing
ĠS cho
co ol
Ġvi olin
Ġbr ut
Ġarm chair
Ġchi huahua
ĠTo masz
Ġino ue
k at
Ń Ĳ
Ġk inetic
Ġro gers
ĠS u
ĠT hi
ĠF ruit
gon ard
Ġaf ar
Ġrap unzel
Ġbleach ed
Ġdolom ites
Ñ ģ
Ġh p
Ġg rac
unk en
Ġme mor
ĠGreg ory
Ġhe ard
Ġinter nal
Ġja il
Ġgener ation
Ġstal in
ĠHiro masa
Ġkang aroo
Ġg ho
ph i
Ġsha fts
Ġyo kai
ĠL ube
Ġfe ed
ang le
Ġmin ions
ĠArtgerm m
Ġgar field
Ġcal li
Ġbit coin
ĠLube zki
B at
b ad
w ars
ĠB ierstadt
Ġz ig
Ġmi ho
Ġwild flowers
Ġblan ket
ĠMon ster
Ġken neth
ĠOver watch
Ġpoe tic
Ġb unk
Ġp lo
Ġde cal
ph rodi
Ġele v
ĠC liff
Ġsur ge
use ment
ato ry
Ġpi lo
Ġcap ital
ore an
gen ic
Ġopa que
b lum
g ul
in ct
Ġm ant
Ġy ayoi
Ġman ip
Ġme gascan
Ġcar nage
ood oo
Ġalex a
Photo graph
off icial
Ġlitho graph
Ġtyp ing
phrodi te
Ġc in
Ġg lim
to re
Ġli ken
la nder
Ġt ru
ĠP BR
ag lyph
Ġbal con
Ġbur n
Ġrainbow s
Ġdead ly
sch el
Ġmotor bike
Ġchamp ions
ĠPat rick
Ġtaka hashi
Ġtana ka
Ġbroc coli
b illy
Ġd ining
ĠG othic
Ġpro ph
Ġdress es
Ġgen ie
Ġches ley
Ġcuto ut
Ġeigh ties
Ġbalcon ies
u ge
u hd
Ġs ight
ra z
ro gant
la va
Ġar ran
Ġey eliner
ĠD ea
ĠC lose
ĠK elly
ps es
Ġmounta inous
Ġrev ol
Ġjer sey
Ġcryp to
Ġrebel ka
Ġlyn x
Ġliken ess
Ġs om
Ġd ate
Ġde men
Ġto tem
ĠS av
ĠP ablo
ĠW o
olo ur
Ġral ly
Ġcollec tible
Ġkra tos
Ġgeorg es
Ġlie bovitz
Ġshel ves
Ġstipple d
Ġneur ons
M ed
V ery
Ġre ads
Ġj ong
Ġtre ndy
iv en
Ġher b
va gant
Ġhell scape
Ġrub ble
ĠAf shar
Ġdistor tion
Ġscorp ion
c ers
n or
Ġb eau
Ġp elton
ch ett
as ed
Ġsun rays
ĠF re
Ġlu ke
iver sity
ĠY oda
Ġpar chment
Ġarch viz
air brush
Ġshou ting
Ġalva rado
agu ar
Ġintercross ed
3 8
Ġc d
Ġd ing
Ġf ont
lo fi
Ġst er
od les
de m
Ġcha se
ĠE ast
Ġglo bster
ĠRo bbie
own ed
lie va
Ġcur led
ĠSh rek
Ġbon tem
Ġcl int
ĠHen ri
gr unge
vio let
Ġinfo graphic
Ġami ami
Ġmagno lia
Ġbontem pi
' ,
t l
Ġli lia
ud er
gg ling
Ġcam el
Ġgu ys
yo ta
Ġfre ak
Ġauto ma
Ġwrest ler
ĠGira ud
g oth
Ġc ame
li en
Ġk rentz
!! .
Ġhea t
Ġcover s
Ġprin ts
be tan
ĠAl an
Ġbur ly
Ġhar per
Ġble ak
Ġbox es
Ġhip hop
Ġwis dom
Ġstuff ed
Ġhallucination s
Ġpros thetic
Ġcrus ader
d ead
Ġs upp
Ġo dyssey
Ġli lac
ed gehog
Ġpa tri
Ġpain ts
ĠA lena
ĠB ern
ĠH ad
ĠP as
ĠE arl
lic ated
Ġpla id
Ġmed ic
Ġed en
mm ing
Ġsketch es
lumin escent
Ġembed ded
Ġart ur
Ġpa ti
Ġma ker
ki en
mo ur
bo rough
ĠL ast
Ġste wart
ub lic
Ġtra der
res olution
Ġmid sommar
Ġinter galactic
Ġchar ismatic
Ġbla as
ĠBo uguerea
Ġbul ging
Ġexper t
Ġjaw line
Ġaug uste
Ġscy the
Ġpointil lism
G od
g ta
Ġs ul
Ġd anton
Ġch ick
ĠD eco
Ġchi rico
ĠZ awadzki
Ġver d
Ġtil ted
usa ma
Ġbec oming
vely n
Ġcocon ut
Ġa lo
Ġf ri
an ato
ro be
rac y
ĠB io
Ġcan e
Ġed vard
Ġillumin ating
Ġcur tain
Ġambi ence
Ġpara metric
Ġexist ence
n ell
o ir
r r
s ar
to kyo
ea nder
Ġl ang
ĠD O
Ġbar b
Ġsea horse
ĠSt rangling
Ġbul ky
Photo realistic
Ġbrand ishing
Ġwrink les
Ġcrumb ling
Ġmorph ing
ĠBot ticelli
Ġd unk
ec u
Ġlo bby
ĠL ens
Ġad ap
Ġperf orman
Ġmin t
Ġsnow ing
Ġur schel
sm iling
Ġput ting
Ġadd ams
Ġgos ling
c li
f ro
es ted
am et
Ġti mo
Ġad idas
Ġsw at
Ġger m
Ġsal ad
ĠMik u
Ġcav ill
Ġhabi tat
S o
Ġco balt
ud a
Ġman ara
ĠF rog
Ġnight marish
ust rop
Ġce il
flo ating
ĠFi lip
rann osaurus
E x
s haw
ta sha
ar uto
Ġk yle
Ġla in
ĠD ol
ĠK ubrick
ĠV is
br era
ump y
ca ve
Ġfu el
Ġcross over
Ġrugged ly
Ġbud apest
ĠBas quiat
M e
c ir
Ġh ers
ro bert
Ġk ittens
itt man
ls r
ĠEl le
Ġshell s
ĠÂ ©
Ġkin cade
Ġcelebra ting
Ġconven tion
le st
Ġh ubble
ĠA enami
ĠS FW
Ġso cial
Ġmi ya
Ġref lex
lis k
ĠKo pera
Ġgate way
sha ped
Ġsplatter s
Ġmathematic s
Ġdais ies
acade mia
e mo
k odon
m ill
r d
Ġm inotaur
Ġw iley
Ġg hi
ĠA len
ĠS ai
Ġdark academia
ris on
Ġste aling
Ġnight sky
yo te
iss an
iger u
Ġpul led
Ġwash ing
Ġayanami kodon
Ġchim ney
Ġcampa ign
Ġperforman ce
Ġceil ings
3 7
m ulti
o it
it ler
Ġpa ran
um m
ĠP re
ns ky
Ġsoft ly
Ġi ii
Ġunder tones
ĠRo erich
Ġcur ious
log ist
Ġjes se
Ġintense ly
Ġclu ster
Ġswan s
Ġmur der
Ġflaming o
Ġtrip od
Ġmoni tors
trans parent
o graphy
t ub
v ian
w ined
po ta
ĠG i
Ġfor k
Ġnight vision
pi rate
di tion
colour ful
Jes us
g la
j ames
Ġt yson
Ġro tte
Ġgo vern
Ġsw iss
Ġfac ade
Ġmono cle
Ġmeg acity
Ġpra tt
tiv ating
Ġiden tical
Ġbrue gel
enery s
4 5
a gon
li sa
Ġle aks
Ġat te
Ġta co
Ġte ar
ĠD iego
Ġfil thy
Ġgreen ery
Ġwe ek
fo und
Ġint rig
Ġdere k
aku za
Ġarran ged
Ġrotte la
ap rio
Ġbo ats
ĠD are
ins anely
Ġblo cking
Ġwa gon
Ġwre cked
ĠWater house
wai ian
demo rt
Ġli via
Ġco pic
ir by
Ġas cending
ll er
Ġout standing
Ġsw arm
Ġfan ning
Ġhy dra
Ġx ia
Ġarchi ve
ĠBli zzard
Ġanten na
g am
Ã §
Ġm illais
st ler
Ġth ai
es h
Ġco bra
Ġma th
se ction
ge orge
ri fied
Ġle ia
Ġman s
Ġman ual
ere z
ĠP ikachu
Ġdramatic ally
ron enberg
Ġdi ver
Ġhorror s
Ġam usement
ba in
Ġmu ti
Ġcal ming
Ġgeo ff
Ġdisplay ed
Ġvir gil
Ġmem ory
locirap tor
Ġrhy th
Ġachi eve
Ġhers elf
B oris
L e
c ated
Ġb row
Ġd ix
Ġo z
ic he
it c
ut ura
Ġle tt
Ġal ways
Ġar rogant
Ġele gance
Ġca kes
ĠC han
Ġz ar
ĠK anye
Ġbio tech
ugh an
Ġtan ks
Ġtake hiko
Ġmechan ics
Ġhaunting ly
Ġgran ite
Ġbudd hist
quer que
R ender
t ur
Ġc ash
le l
el ine
Ġsh ines
ĠD wayne
Ġme an
Ġmc que
Ġplan es
Ġpan cakes
sp ongebob
uck ed
Ġgen tile
mar ble
Ġcheese burger
Ġdist rict
Ġstream s
Ġita ly
Ġaud ubon
Ġmet ers
Ġtool s
Ġtang led
Ġinfluen ced
m w
Ġan aglyph
Ġfo u
Ġhyper ealistic
ĠA ud
Ġra id
Ġba ugh
ðŁ ¥
Ġrob ust
tho mas
Ġportal s
Ġapp ears
Ġscra p
Ġrutkow sk
Ġq wek
Ġproportion ate
incred ibly
fal lout
Ġsaus age
ĠPort man
Ġf ence
Ġwi red
Ġra ted
Ġbar rel
Ġprof essor
ned y
Ġstud ents
Ġweather ed
0000 0000
Ġpoli tic
Ġremo te
Ġawak ening
A lex
a ta
Ġ @
ul p
de vil
Ġas leep
ĠL ow
ĠE lizabeth
Ġti ss
ust y
Ġsuper nova
Ġfa ke
ression ism
Ġchi hiro
ĠZ a
Ġsqu a
Ġstri ke
Ġroyal ty
god zilla
eve e
Ġeast wood
ĠTh rones
Ġcook ie
Ġspar se
1 5
Ġde al
ma nder
Ġv oodoo
ster dam
Ġra ging
pe st
Ġstr ings
ring ton
bre aking
Ġmechan ized
Ġthigh s
p hor
s ung
Ġ ä
Ġde scri
Ġde velop
Ġle an
ĠJ edi
Ġme et
Ġmar ilyn
ĠF ree
Ġper ched
Ġbi ting
ĠLe hr
Ġmer ging
ĠGo ya
Ġstream lined
Ġreve al
Ġmess age
Ġsera ph
iosi ties
b ull
Ġa gon
Ġb orn
Ġc rou
Ġo hara
li via
Ġop tim
Ġban ner
saur us
Ġspiral ing
Ġfed eric
gends til
angu y
Ġslow ly
B a
b ony
c io
k ate
Ġc rest
Ġh illier
Ġk rie
Ġrealistic ally
Ġra zu
ĠW W
by lla
Ġinf erno
zu kal
Ġmeg atron
Ġenter tain
kean u
Ġchem ical
orienta lism
7 0
f ink
z quez
Ġa yahuasca
Ġco al
Ġsh elf
Ġro s
Ġred on
bra ne
Ġ7 68
Ġmoun ted
Ġmax imalism
Ġhalf ling
Ġgrand iose
ĠHar ley
tiv ism
ĠQu inn
Ġdefor med
zukal ski
Ġp ush
Ġk eathley
se c
Ġra ising
ĠM ary
ĠD C
ĠC astle
ĠJ ennifer
ĠE gyptian
ven er
Ġpen n
Ġsand oval
ĠEd die
ĠLo uis
Ġembroid ery
Ġmarket place
Cha racter
Ġabstra ction
Ġs art
Ġm illie
ber ge
Ġex te
ĠL ED
Ġsun s
Ġrid d
ĠEd lin
Ġornam ented
Ġpoly gonal
Ġsti ppling
build ing
Ġalter nate
Ġbeck insale
Ġkow loon
P h
à ¸
Ġs oda
Ġpa tro
el iness
Ġsh rouded
ĠA ven
Ġra ts
ell s
and om
ga b
Ġout ram
Ġcar rot
Ġsto cking
lash es
bur gers
Ġke hinde
ĠMon a
Ġdisco ver
Ġdrum s
Ġrig ney
stran ge
Ġstain less
ĠDare k
Ġre in
Ġpa sto
ali ce
Ġmo ose
Ġcom petition
he mian
ĠðŁ ¤
Ġsat ur
Ġlin en
Ġaud ience
Ġmem brane
ĠDal ÃŃ
Ġgentile schi
y ellow
Ġma w
Ġan tarctica
Ġca vener
Ġwe e
Ġcontrast s
Ġcol los
ĠMo ran
Ġmanga ka
Ġsam ori
Ġ20 19
Ġri ppling
Ġwork ers
Ġmeta physical
Ġetern ity
Ġsin king
comp uter
w yn
Ġw r
Ġre pa
am en
de co
Ġl ining
Ġbe gin
Ġcy cle
Ġmag ma
and e
ĠF ro
ys ch
be ard
Ġmas ch
ise led
Ġyellow cake
Ġ19 6
Ġrep eating
Ġcla ustrop
Ġju icy
Ġmusic ian
esc ape
ĠTer minator
b il
Ġo pp
Ġre min
ed er
Ġpa sta
ber gh
ĠT anguy
if u
Ġmer kel
Ġatta cked
ret ched
ðŁĮ Ī
Ġtriang ular
ĠMor bacher
Ġmeaning ful
ĠCru ise
Ġsien kiewicz
Ġgiorg io
E n
w en
Ķ ¥
Ġm un
li am
to ck
Ġth ese
Ġv alls
Ġsp arrow
Ġch t
Ġmed itation
Ġshe pherd
Ġhi rano
Ġextra vagant
ĠHe nd
Ġent wined
Ġbau tista
Ġrams ay
Ġiw asaki
Ġkrie ger
in ea
Ġj erry
ie st
ep p
Ġpig eon
Ġgn ar
Ġcorrup ted
Ġli lith
ĠA ss
Ġsu g
Ġcan n
Ġcat suit
Ġda le
res tial
Ġam bian
Ġinter national
Ġcol lie
Ġmor bid
ĠWar hol
Ġash es
Ġelect ron
Ġpock ets
Ġcum ulus
ĠBur ns
Ġambian ce
I llustration
f lex
h lo
it on
ma res
Ġsh igeru
im oto
sh ua
ff er
Ġup right
20 22
Ġbraz il
hob ic
199 9
Ġextrater restial
ĠFred eric
Ġenc rusted
gary en
n ow
Ġc els
un ted
Ġli ma
Ġphoto illustration
ĠG iant
na tive
ĠE instein
Ġbig ger
Ġhe nderson
Ġcur iosities
Ġhi res
Ġbur sting
Ġhill side
Ġfle x
Ġcrim inal
Ġmur ray
Ġmur phy
ĠBas tien
Y o
c ats
Ġk ints
Ġt sun
Ġro gan
Ġex ile
ĠG un
Ġba king
Ġflow y
Ġbi od
!!!!!!!! !
Ġmodern ism
Ġban anas
Ġlook book
Ġom nious
sun set
Ġsales man
n ik
ra ble
le v
Ġt utu
ri ble
Ġgra d
ĠL es
Ġna ive
Ġden o
Ġju gendstil
Ġmat thew
Ġpasto ral
: .
Ġd lsr
Ġpa ds
lor ida
ĠR ea
ĠB ean
Ġher bert
ĠI l
Ġcap tivating
ita del
ĠHyper realistic
Ġven ice
Ġiy em
O il
on ly
li ze
ic ana
Ġin de
ac ious
ma nd
Ġcon stable
ve c
Ġsta ins
Ġch iseled
ĠB el
ĠK ai
ill ar
ĠV ision
eth ereal
Ġrefrac tive
aa aa
ĠLy nch
Ġachieve ment
N ic
Ġa ya
Ġd as
is ms
ud ing
Ġrim light
roc ery
fa iry
ĠĠ ĠĠ
Ġyu ji
Ġchains aw
Ġproj ec
ĠSch mid
Ġstup id
v ana
y ons
Ġa ri
ti ous
Ġf anta
Ġk lein
Ġon ion
Ġn uri
Ġat kinson
ĠH el
sa ble
do es
Ġrid es
ĠAndre ws
Ġrat fink
ĠSc arlett
ĠDevi to
T S
Ġ ess
Ġs r
Ġth er
Ġthe ory
ver a
ĠB lan
Ġne u
ĠP ey
Ġgod father
Ġsa uc
Ġhi ps
Ġrus sia
Ġspec tral
Ġmega lo
Ġshin juku
eron is
lem n
Ġvac uum
Ġh ive
Ġw oo
ic king
al do
Ġv or
ĠA ivazovsky
Ġch eap
Ġspace time
pe nd
Ġmen u
Ġmeta phor
Ġspla ttered
ĠSw ift
Ġwol ves
Ġbin ary
Ġgene tic
P o
n ature
s or
Ġm ong
Ġco b
Ġro sa
ure s
Ġto toro
ĠF ace
Ġcra ola
Ġwe bb
em pty
Ġarchite ct
ita ma
Ġcourt room
ĠNa talie
Ġcyc lops
Ġaver age
Ġgle aming
ĠHad id
Ġre ar
ed om
ha i
per ate
Ġto w
Ġex act
Ġgr umpy
Ġsto ries
Ġsn ap
Ġhier og
Ġnas mith
john ny
Ġsimp listic
Ġtanko ban
Ġsuff ering
Ġmiya ke
b irds
g ets
w ill
in ki
Ġc linton
Ġh uss
is tan
Ġj udy
ĠA pex
Ġla un
ap ing
Ġred wood
ĠL um
ak h
Ġsa le
Ġhu go
Ġko son
Ġko ala
Ġsurround s
Ġus er
Ġvo xel
ĠDo gg
Ġsund ress
Ġconto ur
Ġmasch inen
j ennifer
en na
Ġun cropped
Ġwater mark
ub bs
Ġali ta
ĠN olan
Ġpers onal
Ġwatercolor s
Ġball room
Ġstal l
m ission
p utin
Ġc low
ul onim
ĠP op
ins piring
Ġmar tial
Ġsw allow
Ġtran shuman
be lieva
ag etsu
Ġhand made
Ġcrow ds
Ġchild rens
ĠPhoto lab
ĠSw ynnerton
ĠCre w
Ġtest ino
ulonim bus
? ?
ĠS ea
ĠR am
Ġfi ber
ĠB ay
iv ine
Ġross etti
bli v
âĢ į
Ġvis co
vel li
Ġshe er
Ġrob ed
Ġexplo ded
Ġph ones
Ġcell s
Ġgil bert
arov ski
Ġcarto ony
c andid
m t
n ut
Ġsh rimp
ĠT ar
ima ge
Ġcolorful ly
illi s
Ġwitch es
Ġmer ian
Ġpirate s
pla stic
spider man
Ġod ilon
ĠPsy cho
M ich
g ordon
lo ok
ĠA ndy
Ġra coon
Ġal m
co ck
ĠD arrow
Ġdis aster
Ġed ou
Ġland ed
Ġsa x
ĠO ut
con nec
Ġcomp licated
ĠCh eng
Ġbrush work
Ġben oit
Ġkodak chrome
ĠAd ams
Ġpet ting
ĠHy ung
Ġmant le
L E
f c
ta ct
ti k
ar u
Ġma sh
Ġpo dium
ate man
Ġgre ens
Ġmo ist
Ġbo cklin
Ġhor de
Ġenvironment s
Ġop us
Ġmodern ist
ĠMa gazine
Ġter rac
Ġgro o
bro ken
B o
B ig
T X
w izard
Ġb ree
Ġd iane
Ġlight paint
Ġl lustration
ĠM al
ĠH ill
ura v
we i
Ġinf or
Ġelect ro
ĠSo uls
Ġblind fold
ĠJu lie
Ġrecord ing
T R
y oda
Ġd ash
Ġg el
Ġg ross
ĠA c
ĠR od
Ġdo odle
Ġcat walk
ven ge
ĠU FO
Ġnor se
Ġhot dog
Ġsi bylla
hy brid
Ġcandle light
Ġcri velli
Ġpenny wise
Ġkale idos
Ġstocking s
3 00
C o
f ab
u ing
ul lo
Ġon ce
ur f
am ily
ĠH as
ean e
Ġnight mares
Ġdy e
Ġcat ching
Ġmc farlane
Ġpart ly
Ġka hlo
bb ean
ĠYo ung
edi torial
Ġ((( (
Ã¡ nd
Ġpon zi
Ġconn elly
U HD
b ucks
o ma
½ ľ
Ġ {
Ġc ly
Ġg rocery
Ġj aguar
Ġcine color
Ġlo om
ĠM iller
Ġta la
Ġfra gonard
Ġtw itter
com ing
Ġvolcan ic
Ġribb on
Ġmember s
Ġgrizz ly
ti lity
Ġd achshund
ge nd
Ġal co
ĠS at
ĠC os
Ġje ong
Ġsam uel
Ġspot ted
Ġpil low
Ġdemen tor
Ġb illie
me ch
Ġz ach
Ġsoft ware
Ġmon onoke
cent ury
Ġmi ro
Ġblo m
Ġfa berge
ðŁ ļ
Ġtw itch
ling er
Ġchi ang
bb its
Ġcut ting
af rican
Ġinspi ration
emp tion
Ġwic can
Ġtsun ami
Ġedou ard
D ark
ĸ ¯
Ġcha sed
ĠD oom
Ġgra bbing
pe g
ern al
Ġse ga
Ġfa vela
Ġmid journey
Ġsam o
Ġcho ice
Ġemer ges
Ġq i
Ġarab ic
Ġneed le
ilian o
ãĤ¤ãĥ į
Ġcalli graphy
E pic
f ec
k ishi
s le
¦ Ļ
Ġs ie
th am
Ġw y
Ġk illian
ne o
po or
Ġhyper space
ĠA u
Ġbo g
ĠW alt
ĠL azar
lic ity
Ġmar ion
Ġmon keys
ther n
ĠN guyen
Ġstre aks
Ġtra ils
Ġmin a
con struc
Ġhel lo
Ġcal le
Ġneck tie
Ġdol ls
tif icial
Ġtranscend ent
ĠCrew dson
b rown
ta h
Ġm ing
Ġk art
Ġco ll
et zal
Ġpo si
Ġfo il
om o
ter o
mo red
ĠA bra
Ġy akuza
Ġho s
Ġhea vens
ĠP y
Ġbr im
Ġse lect
mic key
Ġbro ok
Ġsand storm
Ġber gey
Ġgla re
child ren
onim us
Ġerup ting
Ġtou hou
ĠZa ha
ĠPey ravernay
= '
k on
Ġ %
Ġa lumin
Ġm ummy
li ath
Ġan ni
Ġro uss
Ġsta ck
pi er
Ġsuper market
Ġsmile s
gu tan
ĠPo ster
Ġdm it
Ġlen non
Ġcec ile
Ġarchi val
Ch ris
Ġé ¦Ļ
kee per
Ġmort ensen
ĠEy ck
Ġè ĸ¯
Ġa sy
un berg
Ġli ves
la tin
Ġst Ã¥lenhag
sy l
Ġsho ps
ad orable
Ġis sey
Ġso lemn
Ġdes cending
Ġem iliano
ĠRed emption
Ġworm hole
Ġaug ust
Ġprim itive
w ig
Ġn iger
ol lo
Ġch icago
Ġbr it
Ġu pton
gg le
ord in
ĠThe ft
ĠUn ited
Ġant ropomorphic
Ġchung us
, '
I G
w w
Ġf ami
ho e
Ġk usanagi
Ġon ions
Ġan ya
ĠA urora
Ġele vator
ĠR ings
Ġno rem
Ġstar wars
Ġcle tus
Ġam id
Ġbra ve
Ġpost card
Ġsurf board
Ġtransfor mation
cap tain
Ġexperim ent
Ġgoog ly
Ġvalent ina
bok ha
Ġlear ning
Ã§ ois
gab ond
al luring
Ġli se
Ġfo ol
bo und
Ġta les
Ġwin nie
Ġsit com
no ch
ĠRoss ier
ja h
Ġfore ver
wal king
Ġbath tub
ĠRuss ell
Ġruss ell
Ġfem me
Ġvod ka
A ward
j an
· Ŀ
li ve
Ġco der
Ġn um
ch y
up ac
ĠK ra
ern an
ĠV ogue
Ġtra gic
illi on
di es
Ġbio light
maz on
Ġsam does
ham mad
enti es
olo tl
Ġoverg rowth
Ġspeed ing
uke m
Ġzen er
Ġhapp ily
)))))))) ))))))))
ĠRen Ã©
Ġjourn al
Ġcht ulu
Ġs unken
Ġb eng
Ġd rones
ro ft
Ġpo len
ĠA th
ĠT su
Ġsymmetrical ly
Ġsw arovski
Ġwe eping
Ġfa una
Ġtim ber
Ġgen ius
vis ible
Ġbod ice
ĠCom ics
sil ver
Ġpomegran ates
Ġkas ady
Ġsupp lies
f lage
me gan
ĠC inestill
ĠP ri
ĠP etros
Ġmod elling
Ġda ughter
Ġinter net
Ġic hiro
Ġber lin
Ġspark le
Ġdomes tic
f ron
h es
Ĥ ł
Ġa man
er v
Ġe evee
Ġe bony
Ġle gg
Ġun it
sh ear
ĠC thulhu
ĠT ime
Ġgra ded
Ġmar oon
Ġru ysch
Ġpl ushi
Ġwal mart
Ġmetal s
Ġeye lashes
Ġvicto ry
ov ich
por tal
Ġpass ing
Ġmetro politan
Ġexpan sive
Ġhats une
Ġb ie
Ġd ang
Ġp hara
Ġf andom
ir it
ir id
ch ard
im i
po sable
Ġal len
Ġman iac
Ġcy nical
Ġjo inted
ĠE ugene
Ġstar light
Ġcra ft
Ġsto mach
Ġhelmet s
elb rot
Ġattack s
Ġciti es
Ġlat ina
Ġescap ing
Ġgovern ment
Ġpolen ov
Ġb ricks
lu k
Ġla kes
Ġar knights
Ġbo ston
ĠT w
ĠT or
Ġsur gery
ris tiano
Ġste ep
Ġwa it
Ġamer icana
Ġhang ar
port s
pag ne
ĠBla ke
ĠHan ks
Ġpsycho logical
Ġkan ji
Ġprogram mer
ĠFree man
bliv ion
J ean
t sev
on ies
en ne
te mber
Ġre ad
or ks
Ġn ft
at rava
um bs
Ġbo hemian
Ġcan al
Ġda h
Ġfer ris
ash ed
Ġform ula
Ġlion ess
Ġner vous
bey ond
ĠBol les
eander thal
Ġcollos us
F e
W oman
c ka
g ree
v ampire
ti st
Ġc itadel
Ġg ranger
or pg
ĠA ction
Ġlo cal
iv ia
Ġam al
Ġbuild er
Ġorgan s
Ġsal mon
Ġmil a
imp ressionist
Ġorchi ds
ĠNin tendo
Ġmam moth
Ġverd ant
Ġrouss eau
, .
Ġli l
Ġback yard
Ġca in
Ġti gh
Ġrun s
stro mo
Ġspir ited
Ġbon fire
prin ts
ĠSta tes
Ġharve y
Ġgoog le
Ġran king
Ġcolla ps
fle et
c ult
e i
Ġk pop
el t
Ġlo in
ung ing
ren cy
Ġper ry
Ġmm orpg
Ġale ks
Ġhe aling
Ġwal t
bea uty
yl lic
Ġshou jo
Ġmos que
Ġbreast plate
Ġentertain ment
Ġdeno ised
s imp
u ille
v re
ha ts
ver t
Ġra fa
Ġdo ro
bi ting
Ġher man
Ġko ma
jo urn
Ġbio technology
Ġass ault
ĠRe gal
ĠIn stagram
ĠGe of
Ġscra tches
Ġsnea ker
blu r
Ġpixela ted
utura ma
Ġkints ugi
Ġsamdoes arts
ac hi
Ġpo ded
ĠR os
Ġmon d
Ġcute st
Ġsa loon
Ġgu ide
Ġga u
ĠFo rest
Ġindoor s
Ġmarsh mallow
Ġcham pagne
K anye
m ers
th row
Ġin vi
to shi
is u
Ġli chen
Ġlo rax
Ġmi lo
Ġland scapes
ĠV ideo
Ġcam ille
Ġgi u
Ġpal ms
ĠMar cel
Ġwil son
ĠFe male
Ġzdis law
Ġtarant ino
Ġagon y
c ome
z oom
in x
ro red
tic e
Ġre men
us ica
rom eda
ec ko
ĠG ro
ĠD utch
ĠI an
be in
ca ster
Ġside fx
Ġx iang
Ġpig tails
Ġglitch es
via than
Ġny c
Ġremen ar
d ri
Ġ ting
Ġd ill
at u
ĠA g
ĠH ead
bi rth
Ġste p
Ġfilm s
Ġher mione
Ġiron man
Ġwra th
mor pho
rus sian
Ġbol t
Ġbrilliant ly
Ġtour ist
Ġdrople ts
Ġexpa nded
Ġo la
Ġr hi
ĠM organ
ino saur
Ġsuper ior
Ġorgan ism
Ġcla us
Ġwo und
ĠJim my
Ġlon eliness
Ġengulf ed
f rom
v iron
ic ks
Ġn ik
Ġgre m
Ġso ur
Ġover all
wa ii
Ġcra ter
Ġve lociraptor
Ġgrim y
Ġwolf li
Ġesta te
Ġgn om
Ġaug mented
Ġthre at
Ġsebas tian
c rom
m ix
on ometric
Ġc ate
lo va
ud ge
Ġblack light
vi st
Ġad ora
Ġday glo
Ġcla mp
Ġbul b
Ġ100 0
Ġwit kin
Ġparal lel
' ll
Ġa im
Ġs lum
Ġo gre
Ġin ks
Ġan ubis
gra de
Ġlight ening
Ġle ads
Ġblack shear
ĠD ittmann
Ġso rting
Ġdo o
ĠK orean
Ġmc g
Ġ19 30
Ġpal ate
Ġartif ic
ĠStudio s
Ġcour se
ðĿ ĺ
Ġbj ork
Ġhon ore
Ġchimp anzee
f uturist
Ġ !!!
Ġart book
Ġma tisse
Ġn ap
Ġsp onge
gant uan
ĠH omer
ĠP ranckevicius
Ġangle d
Ġroom s
Ġpink man
ĠAl berto
blo od
Ġwire frame
Ġchain mail
Ġton alist
Ġpick le
Ġperfection ism
Ġoly mpic
Ġanto ine
b od
n ers
Ġg im
ho mer
or tal
Ġco sy
ĠL ar
Ġste ak
ood le
Ġfa erie
bal d
ag ing
Ġhar bor
Ġpath way
for ce
Ġpara dox
Ġdem ure
Ġfit ness
tato uille
Ġely sian
Ġsurrounding s
Ġterri ble
Ġpuff er
B lack
Ġp etro
te an
Ġe as
ut ton
ĠD ustin
ĠW ith
ĠV ar
ey ed
Ġam aring
Ġclass y
Ġeng lund
Ġbiolumin isc
lac ed
Ġspea kers
Ġobsc ured
Ġtotal ly
Ġamaring o
b ana
n els
â ł
Ġs l
nd roid
Ġin habi
Ġsh an
Ġha ra
Ġsta ying
Ġsta mp
ĠC edric
sc reaming
Ġpart ed
Ġve nding
Ġfish net
ĠðŁ §
Ġcho ko
Ġholo graphy
rid ge
Ġscar red
tin type
Ġmultic olor
Ġwil low
Ġneoclassic ism
f ood
h ttps
Ġs s
ta tions
Ġd ande
Ġre z
Ġma il
ĠC oo
ĠH uman
ere mia
Ġjo an
Ġti tle
Ġover weight
Ġstar dust
Ġge latin
Ġab original
Ġoff ering
Ġind ia
Ġhol mes
Ġwra ith
Ġdisco vering
Ġlitho graphy
Ġcommon s
Ġprem ium
Ġdess ert
Ġpati ent
eremia h
a il
c ie
sta ge
ne st
Ġintricate d
ap ho
ĠH ulk
ga e
Ġmed al
Ġse infeld
Ġshi kishi
Ġtra vell
lian i
Ġneck line
Ġham burgers
Ġke ep
ĠWar craft
Ġindian a
Ġdelo rt
99 99
Ġsurv iv
R aphaelite
b bles
d ystopian
p tic
Ñ Ģ
ic ulous
ro se
Ġin struc
Ġv ale
Ġk et
Ġj her
Ġsharp ly
ĠS ander
Ġgold blum
ker mit
vi er
iz ov
Ġvis iting
Ġunder cut
Ġx i
ced es
com o
par ing
vo lent
hy ung
Ġnaz gul
Ġexperim ents
Ġcons um
ĠCam eron
Ġlago on
Ġvisco us
Ġtala vera
o ps
Ġh es
Ġe nding
ĠM es
Ġun ion
ĠN ek
Ġlu ffy
cess ed
Ġsto od
ĠY u
ina ble
Ġirid iscent
Ġspi elberg
Ġpu zzle
Ġspray paint
Ġnag el
archite cture
ĠHu ang
Ġmight y
Ġatom punk
Ġdecol lage
j ung
le nd
Ġp x
Ġh ey
un tle
Ġt rick
ody namic
Ġmaster work
Ġpre y
Ġpre paring
ĠMo ore
Ġfer ro
ĠDe V
lin ts
Ġspark ly
ĠGe org
dan cing
Ġcu bist
Ġspan iel
lone ly
Ġriv ia
Ġloss el
Ġdesi re
Ġcollabo ration
usica a
g ard
Ġb room
ra bbit
Ġp onder
li ps
Ġj ay
ĠM us
Ġno bu
Ġglo ss
Ġaesthetic ly
Ġbook sh
Ġrad iosity
Ġgoddess es
Ġgen re
Ġnic holson
Ġrit ts
Ġpomegran ate
Ġcamou flage
irid escent
crom bie
Ġjher onimus
c ali
Ġ à
li pe
lo cy
Ġha as
Ġch ry
ĠH ickman
ĠL uis
Ġdis cus
Ġse ed
Ġdeep est
Ġbio lum
Ġsqu ad
Ġsli de
Ġdev iation
ĠPo kemon
Ġpool s
Ġglitch core
Ġstream er
ĠCom position
ĠRey nolds
Ġsyn ap
Ġbir ch
Ġaly ssa
G ra
i tor
z ino
in to
Ġd uc
Ġm ig
li de
ĠM inecraft
ĠR u
ĠT es
Ġfor ge
Ġed el
ĠV e
era tor
Ġtw enties
Ġpop ulated
ĠSh ishkin
ĠAd venture
mad ison
Ġluci en
Ġalp ine
Ġchem ist
flu id
Ġmyce lium
izov tsev
Ġo bata
Ġm ord
Ġin n
et ted
ur d
mo ko
Ġra sp
ĠM and
Ġfor mation
ĠE ating
ĠF inal
Ġout s
Ġcan oe
Ġdis posable
Ġche bokha
Ġbiome chan
ĠAt mospheric
Ġyor ke
Ġp ray
Ġf ic
Ġv it
Ġmo lec
Ġis hi
Ġcha pel
ĠC ronenberg
Ġso rolla
ba rack
Ġ19 00
Ġdri bble
omb re
Ġsi lic
Ġdru gs
Ġken nedy
!!!!!!!!!!!!!!!!!!!!!!!! !!!,
kawa ii
ĠNas mith
Ġg omez
il able
is me
Ġj aco
ow s
ĠM ur
Ġyo ann
ĠL eco
lis mo
ĠY ves
Ġpan avision
Ġflower punk
por tation
Ġcrisp y
ĠSp anish
sci enti
Ġexper ien
Ġgad gets
Ġcoo kies
Ġschoolgirl s
Ã¡ n
Ġbutton s
Ġrectang le
Ġwon ka
Ġtemp lar
Ġtess er
Car ne
quera de
ĠLeco uffe
A I
f eld
f ighter
Ġc ant
Ġin verted
lo st
alis a
Ġj ab
Ġphoto realis
od d
po kemon
Ġso cks
Ġdes pain
ater p
Ġjo ints
ĠE le
mon o
he im
Ġlu o
Ġus s
Ġtem pest
Ġarmo ured
cre ature
Ġaz er
Ġ18 00
Ġbern ard
Ġoo ze
Ġexci ting
Ġintrig uing
Ġdmit ry
m ens
Ġm ri
Ġsp rings
si locy
me mber
ach t
ĠJ erma
ward s
Ġel sa
Ġcor pses
Ġbea tles
ĠThe y
Ġsqu atter
Ġstri kes
Ġmal lismo
Ġfolk lore
Ġbless ed
Ġadap tation
ĠNek ro
f unny
Ġs ly
Ġs ent
Ġd ude
Ġth eron
ĠM C
ĠR TX
Ġbo und
ach ine
Ġjo bs
ue ve
pi zza
by l
we bs
Ġger ome
Ġgar land
ĠLe gend
Ġswea ting
ĠSuper man
Ġredd ish
ĠIs land
Ġzdis lav
f g
g ie
© ðŁı
ti les
Ġc lad
Ġg ills
Ġst reaming
Ġn ub
Ġj ap
Ġsc are
Ġle viathan
Ġbl ushing
ĠS tal
ad riel
Ġbo o
ĠG ordon
Ġmar cel
mic ro
Ġroman ian
oc ious
gen cy
Ġped er
ĠQu ality
Ġlat ino
Ġaub rey
ĠPi Ne
Ġfuch s
Ġmemor ies
ĠAven gers
Ġbiolum ine
C inematic
I C
U n
å ŃĲ
Ġd uan
Ġg ollum
Ġre st
Ġe uc
Ġpa ja
Ġlo como
Ġch rom
Ġch unky
Ġta len
Ġte aching
Ġqu etzal
Ġno odles
Ġgo ofy
ĠI mp
Ġem ily
Ġlu d
Ġkn ot
Ġreal ms
Ġtho se
Ġchar ging
Ġbea ver
Ġsto ol
Ġdri ft
Ġdist ressed
Ġcigarette s
Ġstatues que
ĠMcQ u
Ġshack s
Ġrazu mov
ĠDeV ito
H S
Ġde fe
lo id
la stic
Ġn ugg
at ti
ted t
ĠJ am
Ġu i
rec tor
Ġcomplex ion
cre pit
ĠMan chess
Ġoli via
Ġexhi bit
(((((((( ((((((((
dr um
Ġconsi sting
Ġcontain er
bis cus
Ġazer oth
i as
n ce
o va
s pa
z oo
ä ½ľ
Ġf us
Ġba o
ĠW earing
ĠL ady
Ġor biting
ĠI V
we iss
Ġbra wl
Ġmes si
gers tedt
Ġfemin inity
Ġange la
Ġsilhouette s
ios is
tsu ya
Ġpack ed
inf inite
rea len
Ġglac ier
Ġcobble stone
Ġgrac ious
I I
T V
c orgi
j et
Ġf ry
mo bile
Ġen tang
ĠT est
Ġshot s
pe ed
ste lla
Ġdep ression
Ġpic king
og le
Ġmor bacher
sur realist
Ġcap su
Ġty rannosaurus
Ġwhe alan
ĠEx quisite
aster y
zan ne
ãĥ ĳ
pat rick
Ġlind bergh
ĠCine ma
apho met
s and
w he
in ce
ro ps
ph ere
Ġsh onen
im u
ke st
Ġlo ud
ĠH i
ĠJ ak
row ind
Ġali cia
iz ation
Ġale ss
Ġshadow run
Ġtur ns
Ġjungle punk
ĠPhoto realism
Ġconf erence
Ã© mon
iff usion
Ġinflu ence
Ġrol f
Ġhung arian
Ġmegapix el
love craftian
,,,, ,,,,
ĠEld er
A ng
c ant
c key
Ġa phrodite
re z
Ġon es
im ori
Ġsc iss
ĠA pple
Ġsp ect
ĠM ic
Ġdo ra
Ġfor ma
Ġser ov
Ġgrey scale
ĠPa int
Ġgrass land
bur ning
Ġsymb io
fer atu
ĠðŁİ §
ether punk
Ph one
Ġpoded worna
er ated
Ġf unk
th a
Ġg lints
Ġv sco
ĠT ak
Ġz at
Ġpla tes
Ġtra ining
Ġfire ball
mar got
Ġtar tan
Ġmaxim um
Ġaccidental ly
Ġmilli ons
cloud s
Ġbatter ed
Ġaristocra tic
Ġtapest ry
journ alism
S am
i ki
u nds
å ·Ŀ
æ Ĥł
Ġg ow
mo ther
ĠR ams
ess ed
Ġdo main
Ġbas ic
ĠUn iverse
wood en
Ġvol ley
cen ko
ĠCom ic
Al phonse
cover ed
ĠGen esis
bay ashi
Ġghi bly
Ġclaustrop hobic
Ġé¦Ļ å·Ŀ
Ġèĸ¯ åŃĲ
Ġgnom on
ãĥĳ ãĤ¤ãĥį
æĤł ä½ľ
Ġé¦Ļå·Ŀ æĤłä½ľ
Ġro ws
ĠA p
bo ys
ĠS torm
Ġta m
Ġqu est
ĠL ife
Ġwar ner
Ġflow s
Ġrobo cop
Ġmac ne
ĠCh urch
ana gawa
Ġber et
mato graphy
Ġrod cenko
exp lo
Ġpatch es
Ġgio vanni
Ġtypo graphy
Ġhuss ar
Ġponder ing
g ull
an gelo
Ġt us
mo untains
Ġsta cks
ĠD ay
ĠD av
pi ro
ist on
Ġcomp on
uer bach
uro us
Ġ] !
Ġcal atrava
Ġax onometric
ob ese
Ġpol lu
Ġbare foot
Ġvalent in
Ġiceland ic
................ ................
Ġbillboard s
Ġfrid a
zzzzzzzzzzzzzzzz zzzzzzzzzzzzzzzz
Ġsou thern
Ġseraph im
Ġedel weiss
f lifting
Ġa en
Ġw illy
Ġg is
Ġsta y
Ġup flifting
Ġmod er
âĢ ¢
ĠV i
we ird
int ense
bl ins
Ġdist inct
coat l
Ġenter prise
Ġreg ion
Ġribb ed
ĠBlo om
Ġroth ko
Sa ul
Ġfauv ism
Ġlocomo tive
Ġmacne vin
d ia
st rom
ali ens
Ġn athan
Ġro cking
Ġphotograph s
Ġho ok
ini st
ĠV ol
her r
do uble
Ġhand le
Ġfre edom
Ġthunder s
Ġhiro ya
ĠCy ril
Ġvir us
ĠMart ine
vgen y
Ġtalen ted
realen gine
I moko
J ack
o cean
Ġin la
ĠS i
Ġta too
ĠC al
Ġjo b
Ġdo ck
Ġmac ho
Ġportra yed
Ġmet roid
flu ffy
Ġuta gawa
Ġworshi pping
Ġhalft one
Ġcockro ach
Ġproph et
ĠMcQu arrie
Ġèĸ¯åŃĲ Imoko
S tar
p resident
u ting
Ġo racle
Ġth umbs
or c
Ġsc umm
ĠS ec
ĠH ok
ĠP ier
Ġskin ner
Ġem ilia
Ġinter dimensional
ĠJo shua
Ġser en
Ġbur ned
Ġhand paint
Ġfle et
Ġraytra ce
hou etted
Ġris es
Ġfabric s
Ġevan s
ĠAsh er
teen age
lyph s
Ġerup tion
Ġtsuk ushi
ĠTest ino
o urce
Ġde lights
Ġj us
ĠB ritish
Ġpro tr
ey es
we b
Ġmu eck
xy gen
ĠFran Ã§ois
ĠAd olphe
ĠTran s
Ġner d
Ġtransfor mer
ĠSky walker
erno byl
Ġsear ching
Ġsno ut
th in
to ber
il ya
id on
ud s
Ġultra hd
Ġsur fer
min imalistic
ĠK ong
Ġres to
ene z
renz o
Ġgar gantuan
Ġscho en
Ġtar ta
Ġadrian a
ĠPro duct
iff el
versi al
Ġfrag ments
demon ic
ĠValent in
j ason
re ls
Ġth orn
Ġli cht
Ġco ated
el k
Ġhigh est
ĠA lice
ĠE noch
ĠK eanu
che ster
Ġrock ets
fo ur
Ġcavern ous
ĠBack ground
H arry
M on
j edi
z es
gh ai
Ġre ach
om y
Ġdra con
ĠB right
ĠP ow
ron s
ĠF lo
ĠF ade
ĠK ashin
Ġse nd
iti es
bu tion
Ġri p
Ġweird core
Ġdar wyn
fu bi
Ġvac ation
Ġmegascan s
Ġbiod iversity
M r
b ille
r unner
Ġb lown
li k
or ds
Ġsu ite
Ġmar ley
Ġcan opy
Ġcar rey
bra ce
Ġel vis
Ġbut to
Ġperson a
Ġble nded
Ġuniver sal
Ġbiolumin iscent
Ġapple s
Ġsymb iosis
ĠEm peror
cu les
Ġdota do
Ġcatalog ue
Ġwhit more
Ġalli gator
Ġbree ze
Ġbioluminisc ence
J apanese
ti ti
Ġg uts
is ta
ch et
qu en
Ġy ee
me ga
ĠS pi
ĠH ard
ble d
Ġno stromo
ĠL acoste
ĠE vil
Ġres idential
Ġher ald
Ġel che
lec tric
bov iche
op lanet
ĠIn tro
Ġmich elin
Ġow ls
Ġdu ran
Ġfernand o
pan ora
Ġconstruc ted
mini ature
ĠDy namic
Ġdub ai
Ġbiolumine cant
boviche v
c urate
g low
Ð ½
ti ger
Ġc rit
Ġm ust
Ġart sy
es ta
ho rt
Ġr ul
si us
Ġun realengine
Ġch un
Ġso fubi
ya bovichev
ĠE nd
Ġti led
Ġmar ching
Ġview s
Ġcat ch
top las
Ġcam er
Ġhe ironymous
Ġsmall er
Ġnew born
Ġser ial
aro che
ĠAn ge
Ġspo on
Ġband it
Ġsac rif
Ġpoin te
iot r
place ment
Ġprac ticing
ĠFort nite
connec ted
Ġkoma tsu
ĠFade ev
1 7
N a
j ko
l ins
r ub
ta e
Ġc ultist
li zzi
Ġk usama
Ġco hes
Ġex ecu
Ġultra detail
Ġsur reality
min imal
Ġste adman
aw ada
Ġdef iant
Ġinf ant
Ġcli p
vis i
ped e
Ġhol ly
Ġemb racing
Ġcontro versial
Ġshaman ic
Ġdro ol
Ġspea king
than os
Ġclar ity
ĠArc ane
Ġflex ing
Yo ung
Fe male
g oku
w u
Ġc thulu
Ġd uchamp
ra ndom
Ġo st
Ġin tact
st retched
Ġre port
Ġn issan
Ġr b
Ġsh aring
Ġto ugh
ĠM ali
red ator
ĠW ide
Ġti betan
iron aka
pro cessed
phe us
lan tean
Ġstri pe
works afe
ĠAd olf
Ġcontro ller
ilar ious
ĠDragon s
Ġoo zing
skin ned
Ġprecision ism
Ġinclu ding
Ġpolitic ian
Ġoptim istic
Ġsauc er
silocy bin
f ight
p ea
p lan
r usta
Ġ !!
Ġa symmetric
ĠS m
ĠS onic
ka nder
ĠT hanos
ĠW yeth
ĠL arry
Ġdo p
Ġbal ac
ĠAn cient
Ġpop corn
bu ya
Ġwu xia
com position
Ġcli mate
wear ing
ĠBar ry
Ġharris on
Ġopera tor
Ġcri tical
Ġcum ulonimbus
Ġsequ ence
Ġpilo ting
hats une
p ad
Ġa ka
Ġb ent
Ġg ummy
Ġn ig
ie la
Ġcon dition
stra lia
bo ts
Ġsmo g
Ġ5 5
ĠG ediminas
Ġima gine
Ġwa ss
Ġcast les
Ġast ronom
Ġche ering
Ġph en
Ġhero es
ĠAnd rey
fer titi
Ġflood ing
ĠBla as
Ġoran gutan
Ġcly de
Ġrhi z
D i
m ushroom
er man
Ġk ev
Ġk eane
qu a
Ġho ang
ĠT ower
Ġz ana
and roid
Ġdynamic s
os pace
Ġve la
Ġtal k
Ġangel ina
Ġlogo s
Ġdel aroche
line ar
Ġju lian
Ġsquare pants
pla ys
Ġcro pped
Ġfred dy
ech no
AA AA
order lands
Ġcrush ed
believa bly
Ġtesser act
F uturistic
b ulb
w bac
Ġa la
Ġf l
Ġf unky
th es
Ġh imal
ar mored
Ġde crepit
Ġco by
Ġsc uba
ĠA s
Ġl ino
Ġy arn
Ġra tatouille
Ġla d
ĠP resident
Ġba bies
Ġout stretched
Ġcomposition s
Ġed gy
Ġfa ith
Ġfashion ed
Ġfin lay
Ġmir rored
Ġglit ched
Ġlaw yer
Ġterra rium
Ġwick ed
Ġhypno tic
ĠVen us
Ġfou rth
S e
k ar
z ic
ta ker
Ġc enti
ar iana
Ġin sta
Ġth unberg
Ġk ings
Ġcon j
Ġha waiian
Ġlo re
Ġas pect
ĠS tra
ĠS hot
Ġbo uguerea
ĠD MT
Ġvi kander
Ġme k
pa sta
Ġgo liath
Ġstar ships
Ġneon s
Ġbat s
do gs
Ġna oto
Ġic ons
Ġdol ph
Ġguns linger
ĠSer ov
synth wave
fol k
Ġfix ing
Ġprotec ting
Ġabsolute ly
Ġike bana
Ġschoen herr
i j
ĸ Ī
Ġs ud
Ġo be
Ġand o
Ġsharp ened
as im
ĠR on
ĠD uchamp
Ġ( ((((
ĠT e
Ġmatte o
ĠE sao
Ġflo ck
Ġfa bulous
Ġam sterdam
Ġsil houetted
Ġtr ident
Ġhar ness
Ġgar ment
gu ard
Ġwest world
Ġpres ence
ĠHan s
Ġjon as
ĠBer key
Ġemotion less
Ġschizophren ic
Ġguer ard
Ġrevol ver
Ġplushi e
Ġkomatsu zaki
R on
ow a
ĠJ ung
Ġup light
eld ritch
min d
cra zy
ru de
Ġsam sung
Ġna ils
Ġrem nev
Ġdel la
Ġid yllic
Ġpick up
Ġalphon s
Bat man
Ġmond rian
ĠHok usai
Ġphen omen
Ġvela zquez
m ir
w riter
Ġf ang
Ġf ps
li tes
Ġcon stella
ge ert
gra ffiti
Ġy in
Ġdo ig
Ġbig foot
Ġdisney land
Ġpal let
Ġki wi
Ġupper body
verti ble
Ġsph inx
Ġflame throw
Ġwhis ky
ĠJeff ries
Ġthought ful
Ġpoli tical
Ġfind ing
Ġbegin ning
Ġadora tion
Ġlicht enstein
wbac ca
th ere
Ġg rown
ro y
lo si
Ġe velyn
ter ia
ĠA va
Ġsp re
up a
ery luk
ĠC ent
ĠW right
Ġillumin ati
Ġka go
Ġpor k
Ġfer ocious
op en
Ġdnd beyond
ĠFran z
Ġlady bug
19 80
Ġpres idential
ĠMan n
Ġmeta morpho
Ġshark s
ĠJohan na
ÃŃ n
friend ly
Ġhear stone
O bama
rt s
Ġart ef
Ġin visible
is son
se eing
ge ar
de ta
Ġsho cked
ĠC enter
Ġne fertiti
till ery
ep ha
Ġwh il
lit zer
ca ge
Ġflower ing
Ġrep laced
ĠPhoto s
Ġmes o
Ġstic ks
des k
ele phant
ĠGu angjian
Ġhex agon
Ġtrim med
Ġtaste ful
Ġouts ider
aterp illar
S tanley
in er
Ġo xygen
st ent
Ġe akes
Ġt ense
de vi
ĠA R
Ġey tan
ĠW adim
lop py
Ġmar cus
Ġnight s
Ġglass ware
Ġwe bs
Ġbro ck
Ġcomp an
Ġind onesia
ash ington
Ġwha les
Ġsi pping
Ġaer odynamic
Ġmoto ko
Ġfeed ing
ĠIntro duction
b ri
i tion
x ual
re f
to y
ho und
Ġk emp
Ġk risten
Ġfo res
ke m
Ġcom fortable
ok Ã©mon
Ġmc u
sty lish
Ġsmile y
Ġcru z
Ġarts ation
Ġbart ender
TI C
ĠDol by
Ġsatur no
Mich el
2 3
E N
F i
Ġ ut
ti ves
Ġth ir
Ġk ane
Ġma ps
Ġphoto journalism
mo untain
ri age
Ġla ir
ĠS ense
Ġcha ined
Ġres ource
Ġflo rence
Ġyoshi toshi
ĠMa le
Ġhar bour
Ġsyd ney
Ġstic ky
ĠMan y
Ġlaw ful
Ġhom es
ĠChe val
ĠTh ings
Ġfright ened
Ġflags hip
ĠSander s
Ġforma tions
f il
k it
s old
z og
er ation
Ġw ang
sta ined
Ġr ive
im on
Ġsc ape
ks is
Ġdis placement
uman n
ĠN an
Ġhi biscus
ĠZ hang
Ġfiref ly
Ġkaw acy
Ġarrow s
ĠHow e
Ġtort oise
Ġecsta tic
Ġsteal th
ĠMiddle ton
2 5
H o
á ħ
Ġb ene
Ġh ideo
id i
se ver
ĠS yl
ĠH ell
mos et
pi eri
ba b
Ġmc ph
Ġser gio
og warts
ĠZ brush
Ġwra p
Ġrefrac ting
Ġped ro
Ġbush y
ĠSam urai
ĠKa wa
Ġhyd ro
archite ctural
Ġabra ham
pow ered
Ġlabrad or
Ġcyl inder
Ġposi tive
Ġbalac lava
Ġwhil st
a stal
or row
Ġk lee
ea red
qu atch
round ed
ery l
art germ
Ġem brace
rian a
urt le
gal a
Ġhol bein
Ġsprite sheet
Ġgrad ation
k le
k ish
Ġa el
ine ar
ch un
ud mak
ĠM ex
Ġta sty
ka ge
Ġte nder
Ġho st
Ġse men
Ġpe onies
ot t
rough t
Ġshow room
Ġstra nds
star s
Art work
Ġpack aging
201 8
ĠLip king
ĠJon athan
Sh rek
an ger
Ġk urt
hi msical
Ġbe lie
ĠR i
ĠR yabovichev
ĠC ross
Ġ2 8
Ġpro per
go pro
Ġgar go
Ġry u
ĠMe ndoza
bus ier
ĠGra ce
Ġww ii
ĠSer gey
Ġvari ety
Ġrepa iring
T aylor
d well
g lit
v on
re ck
Ġb low
Ġd ada
ra id
Ġp silocybin
Ġf ell
Ġw rec
lo e
ac ti
Ġn es
ap per
Ġout post
Ġgi ft
com ple
Ġju lius
ĠNe il
Ġblan chett
Ġlay er
ĠCy borg
Ġdu o
Ġrod ney
Ġnoble woman
ĠâĢ ĺ
Ġskateboard ing
Ġdic aprio
Ġjane iro
Ġeman ating
Ġpenta x
Ġdow ney
Ġgroo vy
F antasy
f ill
t ude
in th
Ġin ves
Ġde le
Ġre pair
is uke
Ġt sur
Ġpo well
Ġblack pink
ĠG ala
ĠB ank
ĠH alf
ĠW izard
Ġher itage
we et
Ġbee f
ms worth
Ġmass on
Ġdirec tor
Ġphotosho oting
rig uez
gre at
Ġjen ner
Ġinfla ted
Ġcali co
Ġslu g
Ġfol lowing
Ġward robe
j k
n as
v ideo
th ea
ac red
Ġco rt
po lished
Ġla li
Ġcom ix
Ġman if
ĠG lo
ĠG os
Ġultra violet
Ġgra pe
Ġab und
Ġhe ist
Ġlife time
Ġcur v
Ġmac hi
Ġka rate
sp ec
Ġalb edo
Ġpaper s
Ġga untle
Ġjew ish
gre ek
Ġluci fer
kee ffe
ĠTes la
T H
Ġa ust
ti mus
Ġart eries
ea sy
Ġma son
ur ers
Ġj ug
ol ly
si ble
Ġsk ating
Ġsha ft
!!!! !!!,
Ġres ort
ill an
Ġdan booru
ind ustrial
ĠO c
Ġwal do
Ġsea scape
ĠMo use
Ġstud ded
Ġeat en
Ġfun eral
Ġconnec ting
Ġjer ma
design ed
Ġplo uffe
Ġalumin um
ĠJak ub
Ġprotr uding
c l
y cle
Ġb ic
Ġc ctv
le ague
ar ling
Ġg y
Ġk ris
Ġpo ds
Ġto l
tra cing
Ġat tra
Ġsp inal
ka ya
ĠT em
and o
Ġwar lord
Ġste ph
Ġinter view
Ġshe en
Ġhi king
Ġboy ish
pro duction
Ġshoul d
chi ps
Ġpres ley
Ġhoney comb
Ġess ence
Ġeas el
devi antart
o und
an imal
Ġw rist
Ġre ming
Ġha rt
ri ve
si p
ĠC AN
Ġne ndroid
the ws
ille lis
ĠSt range
Ġron in
Ġmcc all
ĠHa lo
Ġswords man
Ġfisher man
Ġthough ts
Ġfas cin
Ġencounter s
Ġtru th
rusta tions
C har
D avid
f acial
p r
s ummer
Ġm use
to wer
Ġk icking
Ġwi st
Ġsta tham
Ġar ched
ple d
Ġman ly
Ġgra pes
ĠL am
ga mation
Ġmar moset
Ġpin hole
Ġfran s
Ġlu visi
Ġi Phone
Ġhe msworth
Ġpen et
ĠZ dis
Ġfer al
ĠSt ranger
ĠAnd roid
Ġspi res
Ġlevel s
ĠĠ Ġ
Ġlay ering
Ġpet erson
Ġax olotl
Ġtodd ler
Ġcomma nd
Ġlock hart
Ġartsta ion
ĠEast man
Ġrhiz omorph
d inosaur
z ges
li zation
ac up
ph ie
Ġra z
Ġar ney
Ġte letubbies
ess a
Ġgold fish
ato wn
Ġsit u
Ġgu inea
ag t
Ġbow ling
Ġga iman
Ġillustra tive
Ġwo rth
Ġscra tched
pan ic
ĠEld en
ĠAra ki
âł Ģ
Ġflamethrow er
M a
Ġs f
Ġp its
ar in
al uck
Ġt s
Ġma bille
ur ning
Ġha k
tra il
Ġdra pes
Ġla mb
ĠG andalf
ĠD ariusz
ĠP S
ĠF rom
Ġhat tori
Ġger alt
Ġtur b
Ġgrim m
Ġjak arta
ĠVal kyrie
Ġort ega
cap ybara
Ġmiss ile
ĠSch warzenegger
Ġproud ly
Ġscoo ter
ĠIta lian
Ġbunk er
Ġdunk ing
zges agt
t one
Ġa vec
ro ts
Ġin vad
Ġre ali
id ence
Ġl unch
Ġy ea
Ġra nd
ĠS to
ap pa
Ġso p
ff a
ĠP ie
ĠW ill
Ġmar ta
pe z
ust on
Ġlu te
ag an
Ġpar tial
Ġtar garyen
Ġ200 1
Ġprison er
Ġmp x
Ġdrow ning
Ġol b
Ġkel p
Ġelev ated
Ġaim ing
Ġnobu yoshi
Ġspect rum
Ġaen aluck
Ġreming ton
J eff
er g
Ġp iotr
Ġw ond
Ġj i
Ġar gu
Ġbo om
row ning
Ġshad dy
Ġwor st
ĠI r
oc topus
Ġpleas ant
Ġnav al
apix el
Ġthumb nail
ĠCarp enter
cie ch
Ġzat zka
Ġcompon ents
u y
ra tt
te y
is el
Ġli osh
Ġk enn
po sing
as er
ĠA less
Ġle y
Ġal bi
ĠS ep
ere wolf
Ġsa b
fo lio
Ġaf raid
Ġbal thus
Ġeng ines
Ġunif or
Ġgla zed
Ġke nd
Ġbon ner
Ġclock s
Ġdam on
Ġsaf adi
Ġalphon so
Ġmora ndi
ĠHas ui
Ġphara oh
Ġola f
C ute
f inition
m useum
v ivid
w ra
Ġd uke
an ima
Ġg els
Ġand greg
Ġco ws
Ġwi ki
Ġan oma
rom antic
co pic
Ġman a
Ġfa zio
ðŁ ª
ĠRo lando
ugh ty
ĠðŁ ı
Ġdiff rac
Ġpres entation
for mat
Ġret urn
roll s
Ġredhead ed
Ġsin uous
Ġwass ily
L ou
U N
d ungeons
g ress
Ġ !!!!!!!!!!!!!!!!!!!!!!!!!!!
Ġo ven
om in
Ġoc ta
ĠA ir
ĠA ug
tra ditional
ĠS olo
ĠH edgehog
ĠP lay
ĠE i
av en
ĠF ig
ĠK at
he es
ĠV HS
va tive
Ġsea gull
Ġser ge
Ġx ray
ĠLe go
Ġche er
its ch
Ġedi tors
ĠKar l
mor u
Ġtun nels
Ġshin taro
Ġboard s
100 0
Ġpoor ly
Ġbreast s
Ġdiscover ed
G re
ï ¿
ar nold
Ġha ye
Ġle m
Ġpro gra
ix el
ok ie
Ġdis plays
Ġmi racle
Ġcar i
Ġi ve
Ġunder wear
Ġbee fy
Ġgoth am
do ctor
Ġsand stone
Ġinc rustations
Ġrun e
Ġpig gy
Ġbul akh
Ġsi sters
Ġgather ed
ĠGer hartz
Ġ18 50
Ġcorn ers
leon ardo
Ġwander er
ĠJu les
Ġcode x
Ġslu ms
Ġye ti
Ġinfluen cer
Ġcudd ling
Ġinv ading
Ġa h
gh er
ho lo
Ġto day
Ġle ss
Ġal gae
Ġman ner
ture s
man iac
ks wa
na talie
Ġmar ines
Ġcre a
Ġse es
Ġmic e
Ġtex tile
be st
Ġbra zen
Ġmas querade
Ġus a
Ġ] !!
Ġga ughan
war f
Ġdr ug
izza re
!!!!!!!!!!!!!!!!!!!!!!!! !
Ġciv il
Ġnico le
Ġambro sius
Ġseem s
Ġthie ves
Ġamal gamation
b utter
l ings
v ogue
in ent
ta ns
es y
Ġsc aly
Ġcinematic al
Ġsta rting
Ġsho oter
Ġla sa
ĠS k
ĠS il
ĠR ad
Ġca uld
Ġmag ick
Ġfla shing
iz a
Ġfra ming
cy c
Ġsea shell
Ġbea t
rit z
anth ro
ĠHan nigan
Ġpotato es
ĠDep p
Ġfen nec
ĠRiver a
Ġauth or
R ed
w ea
li ch
Ġk ung
Ġma moru
ow l
ge leon
Ġra gged
Ġman kind
ĠC roft
Ġfil ling
ds ay
ren ts
Ġgod ess
tro pical
Ġx u
ĠDe mon
ĠBa by
for mer
zu ka
Art station
til t
ĠGriff in
Ġans ell
ĠEng lish
Ġrafa el
Ġhaye k
M ag
n um
o a
z h
Ñ Ĥ
Ġin lay
Ġli mon
ur ge
ĠM en
bo p
co zy
Ġ5 00
Ġz dizslaw
lic s
ga rt
Ġdan cers
Ġmus tard
Ġbal ke
Ġna gai
por tage
Ġcla s
Ġni ra
Ġbill s
Ġattri bution
ĠBre aking
Ġmanip ulation
/ /
Ġ lor
re w
li ck
Ġin scri
al and
tic ulous
ir ie
Ġj acob
Ġan i
Ġbo ulder
ĠB ul
Ġz eronis
Ġmon astery
Ġcra fts
Ġrock star
Ġfrank lin
Ġinf ested
ĠBo u
Ġtak ano
back ground
ĠAt lantis
Ġsubur b
Ġnan ospace
ĠIs mail
Ġtheat re
Ste ve
Ġduplic ation
Ġoverla id
ĠFal lout
ĠAg nes
. )))))
o lian
ti linear
ro ffe
Ġand romeda
Ġre portage
ric ane
id ing
se m
Ġar rested
Ġch ec
Ġte lling
ĠD ru
ĠP ortal
ĠP okÃ©mon
Ġmar ie
Ġru bies
iv an
Ġher zog
ue i
Ġbar on
vi k
Ġsw itch
ĠN el
Ġsa ils
ag ed
Ġpost ure
Ġgi b
Ġlibra rian
pre tation
IN G
Ġquetzal coatl
ĠJam ie
T re
c ery
j ean
r ily
w ight
ra ri
Ġp es
nd aya
Ġo blivion
ar us
Ġpa tern
Ġco on
io p
Ġsmo kes
ĠH aw
ĠP la
Ġcompo und
br un
Ġdeep ly
ich en
Ġic ec
Ġwolf gang
Ġsar uei
Ġpara site
ĠSo ft
pop hobia
Ġchee tah
Ġgree ce
Ġfold s
Ġrema ins
Ġheal th
Ġfol low
Ġjas inski
Ġtiss ue
Ġseren ity
ĠKawa se
g rey
u les
u let
v ious
Ġa las
Ġh g
Ġde sc
lo d
Ġma ine
ur ple
Ġn ation
Ġmo e
Ġy acht
Ġra gs
Ġra vens
Ġar range
sh Ã¸
ĠB ut
ĠJ e
Ġwar ren
Ġmar ina
chan ted
Ġcos mo
Ġkim ura
Ġber gh
Ġben son
Ġjeff ery
Ġbad ger
nic olas
Ġken obi
Ġlumin escence
cen tric
Ġcu yp
Ġstru ggling
Ġhend rix
ĠLand scape
ĠAu stralian
ĠCAN ON
shÃ¸ i
a pocalyptic
f antastic
n ia
in ette
Ġd pi
li minal
Ġg h
Ġin quis
Ġk ry
Ġk ilt
Ġpa wn
od o
ol verine
ber ian
ĠM u
Ġca ves
Ġmucha and
Ġor din
Ġste pping
Ġmon th
Ġdi eter
Ġsim ulator
Ġel mo
Ġbig gest
ug u
ĠMo rty
Ġrec tilinear
Ġvic ious
Ġren owned
Ġsever e
ĠRub ÃŃn
Ġnote book
rue ger
Ġcab bage
Ġmedic ine
Ġael bert
ĠGos ling
Ġolb inski
1 4
A nd
o y
p ine
Ã ¼
re x
ro type
al one
Ġn im
mo uth
Ġsty listic
ver ton
Ġsp ine
Ġun e
Ġch roma
ĠR ome
Ġcha kra
ci st
ĠF la
pi es
Ġtra p
az tec
ĠO ff
Ġir ina
Ġinf ront
Ġearth ly
Ġmicro chips
Ġwo ven
super man
Ġsiz es
ĠRed shift
Ġfier i
Mar io
crow d
Ġconven ience
Ġasy lum
Ġcari bbean
! .
6 4
b ust
d nd
ar ons
Ġg ha
Ġde gree
Ġpa p
Ġmo b
Ġsc al
Ġun focus
Ġflo ur
sa tan
ones ian
Ġsam us
uter i
urg ette
Ġstream line
ĠBas il
Ġbie ber
ĠSep tember
A nth
K eanu
g na
on ing
Ġd na
an nah
Ġg one
Ġe ight
Ġpo et
Ġtre jo
ĠA le
ap art
Ġca ban
ep atch
ĠL ittle
Ġhor rible
ĠE os
ye on
Ġsteam ing
Ġmac erated
ale m
Ġph illi
Ġdirec tions
Ġki eryluk
Ġmil lenn
ĠGod zilla
Ġgenera tor
ðŁĳ ģ
Ġdad d
Ġconsi stent
Ġshut tle
Ġchemist ry
Ġcaban el
L a
R e
h ell
m ul
m ary
s po
w onder
Ġa mo
Ġa ure
Ġa uerbach
re ne
Ġc ena
al bert
Ġpo odle
Ġrender man
Ġsc o
as ted
Ġhyper detail
ĠC ur
ĠT odd
and ria
ĠF a
Ġab duc
ond o
Ġtw irl
Ġmark ings
Ġaf rica
Ġocean s
Ġinc om
Ġisometric ally
Ġtar n
Ġsor cery
sci ence
ĠTa ke
greg or
Ġbubble gum
Ġquart ers
class ical
Ġoffic ers
Ġmex ico
Ġfrederic k
Ġsher lock
ronom icon
Ġlaure l
Ġwarf are
Ġsr gb
Ġexact ly
Ġsax o
Ġtigh ts
Ġartific er
Ġunifor ms
A C
f ea
m is
v elling
z uki
Ġb ellow
Ġre tail
Ġco urgette
Ġpo m
Ġdigital ly
Ġlight year
Ġar tillery
ĠF roud
Ġgo blins
Ġgu il
Ġsub conscious
Ġearth y
Ġcave man
Ġever garden
Ġever deen
cas tic
col lage
Ġchal amet
Ġcivilization s
Ġhaw king
mu tation
Ġharmon ic
gla morous
C inestill
O O
l ery
re lla
Ġd ice
Ġm ack
ic olor
or pho
ed en
Ġt pose
ki p
Ġte acup
ong ous
Ġqu es
ĠK ate
Ġcat woman
Ġge lat
Ġirid escence
Ġbla zing
Ġbet ty
Ġbox er
ĠAr m
Ġvege tal
Ġ199 2
rap haelite
Ġgoog les
Ġmonolith ic
Ġproto type
ĠMcD onalds
cli ffe
Ġsqua res
Ġinde pend
Ġh ate
Ġg b
Ġg ecko
ic ide
Ġv il
ig s
ig gs
Ġcon vertible
im ov
Ġra cer
ĠS y
ĠS ara
Ġbo ar
Ġfi lipe
ong ated
Ġyo mamoto
Ġti fa
Ġcan adian
Ġcar vings
ðŁ Ľ
Ġrich ly
Ġser ved
can io
Ġsi ren
Ġcr usta
Ġdj inn
âĻ Ģ
Ġfrag ile
Ġaristocra t
Ġdande lion
Ġbergh ain
G o
f lowing
r pg
Ġ \
Ġb rack
Ġc aterpillar
Ġo re
ar ro
un ay
hi rt
ol ine
ure i
ĠA ffinity
ĠR oth
Ġblue prints
Ġins an
Ġse ville
Ġgu ild
Ġtrans mutation
Ġedward s
Ġsar castic
Ġdoctor s
Ġpet ra
Ġfilter s
ĠEx p
Ġled ge
ĠMac ron
mist on
ĠDa isuke
Ġpon cho
Ġvent rue
Ġdas canio
ordin ary
Ġcamer as
r ush
s quid
u ard
ta ri
Ġm ission
Ġre noir
ho ra
Ġco astal
sta nd
Ġen oshima
Ġen velop
Ġbo zic
ĠJ un
Ġsu ch
Ġno to
Ġup lifting
Ġhead lights
Ġdy er
Ġdy ed
Ġlar son
ving ne
Ġanth romorphic
Ġstra to
ĠBo keh
Ġadvent urers
Ġstal ker
Ġev ol
ushi ka
Ġwol verton
Ġobsc ure
Ġkur zgesagt
texture s
Ġbry ce
Ġwr ong
Â «
ti z
Ġh ilarious
Ġth ru
or hees
ur ies
am po
Ġj av
Ġto ok
ri ver
Ġman son
ĠH odas
Ġyo g
Ġcra yons
ĠO ld
Ġtrans luc
Ġval ve
mp y
Ġx en
Ġwas p
Ġport folio
ĠInd ustrial
Ġcryp tid
Ġbj d
Ġmathematic al
ĠLove craft
Ġroberts on
Ġneu romancer
Ġinves ti
g rown
Ġm f
Ġt inted
Ġma urice
Ġn ba
hi er
Ġle fe
Ġbe hold
ĠF uturistic
Ġshad ers
Ġbar nes
Ġgu o
Ġbla ster
Ġdel ta
Ġdeath burger
ĠIn ter
Ġcas c
Ġapp ear
Ġholo grams
itz er
iter lizzi
ĠLeon id
Ġslic es
shadow s
ĠKun is
epp elin
Ġcoll ins
Ġthreat ening
Ġfascin ating
Ġargu ing
Ġcrea tivity
Ġcauld ron
J ames
M W
â ĸĪ
Ġs ss
Ġg len
Ġpa nd
Ġco ach
mo tion
Ġsc ript
me leon
ĠD x
ĠH ogwarts
the e
Ġme w
Ġvolu minous
son aro
Ġgo rey
mas cope
Ġcle opatra
led in
Ġchi ara
Ġcol in
ult uous
Ġden oise
Ġhan son
bu ki
Ġjeff ries
Ġbrad street
mor tal
Ġgas mask
Ġalp aca
Ġhammer shÃ¸i
Ġder by
Ġvers ace
ĠHea rthstone
Ge orge
anato mical
Ġfic tional
Lou is
d reaming
j elly
Ġn eanderthal
me yer
ĠC lar
ĠT ong
ĠW ho
ris s
ue le
Ġdis k
ind y
Ġref lect
ba ult
Ġpaint brush
Ġop ens
Ġimp or
Ġind ust
Ġsi udmak
Ġva po
Ġstory board
Ġchin atown
Ġbern ini
Ġgad get
ĠâĢ ĵ
ĠNic olas
para zzi
Ġrail way
Ġgraph ite
Ġwins low
simp licity
Ġphotorealis itc
c d
e lizabeth
n amese
le vel
Ġm um
Ġm ens
Ġde va
ac re
Ġre venge
Ġpa gli
ha ke
Ġex oplanet
ĠT ri
Ġba le
Ġlu mber
Ġmu hammad
Ġwind mill
Ġpan cake
Ġsummer time
Ġiris es
Ġpri ze
ĠHiro hiko
ĠAnton io
rem lin
Ġnag ano
Ġpend ant
ĠJen ny
ĠThi erry
Ġmachi ej
Ġordin ary
Ġpagli uso
1 3
m ystical
Ð º
â Ľ
Ġb w
Ġco yote
Ġst ron
ow icz
ch icken
mo sh
ve ster
Ġhyper max
Ġar ray
ste phen
vid ence
Ġden ys
por tait
Ġrep lic
Ġarch angel
ĠBa rack
Ġva ult
ĠGo gos
Ġpara sol
Ġcamp ing
stunning ly
fla re
Ġdata center
trans lucent
ĠLove craftian
ĠKe ith
Ġphiloso pher
ĠAz tec
Ġclow ns
Ġscare crow
T ho
b lage
e gyptian
n os
p rec
t z
v c
Ġg ive
Ġin anna
Ġv ern
ed ron
Ġhigh er
Ġphoto realist
Ġto aster
Ġsta res
ĠC art
ĠK ermit
âĢ ĭ
Ġda o
Ġsa raz
su ka
da le
ĠAl f
Ġpar r
Ġexpo sition
Ġcoff in
Ġfloral punk
Ġanthro po
Ġglitch y
ĠX iang
Ġworks afe
Ġstock y
utu ber
ĠÂ »
Ġchamber s
Ġberser ker
Ġfrances co
Ġantenna e
Ġzar ya
kswa gen
Ġsaraz hin
Ġh ickman
Ġin io
Ġli pton
la de
Ġn ut
am u
Ġmo or
Ġblack hole
ĠB ody
ĠC all
tan k
fi lova
Ġbar ber
Ġshi u
Ġgame textures
Ġgiant s
ðŁ ĵ
Ġhar umi
Ġtem per
Ġtrump et
Ġwea ver
Ġcreepy pasta
cre t
Ġmini ster
Ġmeta human
Ġava ilable
Ġwhirl pool
Ġ198 2
Ġpictures que
Ġeman uele
Ġcalle baut
Ġentang led
Ġfores hort
Ġtol kien
Ġa co
Ġc eno
us alem
Ġpa parazzi
la unay
ĠA ns
ĠD une
Ġso uder
Ġme ticulous
Ġdan gelico
Ġwood roffe
Ġside ways
Ġbur gund
Ġmach e
Ġter ese
Ġamazing ly
ĠðŁ ¥
ink ley
ĠJohn ny
Ġdev ices
Ġhall s
gre es
ĠBow ie
bea st
Ġgorilla z
tr uck
Ġjr pg
ĠArian a
Ġvampi res
Ġclas ical
Ġburgund y
O T
c la
p c
p ap
te au
ge ist
ĠA m
ĠA mazon
Ġlo real
Ġca brera
Ġdes perate
and ex
lic ally
Ġcar los
Ġfla yed
Ġsuper b
Ġtrans port
ĠCh ina
Ġpan filova
aut umn
Ġrus sel
Ġcub an
har u
ĠX iu
Ġath ena
Ġspla toon
Ġenter s
Ġfoss il
Ġfilip ino
pat ine
Ġheal thy
Ġpatro l
Ġmegalo maniac
ĠBou cher
C at
f lies
on ski
Ġf uturama
Ġt rou
Ġma z
ĠP h
Ġgra ham
pa ul
ĠW ay
he ur
bra in
os av
uer rotype
ĠðŁ ļ
Ġaccurate ly
Ġkon ig
ðŁĳ ©ðŁı
Ġkaw asaki
Ġik ea
ĠRid ley
Ġhumming bird
quart ers
Ġmegalomaniac al
C G
k or
s ti
Ġa ching
Ġc ord
Ġd ur
Ġg room
ul ts
Ġj unko
ter geist
ĠS tan
Ġta reme
Ġte nding
Ġcan s
han na
Ġcar rington
Ġge odes
Ġir ving
Ġser pieri
war hammer
Ġange lico
Ġbel ts
Ġorc s
Ġleg ion
ĠChrist mas
ĠEvan gelion
Ġglim mer
iculous ly
K ermit
O ld
a sy
Ġs ombre
Ġb ri
Ġh ironaka
ar mor
Ġg iven
st ly
un o
Ġt ons
ud line
ĠS mo
Ġey epatch
ĠD urand
Ġgirl friend
Ġste vens
Ġarc ana
jo y
if ix
ĠY ang
win ter
ĠDe tail
Ġcal dwell
Ġmost ly
Ġsi ster
Ġ199 9
Ġbec ame
Ġtwin tail
xi ety
Ġhur ricane
Ġfederic o
Ġdah lia
Ġbrack ets
C olour
N I
j ar
w ho
Ġp ushing
Ġf bi
ly sis
Ġcon stant
ack y
ace ous
po le
ĠA ll
ĠM ystical
Ġpla ting
Ġsky d
Ġstar bucks
Ġab e
Ġpen a
vil lain
log ic
ik tor
Ġdead pool
ĠEl more
Ġauto focus
Ġfighter s
ĠSc rolls
Ġtum ultuous
Ġbeet les
Ġmorph ed
tori ous
Ġheal er
pale tte
Ġserv ice
Ġrhyth m
Ġlett uce
erv escent
P olaroid
p eng
Ġs zukalski
Ġd ich
Ġr uts
ss ibly
Ġsp andex
Ġlo unging
Ġface paint
Ġ1 35
ĠG hailan
Ġne ko
Ġbi ble
ĠRo coco
Ġeff ervescent
Ġdys on
Ġ20 10
Ġbrid get
kov ski
ĠMon roe
Ġvar ia
Ġleg acy
Ġbrand on
De harme
Ġimag ined
Ġfrid ge
Ġpee king
ĠFre ud
comple te
S noop
t f
an te
Ġwi d
ch ristina
Ġro bbing
ĠA tey
Ġle ak
ĠM il
ĠM urakami
rac ula
ad am
ad vent
Ġte l
ĠJ ura
ds or
ĠK u
ĠI sa
Ġbal ding
Ġes uth
Ġcup s
zo rov
tif y
bell ine
Ġkaz u
Ġduplic ate
ĠOut ram
Ġesuth io
I V
_ -
c ze
f inal
Ġd ittman
Ġf lan
ĠM illais
ĠH unter
Ġho und
ĠW ashington
ĠK unkle
ĠN ick
Ġwa i
Ġnor way
ass et
ĠDe lights
Ġsum erian
Ġga unt
ĠMag ali
ĠRa in
Ġnan ite
Ġjunk yard
ĠVar gas
L eon
g lasses
Ġa ran
Ġa ck
st ronaut
tic es
it ro
et ting
am ly
ke ting
Ġta tsu
ĠP enn
ĠE ar
ĠF eng
ĠI gara
ern er
Ġge ode
Ġornate ly
ĠU s
Ġalex andra
Ġpor ch
Ġinf ernal
Ġtime less
Ġband ai
Ġsan ct
ĠSaki mi
Ġvel via
Ġdar kest
ĠEarth ly
Ġsunbea m
Ġbatter y
pie ces
Ġgue st
38 4
Ġcels ha
Ġvolley ball
kip lier
ĠClar ke
Ġimpor tant
ĠIgara shi
ľ ¨
on er
Ġd ren
Ġd ucks
Ġw hip
gh an
te st
ma ndy
Ġk agetsu
ĠM ills
Ġta b
Ġno mad
Ġti ered
Ġac ri
Ġcan ada
gg ins
Ġse ves
Ġtra de
Ġcry pt
Ġbea ting
ĠAl ma
Ġna udline
ban k
Ġjon ze
Ġner ves
zel ince
Ġtomato es
Ġgoo ey
Ġalco hol
Ġdolph ins
A T
b one
w himsical
Ġ $
Ġ ï¿
Ġa ff
Ġa udio
Ġs ne
Ġf ett
Ġw ish
Ġg ris
Ġg lue
en cer
ĠM achine
ĠG as
ĠG rant
ĠL uke
ĠI ce
ise kai
ĠJo se
Ġnet works
Ġmechan ism
oclass ical
Ġdu otone
Ġreg alia
AS A
Ġopp ressive
Ġnum er
Ġcompan ion
Ġseves o
zelince v
M aster
a ga
Ġb ucci
le tte
li ar
Ġde grees
Ġma sc
gra ve
Ġdra ke
Ġta mara
Ġba umann
ins borough
Ġwor ship
dra gan
Ġsa uron
br ity
und am
ert rude
Ġwa its
Ġwa ifu
Ġretro future
ula tive
Ġice berg
Ġ20 21
Ġplay ers
Ġmom ents
sol arpunk
Ġbuff alo
Ġsuspe nders
Ġans in
Ġcohes ive
M y
u lo
w ny
on ce
Ġth oris
Ġmo hrhauser
Ġte zuka
ay ing
Ġho using
Ġpro zorov
Ġdo zens
Ġge ert
az u
Ġkey frame
Ġcap ita
Ġlook ed
ĠHDR I
ĠNo vel
ori yama
Ġsep hora
Ġdar gas
ĠðŁĮ Ī
Ġinstrum ent
Ġslic ed
Ġlegg ings
Ġcenti pede
ĠFig ure
A L
c lown
e o
w y
Ġd ates
ra lized
ra iser
Ġre imu
un ion
Ġv dragan
Ġco aster
Ġr in
Ġra ind
Ġqu aint
ĠP elton
Ġstill s
min ster
Ġher nan
Ġem is
Ġel ongated
ĠU r
Ġjack ed
Ġdon uts
Ġhy ster
cha k
Ġri jn
Ġva gabond
ito l
Ġ198 5
Ġtracks uit
ĠWitch er
Ġket ner
Ġferro fluid
hier onymus
G B
b lown
l aces
m echa
n ier
n ica
v ovich
x enomorph
le mon
Ġco ding
Ġpo pping
Ġj une
Ġil l
Ġla gerstedt
ff olding
ĠL u
by e
Ġmic ha
Ġmu zzle
ek t
ĠY or
ĠAn ya
Ġya ma
des ert
Ġdia grams
cel ona
stan za
Ġlemon s
Ġlen in
Ġmay belline
Ġwit ness
Ġcontempla ting
Ġgho ul
ĠWo j
Ġreflex ions
Ġwait ress
Ġcapsu le
Di rector
p ir
ta dor
ting ly
un ts
Ġj eremiah
Ġan te
Ġsh u
Ġra g
co aster
Ġ3 65
Ġsa ve
ina x
Ġter ro
lumin escence
Ġspi key
Ġcandy land
Jo y
Ġguard s
Ġps x
ĠIns anely
Ġwoj ciech
Ġvale jo
Ġgow ard
Ġstrato caster
: //
C ap
d ge
o rous
Ð »
Ġ ^
Ġd it
Ġd iterlizzi
lo rant
lu ffy
Ġan ts
Ġhyper bo
Ġas una
ple ss
Ġultra marine
ĠD ia
Ġho ckey
ĠK laus
he la
ak in
ĠI ranian
go ro
Ġge nder
org ed
Ġlar ger
br ero
Ġgr ime
ĠArtstation HQ
Ġhard surface
Ġscho rr
Ġinfinite ly
Ġpra irie
Ġcl ark
Ġhum ongous
robo ts
ĠWonder land
sca led
Ġcrit ters
Ġlino cut
asim ar
Ġartef acts
ĠIr ving
Ġb ead
Ġb els
Ġp ant
Ġw ants
ph ants
Ġen och
uc an
me jo
Ġbo tero
Ġis s
Ġgra flex
Ġdo ugh
ĠK ilian
ĠV ivid
Ġda emon
Ġtra m
br ide
Ġmas ashi
Ġcur ve
ĠZ hu
unge on
Ġsqu ashed
ĠPhoto Director
Ġicon ography
ni ster
ĠPo lice
Ġpres enting
ade ma
Ġdia bo
Ġlan kan
hea vy
ĠWin dsor
kra ine
Ġidea s
Ġdoes n
Ġsear ch
Ġposs essed
Ġkhali l
Ġmate jko
ĠVis ual
Ġkaleidos cope
Ġuss r
Ġsacrif ice
ĠPie ck
Tre nding
o ire
r umb
Ġp len
Ġm ign
al in
st v
Ġco ke
Ġt zu
Ġst ubbs
Ġn ie
rom it
ark on
Ġas ano
Ġher ndon
Ġarm itage
ill ac
Ġwall ace
Ġsa id
do vic
di esel
ru ffy
ĠMar ia
sho rt
Ġgen ndy
bu sters
fit ti
Ġstic kers
Ġwest on
Ġheaven less
Ġron ny
tern al
ben jamin
cas es
Ġpol tergeist
Ġact ually
Ġpill ar
Ġnow here
teen th
Ġimagin ary
Ġassem blage
Ġtravell er
R E
b ella
u art
th ic
to oth
ac rylic
ed des
se cret
Ġbl ing
ĠR ÃŃ
Ġso litary
ĠJ ac
ĠL loyd
Ġang rily
lop od
Ġher aldo
Ġstar fleet
Ġ| |
est rian
Ġsto at
Ġve nd
yp sy
Ġber mejo
ĠIn f
ii i
Ġapp e
rid escent
Ġsav annah
Ġbon heur
Ġpul sing
hea ven
Sp ider
Ġchecker ed
Ġik eda
Ġtek ken
Ġwound ed
viron ment
ĠSpi elberg
Ġdesc ham
ĠRÃŃ os
' >
O r
f its
u ire
Ġc epha
ing uez
Ġm it
tic ia
Ġth ist
Ġli s
Ġst ray
Ġfo untains
Ġle aking
Ġex cept
Ġpro vocative
Ġti p
fi er
era tive
Ġdragon born
Ġcloth s
ba le
Ġmark ers
Ġpan ic
ĠðŁ ķ
Ġgrim shaw
Ġbeard sley
mid dle
Ġspark ing
Ġdepic ts
Ġtar dis
Ġbun s
Ġsurge on
Ġdevelop ment
Ġrhizomorph s
Ġgib son
ĠAns el
cze wski
2 9
p ep
Ġa si
Ġb ryan
Ġb aphomet
en i
Ġco gs
Ġle aping
Ġbe je
ĠM ay
Ġla zy
sh iny
Ġcha nde
ĠP C
Ġor chard
bi k
mosph ere
Ġbar ry
ĠI stv
Ġtex tiles
Ġdeep dream
sa w
Ġbow tie
Ġsketch fab
Ġna usicaa
Ġshow case
Ġexplo sive
ĠPa ick
Ġrichard son
Ġscar ry
Ġcamp ion
rump y
haus ted
Ġbusiness man
Ġsquid ward
Ġreg ular
Ġbare ly
Ġwarp ed
ĠColor ful
pas tel
Ġeuro pe
Ġaching ly
ĠIstv Ã¡n
j on
t ris
Ġs ally
ta ke
Ġd ign
lo x
lo ts
mo use
po site
Ġsp illing
ad or
Ġsk ater
Ġba iley
ga tion
nam ent
pe i
Ġhu morous
rich ard
Ġkn ives
Ġchar iot
Ġsnow fla
Ġtur ban
op hobia
Ġhorse man
Ġextra ordinary
col m
Ġnav ig
ĠJeff rey
ĠWin ning
Ġpuff balls
Ġtyp es
Ġles bian
Ġupward s
ĠAnth ropomorphized
ĠTur ner
lide an
Ġdrool ing
Ġwrec kage
Ġprogra mming
âĢĭ âĢĭ
Ġd well
Ġp ng
Ġh itch
Ġg in
Ġg onna
Ġin iti
Ġre action
la mic
la ining
ali e
im o
ri ous
Ġsp rink
ĠR etro
ĠD og
Ġcan ine
Ġgo pro
ens ity
Ġem boss
Ġgu ido
ðŁ Ķ¥
Ġtop hat
Ġeth no
men tric
lin k
Ġbak ery
Ġleon hart
Ġdestro y
Ġradia tion
Ġmenacing ly
ĠBre ath
Ġlaunch ing
Ġfrances ca
Ġautoma ton
sever al
ĠGala xy
P eter
S mith
w reck
Ġf j
ul ating
sta te
Ġsh eng
om inous
Ġen sor
Ġun conscious
ap py
ĠR ider
ĠR onaldo
ĠD ungeons
ĠC ali
ĠF in
Ġste llar
pp i
Ġpin ball
go od
Ġpe sty
Ġlarge st
Ġhour s
Ġbur ri
Ġperson ality
Ġcollec tive
Ġchal len
Ġrecur sion
ĠSur real
Ġpay ne
Ġhatch ing
Ġcrou ching
ĠCoo per
ĠArm strong
Ġforeshort ening
H omer
R ay
d oll
h on
v olumetric
Ġ \'
in ton
li ly
il ds
Ġe aster
la rt
Ġn itsch
ĠM el
Ġcom pass
Ġho op
Ġvolu mentric
Ġste ir
vi king
Ġge mini
Ġlow poly
ĠU nder
bow ski
Ġble nding
ĠLe esha
Ġscho eller
Ġrec ords
Ġhal lu
Ġguard ians
Ġsom brero
Ġgim enez
Ġthir ties
Ġwist ful
5 5
B en
e erie
n ski
z on
es tation
Ġpa vi
gra ss
Ġsp rou
bo i
ĠD id
ere nder
ĠW a
Ġcan ale
Ġtra velling
ba i
if ying
00 0
Ġpart ying
Ġwa king
ather ing
Ġsn arling
Ġsnow man
ĠMar x
ik h
Ġscreen cap
ĠBo ok
dis tant
ĠChi e
Ġpot ted
Ġcele brity
gn acio
ĠLuc ian
Ġassem bly
Ġoly mpus
Ġsaus ages
Ġobser ving
Ġsail boat
ĠVo legov
Ġcann ot
Ġplen ty
Ġhallu zino
I L
Ġa pop
on ka
li os
Ġli ons
ss al
Ġro aming
ri ka
Ġsp atter
ple y
Ġta o
Ġta ts
ĠB lu
ĠP art
Ġoil paint
ya le
uv re
ĠK and
Ġsm urf
ĠN izovtsev
Ġda mask
Ġmc gregor
Ġhard ware
ĠCh en
Ġstra ps
Ġpencil s
Ġafter life
ĠLo ck
Ġsig il
Ġpsycho sis
Ġped estrian
Ġpol ka
sil a
ĠLuc as
Ġkush inov
vol ta
Ġkee ver
Ġbattles hip
ĠTak ashi
ĠVi king
Ġgargo yle
C ra
P rin
m ura
v ant
in te
Ġf lorida
Ġh ilde
ar tificial
es ign
Ġe nds
ma ker
Ġt si
Ġma ur
om p
ver ns
Ġar bus
ĠR ut
Ġ5 384
ĠB l
ĠC av
Ġwin ing
Ġso il
ĠT H
Ġvi ral
Ġshad er
Ġhead room
Ġpla ster
Ġtrac tor
Ġair ships
Ġclean ing
Ġna tasha
Ġtar sila
Ġcream y
Ġow en
dis io
ĠDo izon
Ġorienta tion
lith ic
Ġama ral
Ġartic ulation
Ġdrople t
Ġsock ets
ĠScho ol
Ġpaja mas
Ġbelie ve
Ġhalluzino genic
M i
k ur
m per
Ġa de
Ġs ali
ra re
ar lin
Ġk ime
Ġco us
Ġma dox
ph is
Ġsh it
Ġch ernobyl
ad el
ĠG am
ĠL ara
Ġfilm ed
Ġhu g
Ġunder exposed
Ġtom orrow
vil inear
ise xual
Ġtri al
duc k
Ġcow boys
Ġmouth s
ni el
Ġtrain er
Ġgro ve
sha ded
Ġblossom ing
ĠMac N
gor illa
Ġâ Ļ
Ġaven ue
Ġvalent ine
Ġlew andowski
Ġing ame
ĠðŁİ ¨
Ġding y
Ġinfor mation
Ã¡nd ez
Ġmcph arlin
Ġcurv aceous
Ġicec ream
Ġgha stly
Ġsaxo phone
Ġcanale tto
A lice
j ustin
r ze
Ġ }
Ġs ure
Ġb ateman
li quid
to k
Ġpa tty
ant ra
ri k
Ġele uteri
Ġz eppelin
bi li
Ġti k
Ġdan ces
Ġtex tless
Ġtra vis
Ġperson ified
omb ly
Ġproduc ed
Ġmul let
Ġau tomo
phe lia
ped ia
Ġchan el
Ġmeta lic
cam era
Ġprim iti
frie nds
Ġcelebra tion
Ġrut kovsky
ĠFern Ã¡ndez
ĠPhi lipp
sar gent
Ġcomix wave
Ġley dy
Ġinsan ity
Ġacri lic
ĠMacN evin
] ]
e nding
f rench
f ano
o ko
p lant
s nake
Ġa ce
Ġo iled
Ġm eter
th ick
to v
Ġre member
Ġmo t
Ġl ance
tra st
Ġhea ther
Ġdes cend
vi ta
iz u
ĠV as
light ning
ĠRo yal
Ġsqu at
ex terior
Ġmad onna
ils k
Ġern ie
Ġ# ,
ele nsky
Ġwra pping
iro th
Ġpass enger
Ġcru el
Ġgraceful ly
ĠSe uss
Ġcarn iv
In tricate
Ġtax ider
Ġexperien cing
Ġraz or
Ġanoma lies
T adema
U T
o ul
t rance
Ġg rou
en ic
tic an
Ġre alis
or ns
se k
Ġlighting s
Ġgre asy
ger son
ĠG athering
ĠB orderlands
ĠE ric
Ġmon ica
ba ud
cer os
Ġjohan nen
Ġdia phan
ĠHyper realism
inter galactic
fig ure
cow boy
nin ja
Ġgrem lin
ĠAlf ons
Ġdiaphan ous
x x
Ġa ds
Ġb ing
Ġf ris
Ġg ypsy
ac ting
Ġe tched
ent y
Ġra di
si er
ĠM ey
Ġas imov
ĠS andro
Ġta ro
ĠB MW
ko rean
na u
Ġmon t
Ġshi re
Ġlu dovic
oid s
Ġwal led
Ġsil va
Ġbea gle
ĠAn ne
Ġrobotic s
yoshi taka
ĠCha os
apo re
Ġcolli ding
Ġgauntle t
H uman
P ikachu
V inci
h ulk
h rets
p ulp
w erewolf
Ġf rowning
Ġli ter
Ġv ague
Ġpo sse
ne il
ure n
ĠT oriyama
ĠArt G
Ġbar bed
Ġwall in
Ġref ining
ek tachrome
Ġbur gers
ex quisite
Ġstrong man
Ġacc ord
Ġscho lar
Ġsal via
Ġrep ublic
com mun
Ġpy thon
Ġow ens
ĠYoshi i
Ġkir k
Ġmyth ic
yn x
Ġplane tary
Ġspea k
Dra gon
Ġcruc ifix
Ġlang ley
ĠHend ricks
Ġlasa gna
a el
e very
f ruit
k iss
Ġo thers
Ġg ives
lo rens
Ġv w
Ġk am
Ġfo rested
ne ys
Ġen em
ĠM ini
ĠS C
Ġbo ot
Ġcha meleon
lop hobia
av enger
Ġac ro
Ġshi va
Ġem plo
Ġwal rus
Ġwea ving
ita lart
Ġanton i
ĠEl lis
Ġaura s
Ġpara ch
Ġroset ti
Ġterra ce
Ġether ic
Ġkuro sawa
Ġtow ns
Ġsamo yed
Ġdracon ic
arkon nen
diesel punk
Ġdescham bault
Ġapop ha
ĠArtG erm
J ennifer
j ective
Ġb isexual
al ds
ac hite
am ond
Ġan xiety
de st
Ġra bbits
Ġlo af
Ġla den
Ġele phants
Ġsy metric
ĠT erry
Ġup scaled
Ġwar ship
ĠK id
Ġab bey
Ġda ft
Ġtrans mission
Ġrid ge
ĠDe finition
An cient
Ġry der
ĠEl f
Ġtext book
Ġfreck led
Ġec centric
Ġbol land
cur sed
Ġrevolution ary
ĠMed usa
Ġlabrad orite
ĠLin coln
Ġcn c
Ġsug imori
ĠRams ay
Ġsteph ens
itzer land
Ġmasc ara
hrets mann
M in
k irk
Ġb mw
Ġf ading
Ġo bi
Ġh bo
tic he
mo u
Ġsc ruffy
sh er
ĠL os
na de
ĠK ey
tan ts
Ġtex as
Ġfra ser
br uce
Ġcomic book
ĠU E
ru ce
Ġsand als
Ġrem brant
Ġimpression istic
Ġfort une
Ġsav chenko
Ġadvertise ments
Ġalva rez
Lo fi
Ġlaun cher
fron tal
Ġmaniac ally
Ġobe lisk
kem pt
vik tor
Ġenem ies
Ġapopha sis
G al
d ivine
Ġb illelis
le gal
Ġh eter
ic le
ro l
Ġk ali
Ġk han
Ġpo ts
Ġn ukem
Ġphoto gra
de c
de isson
Ġsta ture
Ġbo fill
Ġsu v
Ġwoman s
Ġno s
ĠF rie
pe ace
Ġwe al
mp ed
Ġcir i
chi a
Ġcr ushing
Ġav on
Ġlap is
Ġspot lights
Ġcl one
Ġdag gers
ĠHer mione
Ġpengu ins
Ne w
Ġabra ms
Ġharmon ious
liam ent
ĠZdis lav
Ġhak urei
C TV
O U
T his
e li
e lectric
k id
Ġw illis
ic orn
Ġde scent
Ġre alization
Ġco py
ch ro
Ġmo ai
ĠR onald
ty pus
Ġne bulous
ĠJ eon
Ġsm el
ild er
go blin
Ġlu ck
Ġbi omes
Ġmor ski
Ġalb u
Ġexplo de
Ġgrand ma
ĠBa arle
hae lites
Ġmechan oid
over grown
Ġner drum
Ġroller coaster
tex tless
Ġvari ed
Ġbac teria
ĠEver ett
ĠZe iss
Ġalo y
Ġtimo thy
Nic olas
Ġamid st
Ġinhabi ted
Ġhara juku
ĠMand elbrot
Ġrul er
Ġpes chak
6 7
c ord
f amily
j essica
z hi
z one
Ġs ins
re mans
Ġo ga
Ġj ig
per ko
gra y
Ġlight bulb
Ġun a
Ġun kempt
Ġas af
Ġla tin
Ġbo ba
Ġultra realism
ura t
Ġsun ba
Ġru bin
Ġac tors
Ġcre ates
Ġprof ound
Ġcra w
Ġfac tions
Ġcur vilinear
ĠMa ss
Ġtable ts
Ġtur bo
ĠIn cred
Ġemer alds
Ġglit chart
Ġer win
dan iel
tang ular
Ġfed osav
Ġanno yed
Mar got
âĻ Ĥ
Ġkhali fa
Ġvisu alis
Ġvisu alization
ĠDea kin
Ġremin iscent
Ġtus ks
Ġmek hela
Ġtsi perko
a ille
a tar
c ctv
p od
s anta
Ġ ul
Ġg ur
ed ral
Ġpain ing
pt us
Ġl ung
graph er
Ġsy ring
ĠW onka
Ġaward s
Ġu tility
Ġhis panic
pi ra
Ġbu ying
Ġbu ndt
Ġglass y
Ġko bold
ĠU krainian
lis ha
Ġinf used
ex tra
ĠðŁ Ľ
Ġce zanne
can o
Ġrap tor
Ġsat yr
ĠEdward s
Ġseductive ly
Ġnec ronomicon
ĠCon n
ange la
Ġdig est
Ġextre amly
Ġsile nce
Ġthre ads
ĠPhi lip
Ġdoug las
ĠSym metrical
Ġresto red
Ġarrange ment
Ġwid th
b lically
er in
ar chi
Ġth read
es tive
la m
Ġst ere
Ġan tic
Ġcon vers
de pic
Ġat tic
Ġun ner
Ġun natural
ĠR us
ĠB aroque
ĠP unk
ko la
min ions
Ġcre ep
Ġdi ve
Ġse pa
Ġgreen ish
Ġi ranian
!!!!!!!! ,
are z
Ġornam entation
Ġsav ing
Ġfigur ines
Ġmystic ism
Ġbotan y
Ġjer usalem
Ġbor remans
Ġfuch sia
EA L
Ġintegra ted
Ġshred ding
+ +
E d
V ladimir
d ag
f ran
j erma
Ġ ãĥ
Ġc ul
Ġd ual
el lation
Ġil ford
Ġra fal
Ġta xi
ultra detailed
ĠG ary
ĠL ang
Ġmar ried
Ġdi vers
Ġperf ume
ĠN ASA
Ġem pha
Ġcor busier
head ed
chi ef
ju ice
Ġple ated
Ġei ther
ĠDa Vinci
hel ong
Ġtool bag
ðŁ¤ ĸ
Ġdeli very
Ġsie ge
Ġost rich
Ġmens wear
Ġcepha lopod
Ġunner ving
D A
L and
o ura
v ation
ta ch
Ġf ins
an ne
ar ine
ar ies
Ġg es
Ġin tent
Ġth i
ha dow
Ġst oned
Ġgre ta
Ġmo sh
Ġcine mascope
Ġsp encer
ĠM ulti
Ġz erg
Ġor k
Ġang ler
ĠF ab
ther ed
fi ve
Ġexp ressing
Ġvis i
Ġbi fur
Ġpic ard
Ġhan ga
bs idian
gu iling
Ġvo ya
Ġva lorant
zan na
Ġalter native
Ġdocum ents
Ġwre ck
Ġbuff et
Ġske ksis
Ġpocket watch
glow wave
von ne
âłĢ âłĢ
ĠKand insky
s z
v ine
Ġa eon
Ġc fg
Ġp ills
te ous
Ġle mpic
sh ark
ĠC olored
ĠH ass
Ġso aring
pic able
mer al
fe i
Ġlens flare
Ġsuper flat
Ġda enerys
Ġsa o
ĠY us
bb as
ugh ing
uth bert
Ġx box
Ġcg studio
Ġvilla ges
Ġtro us
Ġju gs
bre ad
mus ic
ĠTom o
roc can
Ġcro chet
Ġpub lished
Ġcata comb
Ġpup il
Ġbark er
delic ious
ĠPri ma
Ġpray er
Ġhilde brant
Ġalbu querque
B y
Q ueen
Ġ nd
re devil
Ġde construc
Ġr ho
se en
ĠA oshima
Ġra cial
si tic
ber nie
ens ual
Ġvibrant ly
ĠV iv
Ġel bow
!!!!!!!! !!!!
Ġflu ttering
Ġink tober
ĠAn to
sp irit
ĠSh ell
gent ina
Ġsign ature
Ġapp ari
Ġadventure s
Ġdoom s
Ġinfla te
Ġtemp late
197 0
ĠÃ ī
Ġscoo by
Ġyas u
Ġjing na
cass andra
ĠCos mic
Ġbog dan
Ġspre ading
Ġtarn owski
u ished
w ha
Ġd apper
Ġpa py
ha o
el len
Ġsp ice
co urt
Ġbo ob
ĠG ranger
ĠC olo
ĠW ong
Ġbar bara
Ġwor ried
ind onesia
Ġtra mp
Ġfa tale
Ġwh y
Ġair bender
da o
Ġstor ms
men to
ban ana
hen ry
Ġbox art
Ġleon ora
Ġexquisite ly
Ġsca ffolding
Ġcl ones
onge Bob
ðŁĳ ¾
Ġcontrol led
cine ma
Ġet sy
Ġci berpunk
ĠMod ern
Ġcruc ified
Ġinj uries
ĠDO F
Ġparan ormal
Ġinla id
ĠRoth ko
Ġsanct uary
? !
O M
b ic
b ean
d rone
p uff
Ġh arle
st ream
un ced
Ġpa tho
ri on
Ġy i
Ġla dies
ĠS creenshot
Ġsk illed
Ġblu ish
ren gth
dra w
Ġsuper ia
Ġem ile
ðŁ ĸ
Ġpen sive
Ġmin eral
ĠU p
Ġair y
Ġmichael angelo
Ġflu te
ĠBe zos
Ġswea ts
ĠTim es
Ġsuc cess
Ġtour nament
ĠSan chez
Ġlind sey
Ġimmer se
Ġmeth ods
ĠNin ja
Ġswe pt
Ġque ens
ĠSpider man
Ġtek kon
ĠAud ubon
ĠTsu tomu
Ġsurviv or
Ġdiscus sing
Ġcous in
I ns
p res
r ide
u tiful
u fo
Ġb ana
Ġd zo
Ġf lip
Ġm k
li ov
Ġw elding
Ġk enton
Ġk anagawa
Ġk rueger
ri te
Ġsta g
ud eau
Ġla vish
Ġdark er
ka ta
Ġz helong
shi ba
Ġmus tang
Ġrock er
Ġhe em
Ġka poor
Ġfin eart
ĠMa de
Ġau stralia
Ġever est
Ġwindows ill
part ment
Ġconf etti
Ġvo orhees
ife i
mate ur
Ġmat thews
Ġkaz uo
urav liov
Ġconj uring
ĠAva tar
Ġlefe vre
Ġgeodes ic
Ġsprou ting
R ick
S ci
c up
n ir
r usty
w h
Ġa wa
Ġs ting
re ar
Ġd ating
is ÅĤaw
ma pped
om be
Ġbe bop
co u
ĠR hads
ĠB udd
ĠD iffusion
Ġbr ief
Ġfor med
ĠE uropean
ĠK or
Ġher cules
Ġmi hai
Ġsa hara
Ġmus can
Ġinter pretation
cra ig
Ġpi et
Ġgi ac
Ġmor rowind
Ġgrim es
Ġcinemato gro
Ġgrow s
Ġrichard s
Ġgas par
cot tish
Ġzi ppers
Ġtransfor med
Ġdag uerrotype
Ġfel ting
Ġsuc cu
Ġamazon ian
Ġdid ier
Ġpun isher
Sc arlett
tele portation
Ġmina j
Ġbrit ney
Ġtsur ime
ĠDx O
Ġemis sive
Ġcinematogro phy
P er
W in
b ury
s tor
w hen
Ġa pes
Ġa asimar
le ader
Ġp vc
Ġh onda
li fter
es sion
Ġv es
ha s
Ġpo op
ir ky
Ġcon cent
Ġlight rays
ber ation
Ġis ra
Ġne ther
Ġsy rup
Ġvolumetric s
Ġste pi
Ġvan illa
Ġsa itama
Ġmid riff
Ġhe mp
Ġrad ial
den kirk
Ġset tle
Ġhar i
rec tangular
ich on
ĠHe w
ĠFo ster
Ġmom oa
Ġjet pack
gb t
Ġskele tor
Ġé Ľ
char coal
ĠHow ard
Ġschematic s
Ġsend ak
ĠIsa ac
Ġethno graphic
Ġpapy rus
Ġstepi en
P C
j ab
n ett
Ġd umb
Ġm ia
ac tory
Ġre za
Ġli ft
Ġto po
ud rey
Ġex hausted
ĠD ora
ld a
mon s
Ġwa ffle
Ġtable t
Ġinterior s
ĠMar got
Ġcastle vania
Ġban ners
Ġsetting s
Ġgla m
ĠAr mor
Ġassass ins
Ġsca led
ĠChris tophe
fer ence
Ġpara lysis
Ġvio lence
gor gon
Ġcabin et
Ġrutkow aki
Ġten niel
Ġcook book
ĠNi hei
skin ny
Ġprom inent
ĠFro zen
beard ed
Ġshan ghai
Ġjap on
Ġdele vingne
Ġlempic ka
A lien
T h
b uck
p ig
r uvian
ra gon
Ġp ter
il er
ile nt
un ov
ea se
Ġco met
Ġma rty
Ġst ump
ĠM ila
Ġte aring
ĠH ey
ĠW illy
Ġfil l
Ġover tones
Ġcar ries
vi rom
illi ons
ĠZ awada
Ġhan gs
Ġemo tive
Ġchild like
wo o
lid ge
Ġpier o
Ġkid mo
Ġtext ural
Ġbranch ing
Ġbud s
Ġ70 4
Ġlen ght
Ġbomb s
Ġexist ential
lege nd
Ġtry pophobia
ĠProf essional
pota mus
Ġcob webs
Ġblindfold ed
Ġinvi ting
C lo
m unk
Ġo sc
al ak
Ġe f
ig ne
Ġpo ke
Ġj ello
Ġro ot
Ġbo iling
Ġcha p
Ġho fer
ff ee
ĠW ins
ĠW ind
Ġhead gear
Ġstar craft
Ġloo p
if orm
do re
med usa
ĠMar co
19 37
Ġtravel ers
gas us
Ġspeed painting
Ġmal achite
Ġweed s
Ġsculpt ural
ĠWal ker
Ġeggle ston
Ġcollaps ing
Ġfus chia
ĠSyl vain
Ġpavi lion
A bstract
N o
z ona
Ġf id
ic ation
ul ting
Ġk up
et ty
Ġn igh
Ġil legal
Ġen clo
Ġch eck
Ġlong sword
photo real
Ġge iger
Ġcloud scape
Ġtom alak
Ġwal ly
Ġpost modern
Ġter minal
Ġsnow storm
brid ge
Ġorgan isms
Ġhad es
aching ly
Ġimpo ssibly
tif ying
ĠAt lantean
Ġdocum ent
Ġsubur bs
Ġmicrosco py
ĠTer rence
bour ne
ĠDea kins
Ġlud wig
Ġnim bus
E T
Ġd rown
Ġp rono
Ġf ile
Ġand ree
Ġre ed
Ġv ore
la ke
ki o
Ġro bb
Ġro cka
Ġgre co
de tails
Ġle ave
Ġsp acious
Ġlo la
Ġbe nder
ĠS noop
ĠR olf
Ġcha t
ĠH siao
Ġste fano
Ġbu nd
Ġem inem
con i
Ġx ision
Ġden tist
Ġwea k
cre ate
under ground
Ġbub bly
gen er
Ġfarm house
Ġbou cher
Ġprim ary
hal la
Pro f
Ġrains torm
Ġgau ze
lod ion
Ġbifur cated
Ġinflate ble
A mer
c ulus
z hen
â Ŀ
en ormous
en cio
Ġde jah
us ch
Ġn iz
Ġan cho
se mi
ve ment
si x
ĠS on
ĠS uit
Ġz h
ron ald
ĠF enton
ĠF unko
Ġher mit
Ġko bayashi
omet ti
zz ling
Ġje ep
ev ed
Ġtro phy
night mare
Ġnoir s
hor n
Ġstal king
Ġmyth os
Ġeyebrow less
Ġatti tude
Ġvess el
Ġhus band
Ġmik ko
Ġjourn alism
lux ury
Ġwarf orged
ĠSai lor
whe el
ĠMali ck
Ġfl cl
wra pped
b ia
i ent
m enta
Ġb its
to ad
Ġthe ms
Ġv om
Ġv ulture
et ter
Ġt rough
ig od
Ġn ud
Ġto yota
ĠM os
Ġas encio
ĠS han
Ġbo ul
Ġta dao
Ġis h
ĠD est
Ġne op
ĠT wo
Ġsu zuki
Ġvi v
ĠF ine
Ġout fits
art ney
che ly
Ġcra bs
light ly
Ġbi hu
Ġthat cher
bb ble
Ġdemon ess
Ġmor imoto
ab el
ĠDe ep
ĠDe vil
Ġcris is
Ġmicro soft
ni bal
Ġdev ious
sco pe
Ġmural s
Ġmain frame
Ġscroll ing
Ġacade my
Ġmartine z
ĠPal adin
Ġcorrup tion
Ġfav orite
gund am
Ġmetamorpho sis
sold ier
âĸĪ âĸĪ
Ġemplo ye
D r
P e
k elsen
r Ã
Ġs ri
Ġp ing
en vironment
ea ton
Ġst rength
Ġr ushing
Ġro tated
ad vanced
Ġca pt
Ġcyber core
Ġhor ley
ĠK irby
Ġsm eared
Ġdis playing
Ġpe ering
ier i
we el
we pt
we stern
ba se
Ġgr ill
Ġnor ris
are lli
Ġger ardo
lin er
Ġroy ally
zu li
ĠBro ad
Ġhiro yuki
Ġdecay ed
ĠSa tan
rup ed
ĠWal ton
Ġhon or
197 9
Ġalpha bet
ĠAnth ony
Ġcyl ind
gala xy
E C
G andalf
G ordon
b ino
w ed
x ton
x els
Ġb d
Ġf iles
Ġv anta
Ġconcept s
po trait
Ġca verns
Ġsy nd
Ġwater colored
Ġher mes
gg dra
Ġse lena
Ġfran ke
ug ar
arth y
Ġri b
bre cht
Ġhell fire
Ġke chun
uff ed
Ġpit bull
ĠHiro shi
Ġblind ers
Ġwrink ly
Ġyan jun
Ġpenet rating
advent urer
Ġdren ched
Ġsmel ting
F T
k arl
la g
la ted
at tention
Ġgre nade
Ġun holy
Ġte hn
ĠC ore
Ġgra vel
Ġme lies
Ġvolu mes
and i
min a
ĠF ashion
ĠK i
Ġac tive
Ġdy nam
Ġad op
no uveau
ĠRo yo
Ġpre fec
ĠY an
Ġcast s
Ġimp ecca
Ġfox es
Ġ20 20
Ġcho e
Ġfairy land
Ġfle eing
Ġleon ard
Ġdre ads
Ġcliff side
Ġsoph ia
ĠTa ka
Ġrod ger
ĠChi ef
Ġplu gs
Ġâ Ľ
Ġbor ja
Pa ul
ðŁ¦ Ĭ
Ġconstruc tivism
Ġcran ston
Ġruth kowski
Ġwond ers
ĠEi lish
Ġburri to
e mer
k ka
Ġs ard
Ġp ha
Ġg l
Ġst oner
ber netic
ĠS anta
sh ige
ĠD ar
ĠH itler
Ġho o
ĠT r
ĠW ick
Ġfor za
ĠK az
ami en
Ġje wer
ies el
win nie
Ġcla ire
Ġneck laces
war m
for ms
Ġbad ge
ĠGe isha
oto ut
Ġfli rty
clay mation
ðĿ ĸ
ĠFer dinand
Ġnumber s
Ġdistor sion
Ġtrium ph
Ġanni bale
Ġques tion
Ġcrusta cean
Ġtemper ature
adel phia
Ġprefec ture
- -
p inski
s tory
Å į
Ġd orman
Ġp hot
Ġo din
li ver
Ġre ce
ho ts
Ġli sting
de w
de on
ĠA S
ĠS pa
Ġclo set
ĠG oku
Ġis e
ĠC ran
ĠC ass
Ġne uro
tor mo
Ġbr ie
Ġdo tto
Ġshi buya
Ġmus c
Ġcolour ing
Ġhi ra
Ġbre ton
Ġna omi
Ġliquid s
Ġbul lets
Ġcer ulean
ĠMag ical
aya ma
ĠAt tack
Ġku bo
Med ium
Ġindepend ence
Ġdit ko
Ġdiabo lical
Ġconvers ation
Ġprono unced
Ġthems elves
Ġjewer ly
c r
nd ell
ro let
Ġthe o
Ġli ep
Ġk os
Ġpo lo
ur ban
ir s
om ura
Ġcon ver
Ġro pes
Ġro yale
Ġle aked
Ġman uel
Ġta ma
ĠB ryan
ĠC le
ĠT s
oman cer
Ġsu e
ix en
Ġba ker
Ġba bel
the m
Ġup coming
Ġfor mer
Ġlong ing
pp e
Ġover coat
Ġcra ters
be nding
ĠRo ad
Ġsea punk
Ġpsy ched
Ġnew man
Ġbur disio
Ġstra nding
Ġedward ian
inn is
Ġspe wing
Ġfru strated
Ġvol demort
Ġstal lone
Ġep cot
illu strated
Ġmong olian
Ġaman ita
Ġhimal ayan
Ġmillenn ium
Ġjapon isme
K im
T im
b ang
c ts
c atch
e va
f ica
i y
o te
p et
w omen
Ġ iz
re tt
ar is
ro coco
lo qu
to pic
Ġre ol
ul pture
od i
Ġmo bius
Ġlo sing
Ġbe gging
Ġback wards
Ġman ic
ĠC ory
Ġso li
ĠJ C
ĠK ha
Ġad ver
Ġinter connected
Ġmc con
Ġbal rog
ĠZ ero
cha in
Ġscen ario
Ġus es
Ġsec rets
ĠNo rth
car icature
ĠHe nderson
Ġwol fe
Ġgran ular
Ġfold ed
ĠSimpson s
ĠMad house
ĠArc imboldo
ĠCam era
Ġweight s
Ġsurv ival
Ġoran ges
ĠPic ture
ij ing
ĠTem ple
ĠJac ques
Ġtehn icolor
Ġliep ke
H atsune
b illie
f lip
r ute
t una
in ds
Ġa iman
Ġd ue
Ġo ka
Ġw acky
Ġg ol
Ġde gas
lo y
Ġli d
Ġk fc
Ġpa tent
Ġcon d
Ġcon duc
po pe
Ġen ga
Ġra cks
ĠT ech
ĠP ower
Ġno torious
ĠF uture
pi res
bra ham
clo ck
Ġop posite
mp son
ham ster
bre ak
Ġja ime
Ġsec re
rig erator
Ġglitch ing
Ġguitar s
ira ss
cell us
Ġwan ted
Ġdor ian
Ġtell er
Ġbless ing
Ġbabylon ian
Ġnecro tic
Ġzu zanna
Ġgnar led
Ġmarion ette
Ġchrom ed
Ġgris aille
H alf
L ive
c ube
t um
Ġ ion
th ead
th rough
Ġh ull
Ġg t
el vis
ss i
ĠA ber
Ġla zuli
up ho
ap arelli
Ġele na
Ġmaster pieces
Ġblue berries
and hi
Ġste ichen
ines is
ĠV acher
ĠRo zalski
Ġko to
clo thed
Ġhi ppy
are l
Ġfro do
Ġpal mer
ĠLe ia
sho ulder
Ġcel lo
ib ranch
ĠMc queen
Ġpres er
ju lian
ĠMat t
Ġbel ledin
ĠTho mpson
Ġroll s
Ġvoid punk
Ġvoid star
Ġaw ful
ĠGer man
Ġstair way
Ġorc ish
pre hen
Ġbol les
Ġcu irass
ĠIt ten
Ġsaf ety
Ġchill wave
00000000 00000000
ĠNel sson
Ġrocka billy
Ġdotto ri
D ickenson
b ula
f re
g own
j ura
s olar
Ġa very
ti ty
nd ra
Ġo shi
en tic
to dd
ea ted
Ġn u
Ġro upa
de er
Ġha g
ke vin
Ġlight ly
ud et
Ġlo ves
Ġman or
ĠB on
ĠT ito
ĠJ ong
ĠP oded
ĠL ion
ok ka
Ġdress ing
Ġcra fted
ĠV iew
Ġda brow
rop y
ĠO ku
rate s
ass in
sho ot
Ġsal ma
lita rian
ĠNe ndoroid
chi bi
Ġvision s
rid a
Ġvege table
Ġlaugh s
Ġron an
Ġroof s
Ġget ty
Ġbec omes
Ġschi aparelli
Ġrod riguez
arch y
gn ar
Ġny lon
Ġshr ub
Ġpod cast
Ġecsta sy
St unning
mil ky
ĠSav ille
ĠIl lu
plastic ine
Ġlali que
Ġise kai
Ġdabrow a
A riana
P H
Y oda
h ill
n ar
o ki
w id
li ons
Ġg ond
Ġre view
Ġk ro
el mo
eau x
ri en
Ġas cher
ĠS la
sh an
ĠT ro
ĠL ie
Ġu ran
Ġmar keting
Ġru nd
Ġfur by
!!! .
Ġillumin ates
Ġtw ice
Ġpost processed
Ġplan s
Ġset s
ider io
Ġga ug
ĠHo ly
uit en
ĠMan hattan
ĠMe gan
Ġhallway s
Ġpack age
Ġdig iti
ĠMart ini
Ġcommun ity
Ġscor ched
Ġprote st
Ġquad ruped
Ġtarta kovsky
esta blishing
gher ita
Ġtatsu yuki
ĠPoded worna
W hite
b lowing
à ¤
Ġm s
Ġw erner
Ġg ul
Ġg har
Ġan vil
se e
Ġsharp en
ear l
Ġsta bility
ĠS art
Ġcha ra
Ġqu ick
Ġfull er
Ġno e
Ġfe els
Ġout lined
Ġsm ears
Ġsa ti
Ġblo bs
Ġgu apo
Ġtom ino
Ġwa ke
Ġrob ber
Ġlightning s
Ġcg station
bu querque
Ġcris tiano
Ġbub bling
Ġenti ties
Ġdoom ed
Ġletter ing
Ġabyss al
Ġkats ushika
Ġinno vative
Ġrelief ed
ĠCor ben
Ġlum ion
Ġseg mented
Ġcoder re
Ġaless io
Ġtam bur
Ġmoder ne
Ġyee zy
2 7
J im
O V
e um
j as
u ality
Ġp acing
Ġf f
Ġm ines
Ġde mi
ma tt
Ġpo ps
Ġlo pez
ĠM et
Ġal le
Ġla tte
Ġla be
Ġla und
ĠS ing
ĠB ond
Ġis lamic
ĠH ood
Ġho gan
ĠP urple
ĠL an
Ġor che
my th
iz e
ĠN Y
Ġbra ce
Ġtw igs
Ġrob lox
sho re
Ġrainbow shift
phe meral
chi o
ret z
ugi aro
Ġsean ce
Ġsas quatch
mel ting
ĠWoj tek
ĠYus uke
ggdra sil
Ġtambur ini
T o
d ick
k ids
Ġd g
Ġal t
ka ze
ĠP ale
Ġvi to
Ġdo ub
min ion
Ġdis app
Ġtran ce
Ġcle mens
em manuel
Ġhy pe
Ġsketch book
ĠPa olo
Ġfre as
ĠRe al
af ro
Ġsan tos
Ġze aland
sha ven
Ġhal ter
Ġorig in
ĠGu ard
Ġtsu yoshi
eve led
Ġyuki o
Ġsuc king
Ġcrysta lized
ogen ic
end less
Ġjose f
Ġpenta gram
phi lic
Ġsnap shot
Ġsunba thing
Ġappari tion
L uc
g t
g orn
j ordan
ti mes
Ġd ura
th om
Ġw ent
Ġin stant
Ġde tro
Ġth rown
Ġre na
Ġv ixen
Ġt ud
ha zard
ch ner
uc tion
Ġl ana
Ġar ma
ĠB erser
Ġte tris
ĠD un
ĠC rumb
Ġho ard
Ġfil am
ĠE iffel
ga rth
ĠI no
Ġsuper villain
if a
ĠAl buquerque
Ġcart er
Ġflu o
Ġpar lor
Ġfro sted
ĠðŁ ĩ
ĠSte wart
Ġrap ids
Ġlin dsay
Ã© e
ĠDev ille
form al
vers al
ĠCar ne
ĠHea vy
ĠWall paper
Ġintegra te
Ġpatri otic
ĠMes si
Ġsynap ses
orpho us
prec ise
Ġglimmer ing
Ġbeje weled
inte gra
Ġmot tled
f in
t ran
v ette
Ġg ina
te i
es on
Ġre el
Ġre agan
Ġhigh light
ir is
ter rifying
Ġsty ling
ĠB i
Ġis tan
Ġqu arry
ks hire
Ġdo s
ĠK ardashian
Ġher bs
ord i
ĠN aruto
Ġvan ia
Ġhard man
bl an
Ġstone house
Ġsplash screen
wo ven
Ġer nest
ĠTh ing
glo omy
ĠWin ter
ĠHea ven
John ny
ĠJa ma
Ġtanko bon
ĠVe gas
Ġnumer ous
Ġsali va
Ġvisualis ation
Ġistan bul
f lash
g rumpy
i ya
n ap
Ġa arons
Ġo i
Ġo za
en burg
Ġre birth
Ġco g
Ġj orge
Ġj ars
ki ra
de e
ve te
Ġlo renzo
Ġun believably
ĠS pec
pic asso
ĠP ig
Ġdo ge
Ġfe ud
ys tic
stic ker
Ġpe eling
Ġexp ress
Ġabo ard
Ġmac book
Ġcomp elling
Ġhumanoid s
cho colate
Ġgun ner
Ġarch way
pora tion
Ġpier ce
Ġblock y
Ġhed ge
ĠHa ir
Ġtrail cam
ĠSe ga
Al bert
Ġwides hot
Ġconn ery
Ġtranscend ental
uber ant
illu a
ĠTar ot
Ġdefe nding
Ġphenomen a
glit ch
butter fly
Ġraind rops
Ġnos feratu
b ritish
k ong
w illem
in ian
Ġs lash
Ġw art
lo mo
ig achad
ha unted
Ġma ws
ver tical
Ġy ing
ĠM G
Ġla ter
Ġ3 60
ĠR azu
ĠD ND
ĠH ero
Ġqu irky
Ġoil painting
Ġcyber tron
Ġti res
Ġmar gherita
ub rey
Ġshi pping
Ġexp laining
Ġlar sson
Ġel vish
ĠRo bo
ĠRo gan
Ġbut erin
ĠAl fred
Ġind onesian
Ġna il
Ġrun ic
Ġwitch craft
Ġmer lo
ink lage
Ġmand el
Ġpolice man
Ġdav ison
Ġmat tingly
Ġtin ker
ĠAt kinson
umble dore
mag uchi
astronaut s
Ġniko la
Ġcara van
Ġscri bble
Ġmetaphor s
Ġchec king
ĠIno ue
, !!
M C
f ree
Ñ ĥ
Ġ Ñģ
Ġa mount
nd igo
Ġw ilde
Ġg ertrude
Ġde launay
Ġre aches
Ġpa iting
el ven
am arine
Ġr um
ter a
sy stem
Ġun imag
Ġas uka
sh es
ĠR et
ĠB eck
Ġwin king
ia tors
Ġba tik
Ġblue ish
Ġmon ia
Ġtra ins
Ġblo tter
Ġfan s
Ġmc ca
ĠJo lie
Ġfrac tured
Ġhel ping
Ġflu ent
Ġhar old
ĠAn ubis
ĠMo re
Ġfro sty
(( (
Ġx p
so uls
Ġtur kish
Ġgar ments
usion s
Ġau tistic
Ġga insborough
lan tic
Ġcinemato gra
Ġplastic ine
two ord
Ġsav a
Ġfilter ed
uper t
Ġgerman y
ĠPer sian
iff er
ĠNic holson
fu mato
crow ded
Ġbened ick
Ġark ham
Ġiss ue
Ġthist le
peace ful
Ġtrous ers
A MA
D a
R a
o logy
Ġs lit
Ġb izzare
ic ate
en ces
Ġin ca
st re
ac curate
Ġt ents
Ġst un
Ġr ino
Ġto ucan
Ġy un
tra p
Ġman go
len ha
Ġmod ification
ĠN et
Ġpe losi
Ġtw ink
ug ly
Ġcur tis
Ġcol lodion
Ġmist ress
ita rist
ging er
ĠBo ss
Ġcinemato gr
eat les
ĠMc G
Ġwoods tock
ira ffe
200 1
Ġblind ing
Ġcolum n
Ġyor kshire
Ġæ ľ
Ġzo uravliov
Ġridd ick
ĠAth ena
peng uin
Ġplugs uit
Ġrund own
A D
c rying
f ty
g ado
p tions
x iii
Ġd um
es a
Ġre ason
Ġv ed
ali zed
Ġn pc
at mospheric
ear ly
Ġlo ki
ĠM az
ĠS how
Ġ1 3
ĠB all
ĠJ ustice
ks hi
ĠW il
ĠF il
Ġac ting
fe st
ligh ted
ste ad
ĠV ir
Ġeye glasses
Ġmc bride
ĠMa ge
Ġrob inson
ĠAn imal
pocalyp se
ash enko
Ġblan c
Ġadvent urous
Ġkis hi
ĠFrank lin
ĠSo lid
Ġhit man
Ġrepres enta
Ġsnea king
Ġsmart phones
Ġsong writer
ĠChrist ina
metal lic
Ġmorris on
ĠSar railh
ĠHol lywood
Ġdor land
Ġhelm ut
Ġcoca ine
Ġcontempla tive
multi ple
Ġloin cloth
Ġbooksh elves
F o
M ic
P utin
g ollum
n ies
Ġa mateur
Ġc ushi
Ġd v
Ġart deco
Ġe phemeral
Ġv ec
ed ward
Ġn ast
ne ws
Ġro ver
Ġmo ck
io la
ĠG ears
pa nda
tre es
Ġti tans
Ġsw ar
ĠO tto
Ġinter woven
Ġko car
!!!!!!!! !!,
do c
ĠAl phon
Ġimp lant
Ġbre aks
Ġsand castle
pro paganda
mes h
edi tion
Ġcr um
Ġlan scape
ĠCon rad
his att
Ġsemi realism
Ġrif les
Ġdig italart
Ġphiloso ph
Ġrush more
ĠSu arez
ĠSat urn
Ġniger ia
Ġsour ces
toplas ma
Ġturb ines
Ġsab rina
apart e
vete tsuya
S R
T hanos
U S
i lo
k ut
u racy
an ya
Ġh arkonnen
st ner
un enko
Ġma sonic
ph ex
ss um
Ġphoto bash
Ġcon do
ĠA ND
up le
ĠS or
ĠG io
Ġdark wave
ĠB il
ĠH alloween
av ier
Ġaward ed
Ġhead quarters
Ġover look
Ġgo al
Ġhis oka
mon t
Ġse y
Ġpe lat
Ġdream core
do xy
ather ine
Ġsand s
Ġgar lic
Ġacc uracy
Ġgood bye
Ġspec ulative
Ġlate st
ĠSta tue
Ġgor gon
Ġortho doxy
Ġdish es
Ġmoth s
ĠKen ner
Ġrail road
Ste ampunk
Ġimmer sive
cine lla
Ġaver in
Ġdod ge
Ġtic k
Ġgnar ly
Ġconsum ing
Ġgelat inous
Ġsweats hirt
Ġmaws hot
M ona
P oster
Ġp is
Ġp ines
th ron
Ġh ana
lo use
is law
ol len
qu antum
Ġun cut
Ġho vers
Ġso f
Ġyo ro
Ġno el
na ils
Ġpla typus
use y
Ġfran ch
Ġpe ggy
ĠV aro
sa int
Ġcap itol
Ġspi re
gar field
af ael
Ġer in
nes day
Ġfiref ighter
Ġfound ation
ĠDa foe
Ġnekro xiii
Ġbor ing
Ġran gers
ĠArc hite
Ġwarp aint
ĠNi ke
Ġsick ly
Ġrhino ceros
Ġterrac es
Ġsilic one
Ġgis bert
6 3
D o
G irl
H er
c ted
g ressive
Ġa es
an ron
ar ina
gh i
Ġde gra
al to
Ġan twoord
ie le
Ġsc p
Ġen o
Ġl lorens
Ġat las
ĠS her
ĠB art
Ġte e
ĠD arius
ĠC ana
ĠJ upiter
Ġmag ia
pa olo
pa inter
Ġbr ig
Ġhead less
Ġdi sting
Ġmi y
he al
Ġhu rt
ĠRo berts
Ġshadow ed
bow l
sp ective
Ġgar cia
mi ral
Ġshirt s
Ġsum i
Ġcross es
Ġcut s
lid es
Ġcup cake
Ġconta ins
Ġpsycho tic
Ġap pa
Ġfarm ers
Ġmasterful ly
Ġdup re
Ġrele ase
orienta list
jung le
Ġcasc ading
ĠHass elblad
Ġdetro it
Ġcinematogr Ã¡
hisatt va
anron pa
B ay
M ucha
R ich
V FX
e lia
g ian
Ġ ãģ
re ady
ra nda
Ġw tf
te er
lo ux
ig ur
ur realism
Ġj ed
im ent
mo gen
Ġmo le
Ġar s
rac king
Ġ1 1
Ġele gent
ĠC ow
ĠH ors
Ġsu i
ĠW ea
ris tic
ene y
Ġbar ney
Ġcar tier
Ġad v
go ogle
ĠV iktor
Ġcle ver
va ra
Ġmid st
yo ur
ĠAl brecht
Ġjacket s
Ġpaul d
Ġpig let
Ġmega lophobia
ĠEm pire
Ġdun wall
ĠSe infeld
Ġgeorg ic
Ġten sion
Ġbroad cast
pin up
Ġsas oura
Ġther ap
Ġmash up
Ġhos tile
Ġniger ian
ĠLar ge
ĠCav ill
precise ly
8 7
C thulhu
H a
K arl
L ivia
R I
d j
d ar
v hs
in ti
th oth
Ġli qu
Ġpo res
as o
Ġcha sm
Ġca u
Ġne x
Ġpro via
Ġsw am
ath ing
Ġdef in
less ness
og na
Ġbla zer
ĠCh es
ĠMar ble
Ġmech s
ĠMcC all
200 4
Ġhum id
Ġkuro da
Ġsettle ment
Ġhari bo
b ecca
e per
g rowth
Ġf lint
Ġm anta
li se
Ġart ger
ma koto
ed ios
Ġco bain
Ġma h
ph iroth
ve lous
po sure
ke lo
Ġra tional
Ġlo lli
up reme
ĠS table
ĠS word
ĠF us
Ġover flowing
Ġmon stro
vi li
ato s
und red
!!!!!!!! !!!
Ġanth ropomorphized
Ġbow ser
Ġhar ing
Ġx iv
ab s
Ġgar is
box ing
ĠSte phan
oo h
hor rifying
ĠStar k
Ġaqu amarine
Ġconnec tion
luc ci
Ġathle te
ram el
hl berg
Ġready made
Ġvign etting
ĠCre ative
Ġsher iff
ĠBen jamin
ĠIns pired
Ġfri th
spa ghetti
Ġdiffrac tion
Ġkup ka
Ġimpecca ble
L U
W ar
b ari
d al
m ari
u ko
Ð ²
â ļ
Ġs usta
er ley
Ġp elt
ac i
ch uck
mo ody
Ġgre eting
Ġha waii
ve lo
Ġsc ha
io ux
ĠA mazing
Ġla ut
Ġex uberant
ĠH ome
pa z
Ġfe ifei
rin ity
Ġmon c
Ġvan essa
Ġcry ogenic
Ġ19 0
Ġbur st
uer gen
ĠMo unt
Ġstor ming
Ġinc rusted
sto ol
Ġoli vier
Ġath ens
Ġek tar
ela rt
Ġplat former
Ġkun stler
ĠBus cemi
Ġdither ed
ĠEng land
Ġaer ith
Ġprojec tions
ĠLum en
Ġrez unenko
Ġdign ified
Prin cess
Ġoza bu
H ar
c era
w on
Ġa za
er ato
ed ia
Ġj peg
qu ette
Ġsp itting
Ġun til
ĠD u
red head
ĠJ ane
Ġdes iderio
Ġvi vian
ep s
mer maid
ĠI mogen
Ġtra y
Ġpi ping
Ġtur key
uck ers
Ġwat ched
girl s
Ġgrand pa
ĠPo se
Ġsi amese
rid ay
Art germ
Ġwo ody
ĠCa sey
ĠSo uth
roll er
Ġsti l
rang ea
Ġiw akura
ĠFern anda
Ba rack
Ġhierog lyphs
ĠBay ard
ĠCent ral
Ġdadd ario
Ġmign ogna
Ġchande lier
Ġcarniv orous
I M
Ġs fumato
Ġdeta lied
ma y
ea m
am ong
ss ed
po lice
ĠA go
Ġ1 60
ĠB B
ĠD mit
Ġyo unger
pic ious
ĠP itt
ish es
Ġmed ian
Ġpl aces
Ġse iki
Ġfa ra
iss ary
Ġfin ds
Ġgi bb
pec ted
Ġwat kiss
Ġgreat sword
Ġpath s
Ġphotosho pped
vis ual
Ġbord ered
Ġauto desk
Ġlaw ren
Ġfit ted
Ġspher oid
Ġaber crombie
Ġkand inski
Ġdam ned
Ġviet namese
Ġbis son
inty re
Ġker ala
Ġshred ded
ĠMex ican
Ġtrou ble
Ġges ell
ĠAlphon so
Ġpauld rons
E G
o by
t v
Ġc ulti
le ns
an imation
us ted
la p
Ġt ene
ir m
mo rable
Ġle to
ĠM AR
ĠS nake
ĠG ross
Ġte tra
ĠP redator
Ġvi vi
Ġhead phone
Ġcan cer
gg ly
Ġflo rent
Ġtra volta
ba h
ug et
bb ary
Ġsn es
ĠSh ining
Ġmen zelincev
Ġbod ied
Ġleg nica
Ġarri ving
Ġcoo lidge
Ġwhis kers
Ġkits ch
ĠHol land
Ġdod o
Ġtarant ula
quart er
Ġdoro thea
Ġphilli ps
Ġghar li
ĠcinematogrÃ¡ fica
p regnant
s ensual
Ġs ucked
Ġg are
ro ca
is i
ed ict
Ġcon v
Ġlo rica
Ġas tou
ap unk
ĠB le
ĠD iane
ĠL ush
bi ki
ĠK ee
ĠK eathley
Ġac ti
Ġad nan
Ġexp edition
Ġbra vo
Ġtw enty
Ġsteam powered
Ġcur ling
Ġdri bbble
urt y
hol m
Ġsi berian
nic olor
Ġlan nister
Ġengra vings
Ġcoloss eum
uts umi
Ġbell mer
Ġ10 8
Ġmck ernan
Ġchev y
ico ot
Ġconto ured
Ġsmash ed
Ġpopp ies
ĠBern ie
Ġbrook lyn
Ġdill on
Ang el
ĠPier re
Ġinfant ry
Ġsemen ov
ðŁĳ©ðŁı ¾
Ġcylind rical
Ġgharli era
Ġastou nding
B rush
x ta
Ġc yper
Ġart ey
Ġre all
Ġe bay
is tant
Ġpa g
et us
Ġt ne
el ance
ur ns
Ġan ish
ch ubby
ne ill
bo ros
rac ci
ĠG lenn
ĠG abriel
row ing
Ġmar itte
ĠF antastic
Ġher d
Ġfla pper
Ġfla vo
ĠV ampire
Ġstre tched
Ġbi om
Ġcontra ption
hyper real
ru gged
Ġbea ts
Ġbro oke
cha delic
Ġpar liament
Ġrob by
Ġsand worm
log ies
ĠPa inted
ĠBo bby
Ġdiam eter
Ġtea pot
Ġken ku
Ġshin ning
Ġclock punk
ben edict
mag netic
Ġdish eveled
Ġpick les
Ġjourn alist
some thing
ĠGeorg ia
Ġjus tify
Ġtransluc id
ðŁĵ ·
b ut
d ig
f k
v aro
z lo
ã Ģ
Ġf loppy
Ġh sm
te mporary
Ġe po
Ġj ad
Ġan tagonist
im po
Ġen virom
Ġfantasy core
ĠM ads
Ġal ves
Ġun ex
ĠG ames
ĠB unny
man e
Ġ2 2
Ġjo ven
ĠL ink
Ġshad y
ĠK ur
Ġfield er
ĠI mage
go uache
wa be
ven om
Ġhu hd
beautiful ly
Ġref rigerator
Ġgu itarist
Ġwind blown
ĠRo berto
ĠJo jo
Ġchar lize
ten borough
Ġtan ning
Ġhand c
Ġtri bes
ab an
Ġmer cedes
bu gs
Ġmyster ies
can son
Ġlee loo
Ġgla ze
ĠBro z
Ġple ase
ĠKon stantin
Ġchee ky
Ġstare mber
Ġbin ks
sad ie
Ġcryp tic
rock et
Ġloss less
Ġglac ial
Ġcustom ers
Ġanto inette
ĠEver deen
ĠMcK ean
Ġcn n
Ġsciss or
Ġinsta x
jelly fish
Ġdeva sta
prehen sible
kelo deon
E ld
K EA
P ic
V EL
c ile
c ki
h ack
k inesis
m antra
Ġf art
Ġm ace
Ġg eddes
Ġart nouveau
to rio
ma terial
Ġv illan
Ġan aly
Ġgre ig
Ġy aw
Ġsp awn
ĠM echa
ted dy
ĠR ev
ĠC ir
ĠH epburn
Ġso ts
Ġup set
ĠI AMA
che mist
reg ular
Ġsuper sharp
sa ma
su its
Ġcor ne
Ġcur ry
di amond
Ġ19 4
ĠCh al
ĠCh uck
Ġset up
Ġhill ary
tel la
19 60
ĠAr bus
ĠPo ots
Ġmich elle
Ġdem igod
Ġken ny
Ġmal czewski
Ġconta ined
ĠGar field
Ġdama ge
Ġnever ending
Ġterra gen
tattoo ed
ĠPrin ce
ĠNight mare
Ġhippo potamus
Ġque er
Ġcad illac
Ġmara thon
Ġcher ries
ĠAbra ms
Ġemboss ed
Ġrino tuna
Ġdisting uished
ĠIAMA G
S hop
a gers
c ence
u u
y y
Ġa etherpunk
er ome
Ġb g
Ġd ir
an ti
li ving
Ġde light
Ġe el
Ġk il
ly phic
Ġco c
ig old
Ġro mer
pt une
ant z
um per
Ġy vonne
Ġca f
ff ord
Ġfea st
Ġad olph
ord ial
Ġtran sition
ny wise
Ġda zzling
tro d
Ġpi roca
Ġimp ro
ex i
Ġph anta
ĠEd vard
Ġsat chely
Ġportra ying
ono ver
20 19
Ġplate au
Ġbon ura
ĠVicto ria
Ġea sy
Ġama zed
Ġbou tique
ĠSha dow
Ġadd ic
Ġtae hyung
Ġhide ous
Ġrele ased
ĠProf ile
Ġprojec ting
Ġastronom y
Ġtwirl ing
Ġï¿ ¼
C andid
K a
x ter
¸ ,
Ġa ja
er ik
on el
Ġb c
Ġd era
Ġm ild
Ġe cho
ma nda
Ġco co
ge nder
mo ld
ĠA b
ĠA ly
Ġle bron
Ġl gbt
Ġra pping
Ġbe yon
ĠM Åĵbius
sh y
Ġca ramel
ress on
Ġz exi
Ġsur ve
Ġti gers
ini que
Ġed o
Ġcar ing
ĠI gnacio
Ġda eni
Ġhe lix
Ġsuit case
Ġbat tista
Ġpur sed
ĠJo sip
ĠMo ody
Ġdim it
Ġboy friend
mi ere
Ġinc re
Ġscho onover
lan ted
Ġarch ways
Ġfal ero
path ic
hero ic
Ġfronti er
Ġknow s
Ġnan cy
flo or
ĠMcQ ueen
ĠAud rey
Ġfami liar
Ġsud den
ĠFrie nds
Ġgiac ometti
Ġreall usion
R yan
S ym
h alter
v ray
Ġs ary
Ġh ing
Ġh ime
Ġin ch
Ġk ad
ir us
at tack
ch ter
ĠA K
Ġho garth
Ġpro v
Ġqu okka
Ġno str
av i
Ġu wu
ĠF low
Ġher mann
tan ical
Ġcar us
photo shoot
Ġsw itzerland
iz io
Ġsuper girl
ind ing
Ġunder growth
ĠAl bum
Ġgi fts
ĠZ dizslaw
ĠMa urice
ĠCh ild
mi litary
ĠEn ter
play er
Ġteen agers
Ġate lier
ĠPo st
Ġpres ent
Ġhow ls
kov ic
ĠBro s
Ġvol kswagen
car ia
Ġcoup e
Ġsla pping
Ġdar win
ĠCan vas
Ġsolo mon
ĠPar rish
Ġsund own
wel lian
Ro bot
peti tive
Ġbb c
smo ke
Ġtimo thee
ĠSai yan
Ġnugg et
ĠAug uste
Ġceno bite
Ġcinematogra fic
ĠHors ley
Ġtne h
B ar
L ED
M at
O ver
T er
d warf
Ġd inklage
li ssa
ac id
un icorn
ce lestial
ir vana
Ġro asted
Ġar d
Ġta iled
ĠG IG
Ġcha pelle
Ġne al
ĠK han
Ġcan als
Ġatmosph er
Ġshi h
Ġab d
ven ant
Ġda zzle
Ġmus lim
ðŁ Ĺ
jo seph
Ġshort hair
aw esome
Ġka ss
water fall
sp ring
uro boros
zy l
Ġsum mit
Ġcross bow
Ġke i
Ġpet ers
tech nical
Ġciv i
Ġag ile
ĠNa tasha
Ġarchi ves
end aya
wind ows
Ġchart s
airbrush ed
Ġsymbio te
Ġeno ugh
B lue
c s
d ol
g ile
h na
r ime
en er
tic ism
Ġre la
Ġe vgeny
Ġhigh land
Ġle bowski
Ġla shes
Ġyo utuber
Ġbody shot
ĠE ka
Ġru les
Ġgod des
Ġdis ci
ĠI N
ĠV el
Ġcontra sted
yo hara
Ġko pinski
em s
Ġtrans pa
cra b
Ġchi li
Ġrad cliffe
Ġsto rage
Ġval erian
Ġger stner
Ġcent ralized
Ġcap com
Ġ] !,
Ġcross ha
ator s
Ġdestro ys
Ġsi ting
Ġpris ms
Ġlaugh ter
Ġpea ky
Ġ* ,
Ġâ Ŀ
Ġflick ering
Ġtouch es
Ġartic le
Ġdeli vering
mike j
9999 9999
Ġishi da
ĠSec ret
ĠTrans formers
Ġcheer leader
Ġani plex
ĠIllu strated
Ġsteampowered mikej
3 4
O ff
c andy
e laborate
g ies
m bo
t uber
Ġ ãĤ
Ġb ran
Ġc ranes
en gra
ne ndoroid
ger alt
Ġsp lend
Ġlo li
Ġlo cked
ĠR GB
ĠC amp
Ġti te
Ġac anth
Ġcre eping
Ġsw inton
Ġgame boy
ĠO dyssey
ug al
ĠU fo
Ġyear book
med ia
Ġconte porary
Ġpower full
Ġpal udet
ass ophobia
Ġfre elance
mar ching
Ġgray ish
Ġcut scene
Ġcr unch
Ġsla ve
ĠNew ton
Ġgree bles
Ġfix ed
orig ami
Ġwinds or
ĠHel met
Ġloom s
ĠTH E
Amer ican
Ġnud ibranch
T okyo
V in
W illiam
g is
g iving
k us
s pi
Ġd urty
Ġf utur
Ġg ia
Ġin tric
ac ty
ig liani
Ġpo uget
Ġr iley
ss ociety
Ġha zard
Ġmo ma
Ġle na
Ġle ash
Ġsp rin
ber land
phon y
Ġho bo
bi blical
ue la
ĠI c
Ġflo of
Ġcra mped
Ġsuper car
ĠRo se
Ġim mortal
Ġser vers
Ġrim med
Ġob jective
Ġgam bling
Ġhow ling
Ġhunter s
ĠSo phie
sco pic
Ġcru iser
tien ne
Ġglitter y
hy zyl
press ed
ĠSa int
Ġå ¹
Ġcole man
umi ko
glo ssy
Ġing els
ĠFer rari
Ġbuzz cut
Ġbring ing
ĠII I
ĠEy es
St udio
Ġcudd ly
Ġwrath ful
Ġmanif estation
Ġvil len
Ġstere o
Ġadop table
Ġromer o
8 9
j ust
v ity
re i
an ian
Ġg utter
lo v
ho v
ur baut
ir sch
Ġan kh
Ġsh en
ure t
Ġmo tel
Ġen tei
Ġra ft
Ġch ronic
ere k
Ġba b
Ġba ggins
na ut
ĠE asley
Ġcar racci
Ġab and
bra l
Ġcam is
her ent
Ġpic toplasma
Ġbow ler
ĠMo untains
Ġkim i
ĠMar ine
mar vel
ono i
ĠNo ir
over head
dream like
Ġscra ggly
Ġlevi tation
Ġweb cam
Ġmiss iles
ĠAf remov
exp ressionism
arc ane
Ġpoison ous
Ġserp ents
Ġbug atti
Ġaly son
Ġdecal s
Ġevol ved
Ġhypermax imalistic
ĠBroad more
Ġvanta black
ĠMAR VEL
A M
B ill
I T
K at
u ang
re scent
ti go
le va
th ereal
Ġre union
Ġpo re
Ġj pg
Ġsh ed
Ġro din
ĠM useum
Ġface book
ĠB eatles
Ġno odle
ĠE very
av ocado
ĠF ieri
Ġsm ud
ak is
ill ance
Ġwe ndigo
ind ian
mm ed
ĠJo Jo
ĠMo rt
Ġhan uman
Ġcg ssociety
Ġhero ically
Ġship wreck
19 20
Ġhol man
Ġcontro ls
Ġbod hisattva
ĠChi ho
sun biki
ĠShi row
bio logical
Ġpump kins
pow erful
Ġmig uel
ĠPaint Shop
Ġkev lar
ĠSolo mon
holo graphic
Ġvapo ur
ĠCore l
b udd
b ria
d uke
g iraffe
Ġa ble
Ġa head
Ġb rac
Ġf urt
ar my
ul ly
la ughing
am ous
Ġcon es
Ġlo l
Ġun con
ad os
Ġfi sts
ĠG ucci
ĠC lean
Ġgra fitti
ko va
Ġu h
wa b
ĠN ature
ĠN ao
sa ki
ĠO M
em en
Ġbut ler
cra tes
zz o
ĠMo scow
Ġshape ly
Ġstri ps
Ġza len
Ġconf irm
ĠSp ratt
Ġflash y
ĠEm il
ĠCa brera
Ġmal colm
ĠGu illermo
Ġturn tables
ĠTim oth
fu ji
Ġcrop top
robo cop
ĠPe te
Ġjun pei
Ġvirgin ia
Ġfav or
Ġswe eping
Ġske u
Ba by
blur ry
mul tic
Ġbehold er
ĠRus sia
Ġkishi moto
f unko
r k
w il
x iang
in stagram
ra ged
an or
ar cher
ho se
ali er
ph ile
Ġha tha
ran os
ĠS ad
Ġman i
Ġne of
ĠH ind
ĠP ena
Ġz ee
Ġba uer
Ġcharacter design
Ġme h
Ġcompo site
Ġdis integra
ak amoto
Ġse wers
Ġem ulator
Ġel se
ba th
Ġpose idon
ĠO k
Ġinter active
Ġwal uigi
Ġmy ers
Ġanth rop
ĠJo el
Ġhand ed
hag us
Ġna ughty
Ġass amese
Ġsad istic
Ġban quet
bin ary
board s
Ġdol by
uit ton
lla ma
Ġpul cinella
Ġpu king
Ġaud i
ule tte
Ġ10 80
ĠHiro ya
Ġwhirl wind
ĠJu lia
Ġrol led
ĠGa ga
Ġfold ing
Ġbrains uckers
Ġdecol lete
gus on
Ġranking s
zoom ed
Ġchry s
ĠAnge les
Ġindust ry
Ġcelsha ding
Ġparach ute
myth ical
Rich ard
Ġdefin iton
mantra ut
Ġbeyon ce
Ġacanth us
Ġcamis ole
I s
h unter
Ġs el
Ġs ells
Ġc indy
Ġh un
ic les
ul field
Ġt ucked
Ġt upac
ch on
ch illa
um ed
ĠA ustin
Ġl una
Ġlo uvre
ĠM ina
Ġcom ed
ĠB ey
Ġsmooth ly
Ġjo vovich
ĠE lena
Ġac ry
son s
ĠI ng
Ġse para
dra wn
ath edral
Ġcur rent
cha t
Ġpan zer
Ġche wing
Ġgrim oire
Ġmer cy
watch er
Ġcow l
ash ing
ni fe
Ġhid es
Ġlab coat
Ġvo ice
har mony
Ġcorn wall
Ġyu xiang
Ġap ollo
Ġwol p
Ġplu gged
Ġact ual
usc ant
ĠAli ens
ĠHea de
Ġshel ter
Ġshel by
kra tos
Ġhyd roc
Ġstart s
fred dy
Ġequ ine
Ġtatoo ine
Ġconstella tions
ĠRain bow
legend ary
Ġvillan ueve
Ġhatha way
A t
H or
â ľ¨
Ħ ï¸ı
ti zed
le ne
Ġf lush
Ġin a
Ġk laus
Ġt f
ha med
Ġma ul
Ġma ori
ie v
Ġsh ino
om ic
Ġgre nier
po si
bo tt
ĠS now
ĠS weet
Ġis ayama
Ġcha deisson
ĠD iesel
ĠC R
ĠC el
ĠT ex
ĠP ooh
Ġno body
Ġme mento
Ġfil ls
lop ing
ĠE ff
Ġti ers
Ġwater ing
Ġmi ka
Ġflo ure
que st
Ġbi te
Ġir ridescent
Ġbea ming
Ġhat ter
Ġsle eved
Ġden nis
ĠDe tails
ific ent
Ġara gon
qui lity
ĠMax field
Ġmaid ens
ĠDo ug
ðŁĮ Į
cz ak
Ġå ı
Ġlightsaber s
Ġguwe ta
jol nir
Ġhyd rangea
nin tendo
urav leva
ullo ch
ĠSmo ke
Ġancho r
Ġzalen ga
Ġskeu omorphic
e led
f rey
p ower
ti sts
Ġc s
Ġd ummy
Ġf uck
en tric
Ġe hretsmann
ho uses
is es
Ġco d
Ġlo gan
sh u
Ġbo log
ĠB ear
Ġis op
ĠH eart
Ġwin stead
ura ge
Ġz um
ign ia
Ġno ct
ya h
ĠW eldon
min ine
ĠF air
ĠK evin
Ġwater lily
Ġste ering
rin king
nam on
Ġbar ista
Ġbar celona
Ġed miston
ĠV iet
Ġsuper computer
ind a
Ġdragon ball
lec tions
Ġdream state
Ġhi ker
hu nder
ĠMo ving
Ġpal patine
ĠðŁ Ķ¥
Ġfre quen
Ġcrown ed
fish eye
Ġgun metal
ĠIn ceoglu
Ġpig ment
!!!!!!!!!!!!!!!! !!!!!!!!!!!!!!!!
nic holas
Ġdoll ars
colo ssal
ele ct
ĠAlex andros
Ġgro tto
Ġgro cer
Ġcollec ting
Ġnec a
Ġviking s
ĠGra phic
tem ple
ĠAt mosphere
Ġcook ed
Ġlist field
Ġcass ius
Ġsund ay
Ġwarp ing
Ġbuzz ed
Ġtrunk s
Ġprocedural ly
Ġhiper realistic
Ġtou louse
Ġvampi ric
Ġdomin ant
Ġintro duction
ĠPet erson
Ġxia odi
Ġvor tices
ĠGro ot
Ġpedestrian s
Ġmaur izio
ĠHew lett
Ġmonstro sity
Ġhydroc racking
C olor
W orld
n ificent
p on
Ġs ill
ra ke
le ton
Ġo led
Ġg ir
Ġde us
lo ch
tic les
Ġk arp
Ġpa squ
Ġco rot
ha bara
ne oclassical
ter minator
ĠH and
Ġso aked
Ġvi als
ĠF lash
ĠK nab
che ese
Ġstreet lights
Ġarc hae
Ġlu ca
hr mantraut
ĠO LED
ath alie
Ġtr udeau
Ġmax well
lar wein
cer al
ĠMo untain
ab ay
ĠLe i
Ġacc ident
bu ff
Ġcho p
Ġlas zlo
las hart
Ġdia gonal
Ġscot land
ĠSp ring
Ġtu lips
Ġfilter ing
Ġmal one
Ġconc ern
Ġspa in
ĠYa masaki
ĠNic ola
Ġcare taker
Ġcolla pse
ĠMed ieval
12 5
Ã¨ re
ĠPy romallis
Ġvern on
Ġlaut rec
Ġvillen ueve
ĠEff ect
F red
I ron
L ady
b aya
d ist
f inished
h uly
r er
u ette
v chenko
w it
w ire
y ck
Ġb ichon
Ġd ug
Ġm ills
Ġin human
lo ish
Ġre ci
Ġma ho
Ġpo ssible
Ġr d
Ġan im
Ġan iston
od ern
Ġro z
Ġto wel
ri p
ri loqu
ĠA aron
si st
Ġar rest
Ġex tin
ĠS ys
ka ma
Ġbackground s
ĠC l
Ġsha ttering
Ġme yer
ion al
Ġmar cellus
Ġspace x
pi pe
Ġcat te
Ġmus caria
lec tive
chan ge
ĠRo bin
ĠO range
Ġtom my
Ġwal ken
Ġgr ie
lit ude
Ġnor mandy
Ġsn ack
Ġgian ni
Ġtri es
uer to
van k
Ġsum ptuous
Ġban jo
ces sion
bur st
Ġvar ying
ĠLa loux
Ġbotan ic
Ġric o
ĠBer g
Ġbis hop
ĠCine matography
Ġchang ing
ĠðŁ¤ ĸ
enne fer
Na talie
ffa ello
Ġcapita lism
rze j
Ġtik tok
Ġheter och
Ġcond ens
Ġswam ps
ĠDmit ry
ĠGIG ER
Ġkass an
Ġgrocer ies
j ay
m organ
n aruto
o logical
p ense
s man
t ry
Ġa ffinity
Ġb ung
ta i
ta te
ti vist
Ġde thron
il lumin
tic on
or ing
ea ter
sy n
Ġy er
Ġex ces
ĠB isley
ĠC ard
ĠC rown
ĠJ et
ĠP ayne
Ġsu mo
Ġgra ins
Ġcharacter istic
Ġor ca
tan o
he x
Ġbu y
ĠRo y
ĠO ly
Ġko rea
Ġpen thouse
Ġ19 5
Ġjung les
ĠSh epard
ardo z
Ġfar ming
ĠPo ison
anda lorian
Ġfort num
ĠBar b
Ġgent ly
Ġgener ating
Ġstal inist
Ġexplor ers
ĠRem edios
Ġritual s
Ġfree ze
rink ets
Ġpred atory
Ġrelig ion
Ġtour ism
cur ved
Ġenlight ened
ĠSur realism
Ġtess ellation
Ġstormtrooper s
Ġbb q
Ġbb w
Ġsight seeing
Ġchick ens
Ġhydra u
Ġdill ane
Ġinstruc tions
zzzzzzzzzzzzzzzzzzzzzzzzzzzzzzzz zzzzzzzzzzzzzzzzzzzzzzzzzzzzzzzz
panora mic
dag uerreotype
ĠTomo yuki
Ġcyper punk
S onic
b unny
t u
z art
Ġa alto
ar ke
Ġn ina
am ori
Ġ8 4
Ġto pped
Ġle v
ec ue
old yck
Ġas king
ĠS P
sh ack
ad d
Ġblack board
ĠG undam
ĠH ong
ia o
ĠP iece
Ġgold in
ĠF uturism
ther ing
fe iffer
Ġmonster a
ev ange
Ġrob bers
Ġsqu ish
ĠMar ilyn
Ġexplo re
lin ter
ita lian
Ġbel ong
ĠLa ke
Ġant ler
Ġfli r
Ġcu bo
200 2
Ġany thing
Ġadorn ments
ĠMas amune
Ġcher ub
elder ly
Ġrein car
ĠNan ite
Ġfranch ise
D ream
F rank
O ne
g rin
h itler
s top
w lop
Ġ till
Ġa ivaz
Ġs lr
Ġd art
Ġm ec
Ġde iv
lo h
lo th
Ġk r
Ġpa rents
Ġt rinkets
Ġportrait ure
mo va
rom ia
Ġen cas
Ġen thus
Ġal mond
Ġun re
Ġex ha
Ġca rap
ĠC ute
ĠP lanet
Ġfull shot
ix ed
ĠL is
ĠL at
ĠF ighter
ĠK ush
ĠN ative
ĠV ector
Ġcam o
Ġhu gs
Ġam p
Ġgr iggs
Ġtrans fer
Ġhalf rear
Ġmecha bot
elb ilder
Ġdr ill
Ġpres ents
zu maki
Ġsch rute
Ġpea s
ĠGod ward
Ġmuscle bound
âĻ ¡
Ġmol l
chris tian
Ġhalluc in
Ġbir k
thor pe
Ġrele asing
Ġchampion ship
ĠPink man
Ġmorbid ly
ĠYu umei
Ġnub es
Ġnugg ets
ĠDav is
Ġaspect s
ĠJura baev
ĠCran ston
ĠAber crombie
Ġchara chter
Ġorche stra
Ġcatte lan
6 9
B e
R enaissance
b rian
g ay
h rist
Ġc it
Ġp ong
Ġg pu
Ġg romit
ro o
ma yan
Ġpa ved
el go
hi de
ow sky
Ġro he
ol ves
Ġmo roccan
Ġen chant
Ġra pture
bo oks
sh un
ĠB rue
Ġte c
ĠD ittman
ko i
ĠE gypt
Ġmon arch
Ġed c
he ight
Ġfra il
az owski
ĠO d
ĠU l
dle ston
Ġtr ucks
ĠY as
ars ky
Ġx aver
ana be
Ġpark a
Ġpark s
lad din
ita ted
bre ed
ash vili
Ġcell ar
mat ti
qui to
Ġhier onymous
Ġcontro lling
Ġdevil s
Ġgap ing
Ġcheng wei
uma da
Ġder py
ĠSer ies
Ġbj arke
gro ve
Ġkee per
Ġviolent ly
Ġcrest ing
panora ma
Tho mas
ĠðŁķ ³
Prof essional
undred s
c tions
e h
f ighting
g usta
m ie
n u
o ft
o livia
ti fa
ra ven
ra tions
Ġm org
Ġh illy
Ġsho ji
me ta
Ġbe lo
Ġbe guiling
bo tanical
ĠG ate
Ġdark ly
Ġcha teau
Ġho oper
Ġso bbing
Ġz ardoz
ĠL ive
Ġarc an
Ġfa bok
Ġstr ino
do uard
Ġka hl
ĠZ odiac
Ġpan chro
so lid
Ġrun escape
Ġya maguchi
Ġclass ified
Ġhybrid s
Ġmer ry
Ġcas per
quis tador
ĠDan te
enn on
Ġdia z
Ġvar iation
Ġshin ny
Ġgn omes
Ġag ate
ĠSa jedi
ĠAf arin
azz led
ĠCat woman
Ġartic ulated
ĠSci fi
ĠAuto mata
Ġgrizz led
ĠPas cal
cir cular
Ġparan oid
Ġxia og
En gine
Ġlem ur
cyc lop
Ġvaria tions
Mi ke
Ġenclo sed
Ġcrum pled
Ġaragon es
P i
a way
b iden
e hyung
o urney
s acred
t urtle
Ġs cep
Ġs vank
re med
ti ac
Ġh umble
Ġth al
ĠA ran
Ġra f
me me
Ġlo ft
ĠM unch
Ġas ph
Ġla bor
ĠS N
Ġman et
Ġta cos
ĠG lass
ĠT ank
Ġpro create
Ġcyber city
ĠL ennon
ĠE p
Ġru e
Ġres er
Ġbar rier
pe ii
Ġcar nation
Ġcar riage
Ġsw ollen
my k
dra ke
Ġi ra
Ġtra iling
Ġvis cera
Ġsea gal
Ġop rah
Ġpan futurism
Ġmountains ide
oc cult
Ġblood shot
Ġri bs
ĠYo ko
Ġcell ular
Ġband ages
Ġpier paolo
ĠKo lesov
Ġsig ourney
Ġyour self
Ġocto ber
Ġmedita tive
Ġram sey
kn ot
ĠSam us
Ġtoilet paper
ĠSha un
Ġrud olf
Ġconstruc ting
mask ed
Ġrail gun
Ġfas cist
Ġsafe booru
Ġexc av
Ġauth entic
ĠTake hiko
Ġpand ora
Ġreplic ant
Leon ardo
commun ist
Ġspeak easy
dec aying
Ġgia matti
ĠIc hiro
evange lion
Ġcarap ace
A na
o ta
y ang
á Ħ
Ġa e
re shing
Ġm ute
Ġde velo
il ine
ma th
Ġli kes
Ġma o
ut sch
Ġhigh rise
Ġan onymous
ne e
Ġro ast
Ġra vi
Ġun com
ĠS et
ĠD ale
Ġsha kes
Ġsha bby
ĠT iger
pa x
Ġfe y
Ġwater park
Ġover exposed
Ġdy ck
iz z
Ġlu cy
Ġsa oir
ðŁ ķ
Ġsea led
jo ra
if eng
Ġdri ven
Ġrim uru
Ġwarm ly
Ġstrong men
Ġsal gado
mar ilyn
Ġju xta
Ġfar rell
ni ke
Ġexpo sing
Ġki ro
Ġflash es
Ġnet runner
Ġsch uiten
vo ir
Ġpr ussian
shirt less
Ġfel ted
inder ella
Ġtriang les
Ġea red
ĠKing dom
Ġneed les
ĠDes ert
Ġwon bin
Ġgraph s
Ġnine teenth
ĠEvan geleon
Ġdal le
Ġlett l
Ġexte nded
aaaa aaaa
Ġhierog lyphic
bod ied
Ġmord en
Ġsciss ors
tone mapped
Ġabduc ted
Cap tain
Ġtowns hip
ĠConn elly
erato ps
ĠSys tem
âĻ¡ âĻ¡
Ġsaoir se
, :
a udrey
f ie
g iori
k renz
n eling
t ural
z ek
Ã ¤
Ġ ud
Ġa van
Ġs ine
Ġc acti
ing ed
Ġw we
Ġin di
ed e
Ġpa stic
Ġpo mp
el strom
Ġsh all
uc tive
io h
io logy
ĠA ron
Ġl ack
Ġra gnar
tra in
ĠS po
Ġta weel
ĠC lu
Ġeyes hadow
Ġmag giori
Ġcyber truck
ĠK rentz
ris ograph
Ġres pira
Ġpix abay
Ġstar watcher
Ġray marching
Ġlu iz
Ġbra wny
Ġair force
og othic
Ġsqu inting
Ġpal lete
Ġhan fu
au ce
Ġmel t
Ġja red
Ġdoc king
ĠAr tists
Ġwo unds
Ġapart ments
Ġaqu iline
prin ce
Ġconnec ts
psy cho
Ġleaf s
ĠSc ulpture
Em manuel
Ġboun cy
Ġjas mine
ĠRid dick
Ġtypo graphic
Ġbarb ecue
Ġdescri ption
Ġhey er
Ġbooksh elf
into sh
ĠCenter ed
ĠAless andro
ĠOff ice
Ġskyd iving
ĠYor ke
Ġfj ord
Mic key
ĠUfo table
riloqu ist
Ġkiro kaze
L ea
M al
T ed
j oker
v atory
Ã ±
Ġa gency
Ġc red
Ġm uc
te lling
te eri
Ġco pe
ha ta
om aly
Ġro mi
Ġtre nt
Ġbo ur
Ġman uf
Ġta li
ĠC CTV
ĠH at
Ġsha piro
Ġqu in
ĠP on
Ġz een
Ġme nd
Ġme isel
and r
ĠE vgeny
ĠN D
top sy
ĠO pera
Ġcor vette
bb teeri
Ġdri ves
Ġflu ff
mi lia
Ġplay boy
Ġsli des
lock ed
bur gh
Ġcoat s
Ġkid man
Ġsig ning
dis cord
Ġent ry
Ġhope less
Ġphil adelphia
Ġå ĩ
Ġpat ron
sub ject
Ġdig tial
Ġwalk ways
ĠNa bbteeri
Ġdrum mer
Ġé »
ĠFinn ian
ĠTan ida
Ġnest led
Ġfloure scent
F C
m aro
o logist
r ine
Ġs ell
re p
ta lia
ing o
li et
ar ms
al as
Ġk amen
od or
ch u
ol ling
Ġhyper deta
Ġl aces
Ġal var
Ġhair less
ty pical
ĠD ag
Ġne ville
Ġne ogothic
red o
ach el
ĠP ers
Ġsu icide
ian us
Ġgra du
Ġz oldyck
ĠL as
Ġmar ch
Ġ: .
Ġshi elds
Ġab beration
illi vray
Ġunder sea
lay ered
jo yed
if y
Ġpre pa
Ġjack ie
Ġka ra
Ġve ils
yp el
Ġmountain top
Ġinc an
Ġbed azzled
Ġkat niss
Ġplay time
Ġpy ro
Ġmind ar
Ġsus pense
Ġsti tched
ĠDo ro
Ġarab esque
Ġbuck minster
bio luminescent
ĠLi berty
pat ron
nan cy
ĠTi tian
var ian
Ġkha ki
fec tions
Ġjaco bus
Ġappe aling
Ins ide
painter ly
Ġsary n
D is
K ing
L ife
c ristiano
le tto
Ġo y
Ġm illa
Ġde gener
Ġre co
Ġe Bay
it su
ma gazine
Ġk asuma
Ġk remlin
Ġpa m
Ġst uart
Ġcon gress
bo ut
Ġar che
ĠS zukalski
ĠR ic
ĠR OS
ĠC lass
Ġho us
lic king
Ġu kraine
Ġac tivity
pi racy
Ġ6 5
ot ti
Ġko oning
Ġcor poration
Ġvicto rious
Ġgi ugiaro
Ġval halla
Ġmor pheus
Ġtable cloth
ult ron
au x
ĠIn u
Ġsome where
Ġjim i
Ġlin er
Ġsan julian
Ġris que
par is
Ġmeg aman
ĠMe g
ĠMe ga
Ġdom inguez
Ġconnec tions
zan edo
Ġrutkow ksi
ors che
Ġprim ordial
Ġtum ors
Ġtai wan
Ġwinds wept
ĠGal adriel
Ġpend ragon
Ġdang anronpa
Ġjab ÅĤ
Ġeuc lid
ĠAR T
Ġdrown ed
Ġlaund ry
Ġå¹ ´
remed iation
Ġé» Ħ
S ha
c ardo
j ork
re land
Ġd redd
Ġf ff
Ġf uturis
Ġe stra
Ġk ac
la ra
Ġma uve
Ġn acho
ow ing
po o
po ps
po ssum
Ġra tion
ĠM uppet
Ġun wrapped
ĠS owa
Ġsmo ld
ĠB ateman
Ġso othing
ĠJ r
tor n
ĠW orks
ĠF ar
Ġpla ya
Ġview ing
Ġglow y
fi es
Ġwe igh
Ġsa tis
ot ta
be ach
Ġchar lier
sty les
Ġhi bbary
med ical
Ġmix er
Ġass as
Ġexplo des
Ġri pley
board ing
jes se
Ġgun pla
Ġhell raiser
Ġbord alo
Ġ' .
Ġthan ks
Ġdwar ves
ĠAki hito
Ġpleas ure
Ġalberto v
Ġboun ce
ĠWin ston
bio logy
ien ne
Ġkaw anabe
ĠFred dy
ĠHow l
Ġpsych on
Ġky lie
Ġlur ks
ĠThis set
ĠJin ping
Ġgiorg etto
Ġserv ant
Ġ300 0
Ġcollaps ed
Ġmcg illivray
ĠMic ro
Ġsymbio tic
ĠAp ril
lick r
squid ward
Ġhyperbo rea
ĠMini ature
Ġexces sive
8 00
N G
P re
d b
d im
p ac
Ġf itz
Ġf ritz
Ġo g
st ume
is enberg
un i
Ġwith ered
ch Ã©
ĠA cade
Ġlo ver
Ġwear y
ĠG ric
ĠT ek
ĠP ol
Ġsur prise
Ġfe ma
Ġru bb
iv a
Ġste ppe
Ġsa ints
ĠO livia
Ġir regular
Ġchi huly
Ġnew ly
Ġline ar
van ese
Ġmarble d
Ġbiome ch
Ġdev iantArt
Ġara ch
)))) ,
nec romancer
Ġpass age
Ġram jet
Ġwen fei
ĠSe b
Ġgriff ith
class y
Ġcolum bo
hood ed
ĠCap ybara
Ġkin ds
ĠMer riam
Ġcare fully
Ġamph ith
ido lia
ĠBra zilian
Ġpolygon s
Ġprotec tion
Ar nold
ĠNor ilsk
Ġcran ium
Ġfursuit er
ĠTra vis
Ġintergalactic a
gam eplay
AAAA AAAA
Ġlad der
Ġincom prehensible
buki ya
Ġmaz da
Ġsprink les
Ġoshi i
Off icial
Ġpasqu alin
Ġxiaog uang
Ġpastic he
E TA
d racula
h ug
q c
Ġb ison
Ġre ced
Ġe con
Ġv eter
Ġk ushart
ig ami
Ġhigh school
Ġj ensen
Ġhyper dimensional
ĠA vant
Ġsp lo
si ze
me nd
Ġal cott
Ġun cle
bo u
bo red
Ġgra ves
Ġba kshi
the on
ins pired
Ġor gas
Ġang u
ĠE k
Ġdis p
Ġper se
Ġwide angle
Ġab loh
ind zhi
Ġtra its
ĠO h
Ġhard wood
Ġinc ense
Ġhorse back
Ġsna ils
Ġtar get
Ġband icoot
Ġfal se
Ġscar iest
Ġkind er
py ramid
Ġmeg ali
Ġunic ycle
Ġfit ting
Ġkata uri
Ġwhis per
Ġpon tormo
ĠHor izon
Ġvul pes
ĠUS A
Med ieval
anato my
Ġwee ks
ĠBank sy
Ġsop rano
Ġboom box
lise um
Ġlolli pop
Ġåı ¸
Ġencas ed
ĠjabÅĤ onski
G E
I D
S hi
f un
g aming
u stra
u ana
w berry
z ie
Ġp imp
Ġf rown
Ġm ma
en ry
Ġre lics
Ġv uitton
Ġco ps
Ġma k
Ġma ier
ine l
Ġcon ical
Ġto me
rom u
ĠA etherpunk
ud ia
Ġ3 2
ers hip
ĠC ritch
Ġho over
ĠT ad
Ġper uvian
ind ers
Ġsub j
lis ation
Ġes her
ĠMi ho
Ġguy ver
ĠBa iley
bar barian
mod ore
Ġbase man
Ġstory telling
ĠMon key
Ġcosplay er
ara b
Ġdisco vers
Ġdense ly
ĠCar us
Ġner ve
ĠSc arlet
bee ple
ĠGrim shaw
Ġfilip ina
hel m
Ġâ ĺ
cur rency
Ġspea ker
201 7
Ġdad dy
char les
bron ze
Ġcontin ent
Ġbeks inki
IS TIC
Ġaleks andra
Ġpollu tion
áħ ł
Ġintent ly
Ġars ham
aso phia
Ġpag oda
Ġincre asing
Ġfavor ites
Ġåĩ ¤
ĠCritch low
G uy
S S
U L
c ru
s unny
Ġa is
Ġa riel
re ma
Ġd amien
Ġp feiffer
Ġo denkirk
an ese
Ġw er
Ġv ia
Ġan omaly
ki a
Ġcon vey
Ġro tating
ke nd
ark en
Ġar co
ĠS Ã¡nd
Ġch anth
ĠR un
Ġman ager
ĠH ot
Ġsha olin
Ġsy bil
ess ie
ĠP ho
Ġno re
ĠW olverine
Ġti re
pp s
ild ing
Ġad vert
Ġpin t
Ġje ehyung
stal in
Ġbrush ed
ik u
Ġban ks
Ġkat y
Ġhot dogs
ĠBo y
Ġwav et
Ġstud ies
Ġbel le
dress ed
Ġchin chilla
gor z
phin ianus
tsu o
Ġthor p
Ġthor gerson
Ġjin x
Ġram bo
sun rise
Ġdata mosh
Ġplu me
ĠMer kel
Ġfrag mented
Ġscream s
Ġminer als
Ġay kut
Ġtapest ries
Ġschizophren ia
Ġatte nd
Ġmarshmallow s
urd ish
ĠImp act
ĠStra utniekas
kit ten
Ġyea h
ĠDru id
Ġkry pton
pole onic
Ġflan nel
Ġiniti al
wha le
Ġzh uravleva
Ġpreser ved
Ġæľ º
Ġchanth ara
M en
Z brush
s peed
u topian
Ð ´
ķ Ĭ
in fla
Ġa symmetry
ra tic
th ery
Ġg iza
ur lion
am y
ch rom
Ġcon quistador
po ke
Ġsta lag
me chan
ĠS haw
Ġca lend
ĠD awn
ĠC uthbert
ĠT u
ung us
Ġme mes
Ġover joyed
Ġcar rots
Ġfla vor
stic ks
Ġpe las
ist ing
Ġcomp ression
Ġve las
Ġche wbacca
lad es
ĠSt unning
Ġedi tor
Ġja ws
san sa
ono va
ĠLo go
vin ci
Ġva tican
dis co
Ġport hole
Ġze ta
Ġze ndaya
ĠGre co
ĠBy zantine
Ġspring time
fla ming
Ġric cardo
Ġweapon ry
bid ly
Ġtrench es
Ġå ķĬ
Ġkra mpus
Ġvertical ly
10 24
ðŁı ¿
Ġbin x
end rick
char lie
Ġinfluen ces
198 2
Ġinte st
Ro bert
Ġsick ness
Ġcontain ment
Ġkno bs
Ġsien na
Ġhumming birds
Ġswallow ed
Ġaman e
Ġaleks ander
Ġsnowfla kes
ĠHey man
ĠTs utsumi
ĠRazu mov
ĠBil al
Ġaband on
Ġestra da
ĠSÃ¡nd orfi
G TA
I nd
L aw
U R
f ume
u ffy
ta list
Ġc ure
Ġc acha
Ġc myk
Ġd amp
Ġd aring
Ġo ps
an nie
Ġw acho
Ġin ky
Ġde vain
la kes
id ow
Ġcon quer
Ġro sto
Ġmo urning
Ġto ku
Ġra mp
Ġla id
ĠG ates
ĠD ec
ĠC are
Ġqu ite
lic a
Ġmar bles
Ġmed ival
my r
Ġtran quility
Ġdan k
ĠV ray
Ġmic rowave
os ai
ðŁ Ķ
und ead
Ġtech n
ru le
Ġop tic
Ġgal leon
Ġau topsy
Ġsad dle
fish er
Ġce ment
cre ative
pher ical
Ġmart en
ah edron
Ġemb ry
ele na
Ġscar face
Ġhiro shige
ĠLa in
ĠDis co
ez ing
Ġthor ne
ĠSc ene
cen sion
Ġciti zens
Ġhunt ress
ĠRen owned
Ġfix tures
Ġinven tory
Ġchip munk
Ġfanta sia
Ġtranshuman ist
Ġelectro magnetic
Ġbrim stone
ĠAth ens
Ġinstruc tor
Ġgiven chy
Ġlabe led
Ġdoub t
Ġsusta inable
Ġkarp i
B ea
[ [
b edo
k amp
w as
Ġb inkley
ti ao
le um
Ġp lot
Ġo shun
Ġart li
Ġan ka
at ta
per t
Ġtre x
Ġlo oney
Ġbe g
ĠR iot
Ġta ba
ĠG or
ĠT at
ĠT ree
ĠP rometheus
Ġgold berg
Ġins pec
Ġu k
ĠK ah
ys is
ris ed
pp ings
Ġdi or
Ġmi elgo
Ġfla ts
Ġfla yer
Ġsa ga
os uit
Ġfa il
Ġgr ief
con ci
ass em
Ġdys topic
ore ns
Ġce o
Ġver tigo
Ġpoly mer
Ġsup ple
yn oid
Ġyu uki
Ġmeat balls
Ġparis ian
ĠQu entin
Ġbomb shell
Ġpeach es
pho enix
far er
ĠChrist ensen
Ġmem phis
Ġimper fections
Ġhig ashi
Ġpassionate ly
point Ã©
delic ate
Ġhut t
Ġcolon el
TI ME
Ġvent riloquist
tele photo
ĠGi org
Ġlaun ched
Ġtourist s
Ġconstella tion
Ġbene volent
Ġante lope
Ġantic hrist
Ġish tar
Pic ture
Ġsepara ted
ĠBarb ucci
Ġcacha lot
F F
S C
W e
d ad
d ish
f l
j erry
q vist
s ports
w illiam
Ġs oth
Ġb lim
Ġd z
Ġf rise
Ġm yazaki
th under
ar se
Ġg lyph
Ġg lides
Ġin ception
Ġre tre
Ġli z
Ġv ile
Ġan akin
Ġro wan
ĠA di
ĠM ushroom
germ an
ĠS atoshi
Ġch rono
ĠR EAL
ĠB izarre
ĠC gsociety
ĠH id
ay n
Ġho pes
Ġdes picable
ĠP ac
Ġmag es
Ġjo ss
Ġfe ver
Ġfil th
Ġepic ally
Ġu ti
rant ino
Ġmi es
ste ven
ĠN ukem
bra ry
ier ra
Ġfa uc
Ġfur red
Ġunder tale
Ġpale o
Ġdon ata
Ġdown ward
mp ha
Ġtur ret
ĠEn ki
ĠIn c
Ġend oskeleton
ison n
gar de
itz ky
Ġer ror
Ġmeadow s
Ġtight ly
ãĥ ¼
Ġdag uerre
Ġwaste lands
ĠFred erik
historic al
ĠBra ndon
Ġmegastructure s
zza rella
bas tian
Ġky osai
Ġprecision ist
Ġmyce lia
Ġprote sting
dead pool
Ġvor onoi
ĠLum in
cali ptic
Ġrasp berry
Ġalas ka
pep pa
Ġmock up
ĠOM NI
Ġcalend ar
Ġartli lery
E O
K ate
W ide
c uit
l era
u li
Ġs ioux
th onic
Ġh irst
ro b
te se
to ms
Ġk illed
Ġma i
Ġma ti
at ura
ge e
im ming
Ġtre at
Ġcolor grade
Ġsp lashart
Ġsho ots
Ġdra gging
ĠS AI
ĠB ones
Ġ2 1
ide ogame
ĠW illem
ĠL ud
ĠK lint
Ġdis ap
Ġflo yd
Ġpe xels
ĠV io
lec tic
Ġcry o
Ġinter section
Ġmale volent
Ġes can
Ġghost busters
Ġdirec tional
Ġbed s
ĠFran ce
Ġsli ding
Ġapp end
Ġbliss ful
ĠWat ers
Ġanti qu
Ġstal lion
Ġram pa
ĠChi ampo
Ġstru ggle
Ġabs or
In terior
Ġpup pies
Ġsplit ting
logo us
Ġtile able
Ġshore line
ĠPark er
some one
Ġinven tor
fle ur
Ġexam ining
Ġglim pse
ĠLED s
Ġari zona
?? ??
ĠLam borghini
Ġgh etto
Ġbead ed
ĠNY C
Ġheteroch romia
Ġfema les
áħł áħł
Ġescan uela
O B
U nder
c one
f en
u ardo
w olves
Ġ ios
Ġs ic
le bron
Ġm jolnir
al bino
Ġli mb
Ġk ap
Ġpa tre
Ġco stanza
Ġt ung
lu ded
Ġligh th
Ġan ce
od acty
se i
im il
Ġdra in
co ffee
ad verti
ĠG oth
Ġho ch
ian xia
ko ta
Ġmar gin
ĠF ai
ĠK odachrome
ĠK amen
Ġgo ats
Ġfea thery
Ġdis order
Ġad miral
Ġel k
ot to
Ġsteam y
Ġanth ropomorph
fo rting
Ġtr uss
ĠMa tisse
ĠAn g
Ġgal adriel
ĠMar g
Ġbrush es
Ġya kov
Ġlush pin
rick et
ĠBe ach
Ġga inax
Ġri pping
ĠFran ces
HD R
cho s
olo dy
Ġnic kelodeon
Ġmil ks
ĠAr gentina
Ġmand e
Ġmusic ians
Ġcro iss
over sized
Ġsubject s
Ġslender man
ĠSha den
Ġkal in
ER Y
angel ina
Ġame era
Ġcyc ling
Ġlaure n
Ġtric ycle
Ġcubic le
Ġbry ant
God zilla
Ġsale em
ĠTsu k
Ġjab ba
Ġrand olph
Ġkend all
Ġmum bai
ĠDia blo
mper ial
Ġsuccess ful
Per fect
ĠEnter prise
Ġsmold ering
urlion is
lakes ide
o res
µ ðŁĩ
Ġp onds
li zard
Ġg on
en cy
it ney
ea kers
Ġpo ser
Ġj ets
hi ve
Ġmo zzarella
uc lidean
ĠA yanami
Ġra iden
ber us
ĠS tory
ĠS layer
Ġfi red
ĠG T
ĠG lowing
ĠB ili
Ġcy pher
Ġengine ers
ĠC ec
ĠH ilma
ĠJ us
ron to
Ġjo ke
Ġfe li
Ġfor nite
Ġmar velous
Ġres on
Ġsm al
Ġgo ur
Ġbu ggy
Ġcra xton
Ġmu tation
no stic
gan y
Ġbro ads
Ġretro futurist
Ġsand ler
aut s
ik ari
aki ra
Ġcost umed
Ġcross breed
Ġcinemato grapher
lot ine
Ġlab els
har ley
Ġtun es
ĠHan son
ĠFra gile
Ġfriends hip
Ġbrun et
Ġbol sonaro
Ġfoss i
Ġanno tations
Ġ198 4
ĠPen cil
Ġsher ree
Ġembel lished
ĠSun light
Ġatte nding
Ġfederic i
sle eping
Ġbao bab
ĠHard y
Ġlimon ick
spo oky
Ġaure lius
Ġaco ustic
Ġsyring e
ĠPale tte
Ġexha ust
Ġscep ter
ĠBili bin
H ea
b uds
c zy
d f
j is
o red
s um
Ġh its
li me
lo rean
to os
Ġv illian
Ġco il
sta g
mo ck
mo lly
Ġtre acher
de harme
Ġto kio
ĠR ivia
Ġbo ud
Ġta dan
ci ful
Ġyo us
Ġgra de
ga ting
min ate
Ġmar iusz
ĠF AN
ĠK uro
ĠK arolis
Ġcan ova
ang led
Ġdep ressive
Ġref reshing
Ġvis ceral
ral lax
az s
em inem
Ġmas ke
ĠU kiyo
Ġdef eated
Ġbea ten
Ġsn iff
Ġbal azs
Ġwallpaper s
con temporary
Ġdri ppy
Ġve in
Ġmor ticia
Ġsal a
Ġeld ar
ĠAr ri
ĠPo pe
Ġbad lands
Ġclu tching
Ġer aser
fa una
Ġow ner
Ġchest nut
Ġbel arus
Ġchildren book
Ġsph ynx
ĠSo rolla
Ġstair cases
Ġfred die
Ġtac tics
Ġanno un
De mon
chart ed
Ġdeck er
ĠCap aro
flo oded
Ġkaw amori
Ġago ston
Ġsick le
Ġhide yuki
ĠEvan s
Ġwel come
pea re
Ġsitu ated
ĠSil ver
Ġpap rika
Land scape
Ġcatacomb s
Ġniz zi
Ġemploye e
Ġfeud al
igur umi
ĠBle vins
Ġrosto v
H enry
R ep
S ur
T rump
c gsociety
d ungeon
m all
r ill
v ism
w is
Ġd arius
ra ka
Ġm alf
Ġg antz
Ġe upho
Ġma ison
Ġma elstrom
Ġr v
Ġsh ard
ch rist
se an
ard in
io sa
ĠA stronaut
Ġlo p
ĠS sunbiki
Ġta tum
ĠB r
Ġho se
Ġpro ven
ko ut
Ġhor ro
ĠF actory
Ġdi y
Ġ6 40
br u
Ġam orphous
Ġbra dy
Ġko iv
Ġhands hake
Ġarchite cts
Ġka ren
bb ly
Ġ19 10
ca re
Ġacc omp
Ġsol ving
Ġpoint Ã©
Ġtravel s
ĠEl son
Ġtu k
Ġmal lord
Ġceramic s
mac y
Ġswamp y
Ġpeaceful ly
Ġpsycho logy
Ġleaf y
Ġspra ying
hel lo
Ġharve sting
sai lor
ĠðŁĳ ½
Ġlog ical
Ġappro aches
Ġmatsu moto
Ġcav ity
Ġmora les
home less
Ġclaw ed
Ġä »
ðŁļ Ģ
ĠCross ing
Ġpoet ry
Ġshrub s
Ġmodification s
engra ving
isonn ism
olody myr
7 5
G ar
G olden
b eau
h h
i kov
n id
p ond
s aturated
Ġa ch
Ġs elk
ta ra
Ġd andy
Ġo le
Ġw ading
Ġg ump
ic han
ro yal
Ġde cent
tion er
Ġth ro
ul sion
Ġe acho
Ġpo ofy
Ġn irvana
ark in
Ġsp linter
Ġsho res
Ġbe utiful
Ġun happy
co tra
Ġsk unk
Ġsk ates
Ġdes ks
ĠP res
ĠP rime
Ġdesign ers
ild a
gg ie
Ġbar maid
Ġsw ings
Ġcra zed
Ġsa gan
Ġgr illed
[...]
