{"<|endoftext|>":0,"!":1,"\"":2,"#":3,"$":4,"%":5,"&":6,"'":7,"(":8,")":9,"*":10,"+":11,",":12,"-":13,".":14,"/":15,"0":16,"1":17,"2":18,"3":19,"4":20,"5":21,"6":22,"7":23,"8":24,"9":25,":":26,";":27,"<":28,"=":29,">":30,"?":31,"@":32,"A":33,"B":34,"C":35,"D":36,"E":37,"F":38,"G":39,"H":40,"I":41,"J":42,"K":43,"L":44,"M":45,"N":46,"O":47,"P":48,"Q":49,"R":50,"S":51,"T":52,"U":53,"V":54,"W":55,"X":56,"Y":57,"Z":58,"[":59,"\\":60,"]":61,"^":62,"_":63,"`":64,"a":65,"b":66,"c":67,"d":68,"e":69,"f":70,"g":71,"h":72,"i":73,"j":74,"k":75,"l":76,"m":77,"n":78,"o":79,"p":80,"q":81,"r":82,"s":83,"t":84,"u":85,"v":86,"w":87,"x":88,"y":89,"z":90,"{":91,"|":92,"}":93,"~":94,"¡":95,"¢":96,"£":97,"¤":98,"¥":99,"¦":100,"§":101,"¨":102,"©":103,"ª":104,"«":105,"¬":106,"®":107,"¯":108,"°":109,"±":110,"²":111,"³":112,"´":113,"µ":114,"¶":115,"·":116,"¸":117,"¹":118,"º":119,"»":120,"¼":121,"½":122,"¾":123,"¿":124,"À":125,"Á":126,"Â":127,"Ã":128,"Ä":129,"Å":130,"Æ":131,"Ç":132,"È":133,"É":134,"Ê":135,"Ë":136,"Ì":137,"Í":138,"Î":139,"Ï":140,"Ð":141,"Ñ":142,"Ò":143,"Ó":144,"Ô":145,"Õ":146,"Ö":147,"×":148,"Ø":149,"Ù":150,"Ú":151,"Û":152,"Ü":153,"Ý":154,"Þ":155,"ß":156,"à":157,"á":158,"â":159,"ã":160,"ä":161,"å":162,"æ":163,"ç":164,"è":165,"é":166,"ê":167,"ë":168,"ì":169,"í":170,"î":171,"ï":172,"ð":173,"ñ":174,"ò":175,"ó":176,"ô":177,"õ":178,"ö":179,"÷":180,"ø":181,"ù":182,"ú":183,"û":184,"ü":185,"ý":186,"þ":187,"ÿ":188,"Ā":189,"ā":190,"Ă":191,"ă":192,"Ą":193,"ą":194,"Ć":195,"ć":196,"Ĉ":197,"ĉ":198,"Ċ":199,"ċ":200,"Č":201,"č":202,"Ď":203,"ď":204,"Đ":205,"đ":206,"Ē":207,"ē":208,"Ĕ":209,"ĕ":210,"Ė":211,"ė":212,"Ę":213,"ę":214,"Ě":215,"ě":216,"Ĝ":217,"ĝ":218,"Ğ":219,"ğ":220,"Ġ":221,"ġ":222,"Ģ":223,"ģ":224,"Ĥ":225,"ĥ":226,"Ħ":227,"ħ":228,"Ĩ":229,"ĩ":230,"Ī":231,"ī":232,"Ĭ":233,"ĭ":234,"Į":235,"į":236,"İ":237,"ı":238,"Ĳ":239,"ĳ":240,"Ĵ":241,"ĵ":242,"Ķ":243,"ķ":244,"ĸ":245,"Ĺ":246,"ĺ":247,"Ļ":248,"ļ":249,"Ľ":250,"ľ":251,"Ŀ":252,"ŀ":253,"Ł":254,"ł":255,"Ń":256,"in":257,"Ġa":258,"Ġs":259,"er":260,"on":261,"re":262,"Ġb":263,"ta":264,"ti":265,"Ġc":266,"Ġd":267,"ing":268,"ra":269,"le":270,"Ġp":271,"nd":272,"Ġf":273,"rt":274,"Ġo":275,"Ġm":276,"th":277,"an":278,"Ġh":279,"li":280,"Ġw":281,"ar":282,"Ġg":283,"Ġart":284,"Ġof":285,"ic":286,"gh":287,"en":288,"ro":289,"Ġin":290,"te":291,"Ġde":292,"Ġand":293,"lo":294,"to":295,"Ġby":296,"il":297,"al":298,"tion":299,"st":300,"tic":301,"ting":302,"Ġth":303,"es":304,"ac":305,"Ġre":306,"ul":307,"Ġdeta":308,"Ġe":309,"ho":310,"ile":311,"or":312,"it":313,"us":314,"iled":315,"is":316,"Ġthe":317,"ma":318,"igh":319,"un":320,"Ġli":321,"Ġv":322,"Ġdetailed":323,"ed":324,"Ġk":325,"ly":326,"Ġpa":327,"ea":328,"Ġco":329,"et":330,"la":331,"Ġt":332,"lu":333,"ali":334,"ig":335,"ha":336,"Ġma":337,"Ġon":338,"ine":339,"Ġpo":340,"ce":341,"sta":342,"Ġwi":343,"ric":344,"Ġligh":345,"el":346,"ut":347,"Ġhigh":348,"Ġst":349,"Ġpain":350,"ur":351,"station":352,"Ġn":353,"ph":354,"alis":355,"am":356,"ir":357,"Ġartstation":358,"hoto":359,"Ġr":360,"Ġj":361,"Ġwith":362,"Ġan":363,"hi":364,"Ġpainting":365,"at":366,"id":367,"rtra":368,"tal":369,"rtrait":370,"ful":371,"ss":372,"per":373,"Ġphoto":374,"ow":375,"od":376,"alistic":377,"ate":378,"Ġfo":379,"ie":380,"Ġsh":381,"ch":382,"om":383,"ki":384,"nder":385,"Ġcon":386,"matic":387,"ack":388,"se":389,"Ġ8":390,"ge":391,"im":392,"ne":393,"Ġlighting":394,"eau":395,"ter":396,"nding":397,"ital":398,"Ġportrait":399,"mo":400,"Ġil":401,"Ġhighly":402,"Ġro":403,"igital":404,"pt":405,"Ġtre":406,"Ġgre":407,"ol":408,"Ġdigital":409,"tiful":410,"eautiful":411,"tric":412,"de":413,"!!":414,"ski":415,"ent":416,"tricate":417,"Ġrender":418,"ace":419,"Ġintricate":420,"stra":421,"lor":422,"Ġha":423,"ure":424,"cept":425,"Ġmo":426,"Ġillu":427,"Ġsty":428,"ard":429,"ve":430,"Ġtrending":431,"Ġbeautiful":432,"Ġsc":433,"Ġconcept":434,"arp":435,"Ġcine":436,"Ġ-":437,"Ġstyle":438,"sy":439,"yper":440,"Ġsharp":441,"cus":442,"Ġto":443,"kow":444,"stration":445,"Ġ4":446,"utkow":447,"Ġcinematic":448,"utkowski":449,"ant":450,"Ġfocus":451,"po":452,"ver":453,"anta":454,"Ġillustration":455,"low":456,"rou":457,"ran":458,"Ġgreg":459,"Ġrealistic":460,"Ġcolor":461,"um":462,"ri":463,"ger":464,"gra":465,"ke":466,"as":467,"ster":468,"Ġhyper":469,"ear":470,"rom":471,"Ġen":472,"Ġrutkowski":473,"uc":474,"ark":475,"Ġoc":476,"io":477,"ĠA":478,"qu":479,"Ġlight":480,"Ġle":481,"Ġl":482,"Ġy":483,"Ġra":484,"tra":485,"ry":486,"graph":487,"Ġat":488,"tane":489,"Ġdetail":490,"Ġsta":491,"antasy":492,"ud":493,"ec":494,"Ġsp":495,"met":496,"Ġoctane":497,"si":498,"Ġfantasy":499,"round":500,"oth":501,"ber":502,"Ġsho":503,"Ġdra":504,"me":505,"Ġlo":506,"Ġbe":507,"ĠM":508,"Ġbl":509,"Ġal":510,"germ":511,"Ġun":512,"realistic":513,"old":514,"Ġas":515,"Ġ0":516,"bo":517,"Ġla":518,"Ġface":519,"Ġfrom":520,"ning":521,"Ġar":522,"up":523,"rac":524,"real":525,"Ġex":526,"hite":527,"ĠS":528,"Ġback":529,"Ġ1":530,"Ġsmo":531,"sh":532,"ull":533,"Ġclo":534,"co":535,"ight":536,"Ġphotograph":537,"Ġartgerm":538,"ted":539,"Ġ3":540,"unk":541,"metric":542,"ap":543,"Ġcom":544,"Ġele":545,"Ġwear":546,"ery":547,"Ġch":548,"olu":549,"ers":550,"ad":551,"ĠR":552,"Ġbo":553,"Ġblack":554,"ple":555,"Ġsk":556,"Ġwearing":557,"king":558,"Ġman":559,"ground":560,"ture":561,"ody":562,"gine":563,"Ġfi":564,"Ġta":565,"ultra":566,"Ġ5":567,"ĠG":568,"Ġdark":569,"ka":570,"ĠB":571,"Ġwhite":572,"all":573,"man":574,"Ġey":575,"Ġcy":576,"Ġsmooth":577,"Ġte":578,"Ġhair":579,"Ġbackground":580,"Ġultra":581,"Ġis":582,"ty":583,"gant":584,"Ġcha":585,"punk":586,"Ġca":587,"ucha":588,"ĠD":589,"Ġengine":590,"Ġunreal":591,"ĠC":592,"Ġelegant":593,"Ġne":594,"ĠH":595,"Ġvery":596,"ci":597,"Ġwin":598,"ay":599,"phon":600,"Ġho":601,"Ġhea":602,"ere":603,"ck":604,"Ġso":605,"ong":606,"Ġ(":607,"Ġ2":608,"ff":609,"ll":610,"Ġsha":611,"Ġsy":612,"ura":613,"ble":614,"red":615,"ity":616,"ĠT":617,"ach":618,"Ġyo":619,"sc":620,"ĠJ":621,"irl":622,"oman":623,"ress":624,"Ġblu":625,"Ġshot":626,"ime":627,"ung":628,"pic":629,"ft":630,"ima":631,"Ġmucha":632,"Ġdes":633,"phonse":634,"ess":635,"Ġcolors":636,"ward":637,"ia":638,"Ġpro":639,"ld":640,"racter":641,"Ġqu":642,"Ġbody":643,"Ġeyes":644,"ĠP":645,"iece":646,"ks":647,"Ġsu":648,"Ġfull":649,"wor":650,"ater":651,"Ġwoman":652,"Ġoil":653,"ide":654,"Ġ)":655,"Ġmaster":656,"udio":657,"ix":658,"tte":659,"row":660,"ian":661,"Ġdramatic":662,"Ġgra":663,"piece":664,"Ġz":665,"Ġmag":666,"Ġba":667,"gs":668,"Ġred":669,"ign":670,"Ġcharacter":671,"Ġvi":672,"ron":673,"Ġalphonse":674,"alism":675,"Ġno":676,"Ġcyber":677,"ya":678,"Ġjo":679,"portrait":680,"the":681,"Ġme":682,"Ġhd":683,"ical":684,"till":685,"pa":686,"Ġmasterpiece":687,"Ġgold":688,"ino":689,"Ġblue":690,"Ġstudio":691,"Ġgirl":692,"Ġphotography":693,"tre":694,"Ġup":695,"Ġdetails":696,"Ġphotorealistic":697,"ins":698,"ko":699,"Ġsym":700,"ell":701,"!!!!":702,"Ġ9":703,"Ġvolu":704,"tor":705,"Ġanime":706,"Ġins":707,"Ġsur":708,"ep":709,"Ġbr":710,"ĠW":711,"vie":712,"ĠL":713,"Ġvolumetric":714,"and":715,"Ġor":716,"ish":717,"Ġsci":718,"treme":719,"Ġdo":720,"ality":721,"Ġfe":722,"Ġfil":723,"ds":724,"Ġang":725,"Ġepic":726,"Ġwar":727,"ames":728,"one":729,"uv":730,"ns":731,"Ġmatte":732,"eld":733,"utur":734,"na":735,"lass":736,"Ġstill":737,"Ġdesign":738,"Ġcity":739,"bi":740,"lop":741,"uturis":742,"Ġsun":743,"ect":744,"Ġfor":745,"Ġextreme":746,"Ġquality":747,"ute":748,"ion":749,"Ġhor":750,"les":751,"Ġmade":752,"inka":753,"ĠE":754,"work":755,"Ġti":756,"lic":757,"Ġcyberpunk":758,"ean":759,"av":760,"Ġlong":761,"ga":762,"min":763,"Ġaward":764,"tailed":765,"tive":766,"Ġmovie":767,"Ġclose":768,"Ġu":769,"Ġmar":770,"ĠArt":771,"ĠF":772,"Ġwinning":773,"'s":774,"Ġwlop":775,"Ġshad":776,"ĠK":777,"Ġru":778,"Ġwater":779,"ys":780,"Ġflow":781,"ris":782,"ush":783,"iv":784,"Ġout":785,"iant":786,"ape":787,"ley":788,"Ġres":789,"ren":790,"ts":791,"Ġste":792,"Ġnight":793,"Ġhead":794,"pp":795,"ment":796,"Ġfilm":797,"Ġpla":798,"male":799,"Ġsm":800,"uturistic":801,"metrical":802,"detailed":803,"Ġmed":804,"Ġac":805,"rest":806,"iew":807,"ation":808,"mer":809,"son":810,"Ġover":811,"Ġher":812,"Ġcre":813,"rin":814,"Ġview":815,"art":816,"ild":817,"use":818,"olution":819,"Ġsoft":820,"Ġcan":821,"Ġspace":822,"Ġmon":823,"ok":824,"nam":825,"ther":826,"mos":827,"onal":828,"tan":829,"ub":830,"scape":831,"Ġarm":832,"ety":833,"Ġglow":834,"Ġsky":835,"ene":836,"Ġ,":837,"Ġgo":838,"fi":839,"Ġgod":840,"Ġdi":841,"sition":842,"rant":843,"Ġcompo":844,"nds":845,"Ġresolution":846,"Ġfemale":847,"fe":848,"ue":849,"Ġfea":850,"ciety":851,"Ġpix":852,"shi":853,"mosph":854,"ens":855,"cent":856,"Ġdis":857,"Ġyoung":858,"Ġgolden":859,"Ġross":860,"len":861,"Ġper":862,"realism":863,"Ġvib":864,"Ġ:":865,"Ġcolo":866,"Ġatmosph":867,"ini":868,"ker":869,"han":870,"Ġmm":871,"Ġextremely":872,"Ġjames":873,"gg":874,"Ġcomposition":875,"Ġdress":876,"Ġbar":877,"Ġwor":878,"uman":879,"Ġfuturistic":880,"Ġwide":881,"ille":882,"Ġmod":883,"ame":884,"Ġmi":885,"Ġsymmetrical":886,"Ġed":887,"ome":888,"Ġstar":889,"Ġcolorful":890,"pe":891,"Ġhis":892,"Ġforest":893,"ociety":894,"ton":895,"pi":896,"mon":897,"inov":898,"Ġcute":899,"Ġland":900,"Ġrobo":901,"Ġcar":902,"he":903,"Ġartwork":904,"uvsh":905,"uvshinov":906,"Ġdy":907,"Ġcover":908,"ws":909,"ak":910,"Ġfield":911,"Ġcat":912,"ream":913,"rown":914,"photo":915,"ligh":916,"vi":917,"ature":918,"tle":919,"ines":920,"bli":921,"Ġloo":922,"gon":923,"ial":924,"ating":925,"Ġad":926,"Ġangle":927,"Ġskin":928,"ĠI":929,"Ġpl":930,"Ġsw":931,"unning":932,"ct":933,"koto":934,"phic":935,"Ġali":936,"che":937,"namic":938,"Ġhyperrealistic":939,"Ġhold":940,"Ġflo":941,"gsociety":942,"inkai":943,"ern":944,"Ġsim":945,"Ġperf":946,"Ġcgsociety":947,"Ġfla":948,"ill":949,"Ġold":950,"by":951,"Ġbu":952,"ror":953,"eter":954,"Ġse":955,"my":956,"ord":957,"Ġilya":958,"Ġtran":959,"ney":960,"Ġpin":961,"Ġkuvshinov":962,"Ġglowing":963,"go":964,"Ġhuman":965,"Ġvibrant":966,"hn":967,"Ġjean":968,"Ġdynamic":969,"âĢ":970,"Ġlandscape":971,"Ġfran":972,"wa":973,"Ġprof":974,"Ġgreen":975,"Ġholding":976,"ste":977,"iz":978,"Ġ|":979,"ang":980,"ashi":981,"Ġdep":982,"Ġima":983,"ings":984,"stic":985,"ĠN":986,"Ġfeature":987,"Ġdan":988,"Ġshi":989,"Ġge":990,"Ġab":991,"ky":992,"mas":993,"Ġposter":994,"ous":995,"Ġcra":996,"Ġglo":997,"Ġglass":998,"Ġpe":999,"ĠV":1000,"ner":1001,"ato":1002,"Ġdraw":1003,"ast":1004,"Ġperfect":1005,"org":1006,"ood":1007,"ying":1008,"Ġstre":1009,"Ġmic":1010,"bra":1011,"reg":1012,"Ġexp":1013,"Ġfine":1014,"dra":1015,"ust":1016,"que":1017,"Ġwall":1018,"Ġdepth":1019,"Ġcle":1020,"Ġ6":1021,"Ġsit":1022,"Ġshinkai":1023,"Ġmakoto":1024,"ny":1025,"top":1026,"era":1027,"Ġcloud":1028,"ane":1029,"Ġ7":1030,"inski":1031,"Ġlens":1032,"Ġfac":1033,"Ġsuper":1034,"Ġarmor":1035,"ven":1036,"iny":1037,"Ġgame":1038,"Ġpainted":1039,"Ġstreet":1040,"Ġem":1041,"Ġlar":1042,"iron":1043,"ey":1044,"za":1045,"light":1046,"Ġcam":1047,"hibli":1048,"Ġscene":1049,"Ġray":1050,"Ġwe":1051,"Ġarc":1052,"Ġda":1053,"Ġvan":1054,"Ġlu":1055,"Ġalien":1056,"enter":1057,"Ġit":1058,"Ġtex":1059,"ind":1060,"Ġstanding":1061,"Ġsa":1062,"Ġneon":1063,"ksinski":1064,"Ġi":1065,"Ġmus":1066,"vas":1067,"ular":1068,"ural":1069,"Ġ&":1070,"Ġtra":1071,"Ġhu":1072,"beautiful":1073,"ence":1074,"tter":1075,"res":1076,"Ġgiant":1077,"os":1078,"Ġref":1079,"Ġrock":1080,"Ġrobot":1081,"hael":1082,"ond":1083,"Ġfra":1084,"va":1085,"ious":1086,"ual":1087,"ps":1088,"eric":1089,"Ġel":1090,"Ġbig":1091,"Ġrealism":1092,"ier":1093,"nate":1094,"Ġcanvas":1095,"hot":1096,"Ġsitting":1097,"Ġale":1098,"Ġdragon":1099,"Ġblo":1100,"Ġflowers":1101,"sional":1102,"oid":1103,"land":1104,"Ġvis":1105,"Ġhorror":1106,"tage":1107,"illi":1108,"br":1109,"Ġgu":1110,"Ġfa":1111,"Ġam":1112,"ðŁ":1113,"Ġdeep":1114,"ĠGreg":1115,"mic":1116,"Ġlooking":1117,"Ġlarge":1118,"rop":1119,"Ġwh":1120,"Ġfron":1121,"Ġcolour":1122,"ese":1123,"sa":1124,"lec":1125,"Ġornate":1126,"Ġfur":1127,"Ġstunning":1128,"Ġcloth":1129,"Ġghibli":1130,"ick":1131,"Ġlike":1132,"draws":1133,"ashion":1134,"Ġrendered":1135,"ice":1136,"bal":1137,"list":1138,"Ġmid":1139,"Ġpeter":1140,"ium":1141,"Ġprin":1142,"hr":1143,"Ġcenter":1144,"Ġbi":1145,"tro":1146,"sing":1147,"Ġjohn":1148,"Ġunder":1149,"ead":1150,"val":1151,"Ġimage":1152,"Ġdream":1153,"we":1154,"Ġbright":1155,"Ġhe":1156,"range":1157,"ched":1158,"Ġlife":1159,"ot":1160,"!!!":1161,"rich":1162,"Ġtexture":1163,"set":1164,"acher":1165,"gy":1166,"be":1167,"Ġfashion":1168,"Ġcontra":1169,"ba":1170,"orphic":1171,"Ġmu":1172,"yo":1173,"Ġmoun":1174,"Ġfire":1175,"chan":1176,"Ġthat":1177,"Ġarti":1178,"Ġenv":1179,"essional":1180,"Ġrain":1181,"cess":1182,"Ġillumin":1183,"Ġwind":1184,"Ġbra":1185,"ral":1186,"Ġwood":1187,"ving":1188,"Ġcontrast":1189,"no":1190,"ary":1191,"Ġpose":1192,"ĠRo":1193,"Ġbee":1194,"Ġroom":1195,"Ġbeksinski":1196,"ist":1197,"und":1198,"az":1199,"Ġcry":1200,"Ġlights":1201,"ones":1202,"ĠO":1203,"Ġclouds":1204,"Ġinter":1205,"Ġmagic":1206,"bius":1207,"Ġtom":1208,"Ġtw":1209,"Ġwal":1210,"borg":1211,"Ġsil":1212,"ami":1213,"Ġbrown":1214,"rough":1215,"Ġko":1216,"wer":1217,"Ġfrank":1218,"Ġfront":1219,"Ġinside":1220,"Ġenviron":1221,"Ġim":1222,"bacher":1223,"ling":1224,"vel":1225,"em":1226,"Ġsuit":1227,"Ġgoth":1228,"own":1229,"thetic":1230,"Ġshadow":1231,"itch":1232,"Ġgig":1233,"iver":1234,"cy":1235,"Ġpers":1236,"lie":1237,"Ġmas":1238,"Ġworld":1239,"high":1240,"Ġhyperdetailed":1241,"Ġmoon":1242,"led":1243,"Ġgr":1244,"Ġatmosphere":1245,"ndt":1246,"ag":1247,"color":1248,"Ġbut":1249,"Ġpink":1250,"Ġ/":1251,"omet":1252,"ug":1253,"Ġenvironment":1254,"way":1255,"her":1256,"Ġsea":1257,"ĠRutkowski":1258,"Ġdevi":1259,"rian":1260,"Ġ_":1261,"Ġmounta":1262,"brandt":1263,"hrbacher":1264,"Ġlow":1265,"Ġpen":1266,"Ġpic":1267,"lay":1268,"Ġrossdraws":1269,"ebius":1270,"ĠHD":1271,"Ġbat":1272,"ullins":1273,"ye":1274,"Ġinto":1275,"vid":1276,"ive":1277,"Ġtrac":1278,"Ġprofessional":1279,"Ġvin":1280,"apan":1281,"pired":1282,"Ġbeeple":1283,"Ġmin":1284,"Ġir":1285,"ms":1286,"orge":1287,"tions":1288,"jo":1289,"Ġmetal":1290,"antart":1291,"Ġbuild":1292,"if":1293,"su":1294,"Ġbus":1295,"Ġthrough":1296,"Ġcyborg":1297,"escent":1298,"Ġcor":1299,"Ġhands":1300,"Ġcomic":1301,"cient":1302,"Ġoff":1303,"room":1304,"esthetic":1305,"Ġtrans":1306,"Ġpale":1307,"Ġtop":1308,"Ġfig":1309,"icto":1310,"ath":1311,"est":1312,"Ġsurreal":1313,"Ġmy":1314,"Ġdrawing":1315,"Ġsmall":1316,"Ġillumination":1317,"Ġreflec":1318,"mm":1319,"hart":1320,"ons":1321,"Ġstr":1322,"Ġpsy":1323,"hance":1324,"Ġscre":1325,"Ġkn":1326,"iss":1327,"Ġatmospheric":1328,"Ġlit":1329,"ĠU":1330,"hyper":1331,"Ġdeviantart":1332,"Ġshort":1333,"Ġcamera":1334,"Ġaesthetic":1335,"avid":1336,"ump":1337,"ji":1338,"vil":1339,"Ġscul":1340,"Ġmodel":1341,"!!!!!!!!":1342,"Ġglobal":1343,"Ġrich":1344,"Ġarchite":1345,"Ġinspired":1346,"Ġmale":1347,"inting":1348,"aw":1349,"Ġshaded":1350,"Ġreal":1351,"Ġsteam":1352,"arle":1353,"Ġcraig":1354,"lying":1355,"cra":1356,"Ġsimon":1357,"Ġtech":1358,"do":1359,"enta":1360,"00":1361,"Ġcos":1362,"Ġvivid":1363,"gan":1364,"int":1365,"tian":1366,"Ġtho":1367,"zz":1368,"Ġfan":1369,"Ġshe":1370,"Ġanth":1371,"clo":1372,"atural":1373,"Ġcur":1374,"ior":1375,"ism":1376,"Ġpixiv":1377,"haw":1378,"Ġare":1379,"ert":1380,"ellow":1381,"Ġpur":1382,"Ġpost":1383,"Ġmohrbacher":1384,"Ġmoebius":1385,"ression":1386,"pture":1387,"Ġfeatures":1388,"ise":1389,"Ġmullins":1390,"Ġsub":1391,"rior":1392,"Ġchi":1393,"dess":1394,"Ġabo":1395,"Ġmedium":1396,"alf":1397,"cing":1398,"omorphic":1399,"ance":1400,"Ġbook":1401,"Ġeye":1402,"Ġalex":1403,"illiam":1404,"lit":1405,"Ġcentered":1406,"elic":1407,"apanese":1408,"ieval":1409,"well":1410,"iling":1411,"Ġpre":1412,"Ġpaint":1413,"chedelic":1414,"ometric":1415,"Ġgothic":1416,"Ġhdr":1417,"lis":1418,"ated":1419,"Ġmc":1420,"ĠJo":1421,"stract":1422,"di":1423,"Ġmark":1424,"Ġdef":1425,"Ġpart":1426,"paper":1427,"Ġvicto":1428,"Ġchar":1429,"ru":1430,"Ġsunset":1431,"keh":1432,"ony":1433,"ecker":1434,"Ġmac":1435,"Ġsing":1436,"Ġbea":1437,"cular":1438,"Ġrad":1439,"Ġair":1440,"usta":1441,"da":1442,"Ġyellow":1443,"Ġje":1444,"dle":1445,"Ġjack":1446,"Ġnatural":1447,"roid":1448,"Ġancient":1449,"ek":1450,"Ġwa":1451,"Ġdon":1452,"stal":1453,"ather":1454,"fo":1455,"Ġhyperrealism":1456,"))":1457,"Ġpurple":1458,"Ġaf":1459,"less":1460,"Ġbokeh":1461,"Ġ+":1462,"bert":1463,"ĠArtstation":1464,"wn":1465,"Ġmoody":1466,"oon":1467,"Ġmonster":1468,"Ġpixar":1469,"Ġbro":1470,"Ġyoshi":1471,"uve":1472,"Ġpi":1473,"ev":1474,"tional":1475,"atch":1476,"Ġstation":1477,"metry":1478,"Ġnor":1479,"Ġmichael":1480,"Ġop":1481,"ople":1482,"illene":1483,"Ġcloseup":1484,"face":1485,"rth":1486,"Ġcreature":1487,"Ġplan":1488,"Ġka":1489,"uveau":1490,"Ġwarrior":1491,"pper":1492,"illeneuve":1493,"dy":1494,"Ġgiger":1495,"ropomorphic":1496,"gshaw":1497,"cture":1498,"Ġbehance":1499,"sty":1500,"Ġcol":1501,"Ġtr":1502,"dz":1503,"Ġpaste":1504,"arth":1505,"Ġpor":1506,"Ġnew":1507,"Ġline":1508,"Ġday":1509,"Ġsto":1510,"ined":1511,"Ġinsane":1512,"ĠY":1513,"kes":1514,"Ġser":1515,"ndecker":1516,"ushart":1517,"renz":1518,"Ġfrac":1519,"Ġpicture":1520,"bb":1521,"Ġplaying":1522,"eng":1523,"dzis":1524,"close":1525,"aces":1526,"zed":1527,"Ġsn":1528,"Ġretro":1529,"Ġgoddess":1530,"og":1531,"illa":1532,"rome":1533,"Ġ19":1534,"ĠArtgerm":1535,"Ġway":1536,"cola":1537,"Ġpsychedelic":1538,"tto":1539,"orgeous":1540,"tical":1541,"Ġrid":1542,"Ġsteampunk":1543,"Ġwindow":1544,"Ġmodern":1545,"ten":1546,"Ġtree":1547,"Ġcast":1548,"Ġflying":1549,"Ġsmoke":1550,"Ġarchitecture":1551,"Ġsculpture":1552,"Ġsche":1553,"ĠAl":1554,"Ġkey":1555,"Ġfloating":1556,"full":1557,"Ġvilleneuve":1558,"Ġfin":1559,"chanical":1560,"Ġpastel":1561,"Ġbal":1562,"Ġwallpaper":1563,"Ġthomas":1564,"sion":1565,"Ġmedieval":1566,"Ġcart":1567,"Ġruan":1568,"aro":1569,"Ġdown":1570,"imalist":1571,"Ġclear":1572,"lim":1573,"con":1574,"Ġcomple":1575,"ca":1576,"Ġmagical":1577,"Ġone":1578,"ars":1579,"Ġside":1580,"Ġtracing":1581,"Ġhi":1582,"ming":1583,"Ġcomp":1584,"Ġes":1585,"Ġpeople":1586,"Ġjia":1587,"Ġtrees":1588,"ford":1589,"Ġbio":1590,"Ġdressed":1591,"Ġgrey":1592,"lish":1593,"Ġhel":1594,"ken":1595,"Ġgi":1596,"Ġhouse":1597,"imal":1598,"Ġhuge":1599,"Ġdri":1600,"Ġfractal":1601,"ith":1602,"ies":1603,"olf":1604,"Ġmiddle":1605,"Ġfigure":1606,"Ġjung":1607,"ird":1608,"Ġhat":1609,"Ġanima":1610,"onde":1611,"tation":1612,"Ġsurround":1613,"tar":1614,"Ġwatercolor":1615,"etti":1616,"Ġscheme":1617,"Ġve":1618,"Ġmax":1619,"ree":1620,"Ġhy":1621,"Ġmask":1622,"Ġflu":1623,"Ġhour":1624,"ĠZ":1625,"ĠMa":1626,"Ġbow":1627,"Ġnouveau":1628,"ugh":1629,"Ġink":1630,"ina":1631,"ants":1632,"Ġirid":1633,"etta":1634,"Ġplanet":1635,"Ġhard":1636,"Ġval":1637,"highly":1638,"Ġgorgeous":1639,"Ġyear":1640,"ĠThe":1641,"mano":1642,"Ġskull":1643,"Ġfigh":1644,"den":1645,"wave":1646,"Ġcoher":1647,"are":1648,"Ġabstract":1649,"ppy":1650,"irds":1651,"cha":1652,"ee":1653,"Ġbur":1654,"Ġtan":1655,"âĢĿ":1656,"Ġfeatured":1657,"lar":1658,"Ġhand":1659,"hip":1660,"Ġpar":1661,"Ġdavid":1662,"Ġsurrounded":1663,"Ġdeco":1664,"ible":1665,"Ġmach":1666,"Ġfog":1667,"Ġrob":1668,"Ġbla":1669,"Ġambi":1670,"cal":1671,"Ġanato":1672,"Ġshap":1673,"eck":1674,"Ġclean":1675,"Ġdemon":1676,"key":1677,"Ġaction":1678,"Ġter":1679,"maz":1680,"eremy":1681,"Ġimp":1682,"tio":1683,"siere":1684,"Ġger":1685,"Ġblonde":1686,"Ġbaarle":1687,"Ġind":1688,"ĠCh":1689,"umford":1690,"uture":1691,"Ġbre":1692,"ĠJames":1693,"ite":1694,"Ġfish":1695,"Ġshadows":1696,"rie":1697,"Ġleye":1698,"een":1699,"Ġleyendecker":1700,"Ġgian":1701,"Ġcoherent":1702,"hads":1703,"Ġ),":1704,"Ġpan":1705,"der":1706,"Ġmor":1707,"Ġscifi":1708,"Ġiridescent":1709,"Ġjapanese":1710,"Ġdisney":1711,"ges":1712,"Ġhalf":1713,"Ġtri":1714,"Ġeating":1715,"Ġset":1716,"Ġandre":1717,"Ġcartoon":1718,"Ġcushart":1719,"Ġbattle":1720,"enshot":1721,"etch":1722,"vy":1723,"sur":1724,"onald":1725,"Ġsand":1726,"ector":1727,"aston":1728,"Ġratio":1729,"Ġspaces":1730,"graphic":1731,"unge":1732,"graphy":1733,"Ġdesert":1734,"Ġrhads":1735,"zetta":1736,"Ġwilliam":1737,"Ġwalking":1738,"Ġwho":1739,"Ġambient":1740,"ves":1741,"Ġchris":1742,"duc":1743,"Ġloish":1744,"âĢľ":1745,"Ġbagshaw":1746,"Ġlois":1747,"very":1748,"Ġhar":1749,"cer":1750,"rial":1751,"Ġinsanely":1752,"ilde":1753,"Ġeff":1754,"Ġblur":1755,"!,":1756,"Ġbussiere":1757,"Ġbuilding":1758,"Ġlove":1759,"ĠAn":1760,"Ġkrenz":1761,"ily":1762,"ring":1763,"Ġaround":1764,"Ġtal":1765,"med":1766,"Ġorange":1767,"Ġcard":1768,"sian":1769,"hu":1770,"uer":1771,"bov":1772,"Ġtwo":1773,"Ġmagali":1774,"Ġvector":1775,"tt":1776,"rate":1777,"bl":1778,"Ġwayne":1779,"yp":1780,"Ġinf":1781,"urney":1782,"ury":1783,"hag":1784,"Ġast":1785,"Ġanthropomorphic":1786,"elan":1787,"ĠMo":1788,"xy":1789,"aut":1790,"Ġfro":1791,"Ġbeach":1792,"els":1793,"mp":1794,"Ġtable":1795,"Ġvintage":1796,"pping":1797,"water":1798,"ctive":1799,"Ġgaston":1800,"Ġknight":1801,"ler":1802,"Ġeffect":1803,"Ġgal":1804,"bovit":1805,"Ġmanga":1806,"bow":1807,"ildebrandt":1808,"iden":1809,"ross":1810,"Ġsilver":1811,"cean":1812,"uth":1813,"Ġnature":1814,"Ġprofile":1815,"((":1816,"stone":1817,"Ġeth":1818,"Ġbaro":1819,"ereal":1820,"Ġjeremy":1821,"Ġradiant":1822,"Ġnorman":1823,"sp":1824,"Ġrim":1825,"like":1826,"LO":1827,"Ġsymmetry":1828,"Ġdog":1829,"ora":1830,"lenhag":1831,"inkade":1832,"Ġbaroque":1833,"Ġx":1834,"Ġcrystal":1835,"rec":1836,"Ġsqu":1837,"Ġclothes":1838,"Ġsmiling":1839,"lian":1840,"side":1841,"Ġtime":1842,"Ġinterior":1843,"uro":1844,"Ġgusta":1845,"ab":1846,"Ġgiancola":1847,"Ġrockwell":1848,"Ġcolours":1849,"craft":1850,"Ġstat":1851,"Ġconte":1852,"inition":1853,"Ġamaz":1854,"Ġbru":1855,"painting":1856,"ana":1857,"LOP":1858,"kin":1859,"Ġgraphic":1860,"cher":1861,"Ġroman":1862,"ray":1863,"sym":1864,"Ġsam":1865,"Ġfacial":1866,"Ġperson":1867,"ica":1868,"ich":1869,"Ġcovered":1870,"Ġlines":1871,"ĠWLOP":1872,"Ġevil":1873,"Ġbas":1874,"Ġpower":1875,"Ġall":1876,"Ġstars":1877,"hd":1878,"Ġdonato":1879,"Ġstan":1880,"ze":1881,"Ġsnow":1882,"Ġmix":1883,"Ġsketch":1884,"Ġpal":1885,"inous":1886,"Ġcinema":1887,"Ġkim":1888,"oris":1889,"Ġble":1890,"Ġrays":1891,"Ġhas":1892,"lash":1893,"Ġdefinition":1894,"Ġanimation":1895,"Ġmumford":1896,"so":1897,"Ġmuted":1898,"Ġocean":1899,",,":1900,"ĠMar":1901,"Ġdim":1902,"Ġbrush":1903,"Ġwarm":1904,"Ġzdzis":1905,"lized":1906,"orm":1907,"Ġflower":1908,"arden":1909,"lowe":1910,"Ġscience":1911,"ex":1912,"Ġlightning":1913,"ula":1914,"Ġmagaz":1915,"ult":1916,"Ġstor":1917,"log":1918,"ik":1919,"Ġleather":1920,"Ġfrazetta":1921,"ronaut":1922,"Ġna":1923,"alist":1924,"Ġpop":1925,"Ġtur":1926,"Ġfer":1927,"gai":1928,"Ġcomplex":1929,"Ġhelmet":1930,"house":1931,"Ġriver":1932,"Ġmagazine":1933,"topian":1934,"aves":1935,"cle":1936,"oned":1937,"pocal":1938,"age":1939,"issance":1940,"Ġriding":1941,"Ġdistan":1942,"Ġqueen":1943,"Ġframe":1944,"men":1945,"Ġshow":1946,"Ġmacro":1947,"Ġalb":1948,"ĠMucha":1949,"uck":1950,"van":1951,"Ġspo":1952,"Ġsle":1953,"pocalyp":1954,"win":1955,"Ġethereal":1956,"Ġcent":1957,"ider":1958,"Ġmuscular":1959,"Ġass":1960,"ass":1961,"Ġcosmic":1962,"brush":1963,"Ġboy":1964,"Ġvisual":1965,"ale":1966,"icial":1967,"Ġice":1968,"omb":1969,"Ġphotorealism":1970,"Ġkar":1971,"Ġmountain":1972,"Ġwings":1973,"Ġmass":1974,"Ġcastle":1975,"Ġkinkade":1976,"Ġexpression":1977,"Ġjes":1978,"ggy":1979,"..":1980,"orn":1981,"host":1982,"netic":1983,"nie":1984,"Ġgar":1985,"mi":1986,"Ġinc":1987,"Ġanimal":1988,"zy":1989,"elf":1990,"Ġswor":1991,"Ġrun":1992,"ham":1993,"Ġshirt":1994,"Ġking":1995,"rot":1996,"iction":1997,"Ġandroid":1998,"cute":1999,"Ġstone":2000,"Ġscen":2001,"Ġpark":2002,"Ġpalette":2003,"Ġscreenshot":2004,"Ġmys":2005,"tty":2006,"Ġprincess":2007,"Ġfighting":2008,"zard":2009,"Ġflowing":2010,"pec":2011,"Ġamazing":2012,"Ġvide":2013,"minous":2014,"pro":2015,"ĠLe":2016,"brid":2017,"Ġpatter":2018,"Ġopen":2019,"Ġexplo":2020,"ĠðŁ":2021,"elly":2022,"Ġstatue":2023,"Ġwild":2024,"usion":2025,"Ġabove":2026,"sho":2027,"Ġstrong":2028,"Ġcolored":2029,"Ġche":2030,"Ġph":2031,"ved":2032,"Ġmountains":2033,"ffy":2034,"epy":2035,"sky":2036,"iti":2037,"Ġus":2038,"uring":2039,"Ġden":2040,"uter":2041,"ĠJean":2042,"inematic":2043,"Ġhandsome":2044,"Ġtim":2045,"ette":2046,"Ġrule":2047,"Ġheads":2048,"Ġorgan":2049,"of":2050,"kele":2051,"naissance":2052,"ola":2053,"Ġgarden":2054,"Ġstanley":2055,"illeard":2056,"Ġya":2057,"ĠSh":2058,"urt":2059,"Ġtall":2060,"hiro":2061,"!!,":2062,"Ġartist":2063,"Ġhan":2064,"taka":2065,"Ġpaper":2066,"ining":2067,"Ġdys":2068,"Ġproduc":2069,"ness":2070,"Ġlittle":2071,"Ġangel":2072,"Ġngai":2073,"rim":2074,"Ġcap":2075,"Ġstalenhag":2076,"Ġtem":2077,"Ġhumanoid":2078,"Ġ]":2079,"Ġfaces":2080,"jima":2081,"Ġsurrealism":2082,"law":2083,"ican":2084,"Ġfiction":2085,"rit":2086,"Ġclass":2087,"Ġfuture":2088,"hind":2089,"ents":2090,"Ġmul":2091,"Ġdesigned":2092,"Ġgen":2093,"Ġspaceship":2094,"sed":2095,"Ġcir":2096,"Ġtatto":2097,"bs":2098,"Ġmead":2099,"Ġearth":2100,"head":2101,"Ġstra":2102,"ĠTre":2103,"Ġ;":2104,"Ġghost":2105,"Ġheavy":2106,"Ġaki":2107,"Ġarmo":2108,"ding":2109,"cil":2110,"Ġshoul":2111,"bles":2112,"Ġastronaut":2113,"oc":2114,"Ġemo":2115,"Ġedward":2116,"Ġthirds":2117,"Ġcg":2118,"ore":2119,"Ġgrim":2120,"andoned":2121,"Ġbehind":2122,"Ġic":2123,"Ġmachine":2124,"tractive":2125,"Ġwitch":2126,"ĠEd":2127,"ĠRoss":2128,"Ġstylized":2129,"Ġsingle":2130,"Ġwas":2131,"Ġhybrid":2132,"pective":2133,"ĠDe":2134,"ressive":2135,"ĠAlphonse":2136,"op":2137,"Ġrendering":2138,"Ġbarlowe":2139,"odak":2140,"Ġperspective":2141,"allow":2142,"Ġfox":2143,"Ġhappy":2144,"Ġlake":2145,"Ġbeard":2146,"Ġamano":2147,"Ġhildebrandt":2148,"Ġvilla":2149,"ĠPa":2150,"gram":2151,"Ġlogo":2152,"Ġacc":2153,"Ġglasses":2154,"Ġapocalyp":2155,"Ġ[":2156,"berpunk":2157,"Ġfair":2158,"ndy":2159,"ng":2160,"uguer":2161,"Ġsum":2162,"ÅĤ":2163,"oks":2164,"Ġau":2165,"Ġmist":2166,"Ġmer":2167,"Ġlush":2168,"Ġsmile":2169,"Ġfurry":2170,"Ġblood":2171,"ball":2172,"Ġrenaissance":2173,"Ġtrump":2174,"Ġpretty":2175,"rava":2176,"Ġsad":2177,"ĠUn":2178,"Ġprint":2179,"Ġcharlie":2180,"Ġmad":2181,"ortrait":2182,"rick":2183,"Ġwat":2184,"Ġiv":2185,"Ġfu":2186,"Ġhero":2187,"Ġlege":2188,"Ġfre":2189,"lin":2190,"Ġcybernetic":2191,"Ġmarble":2192,"rist":2193,"lism":2194,"Ġjacket":2195,"Ġwet":2196,"pped":2197,"Ġbeing":2198,"Ġcrow":2199,"bu":2200,"Ġcrown":2201,"Ġwea":2202,"hiko":2203,"Ġdirec":2204,"Ġban":2205,"stro":2206,"Ġlooks":2207,"Ġsword":2208,"Ġbed":2209,"nth":2210,"Ġhood":2211,"unt":2212,"Ġscho":2213,"ov":2214,"Ġdrawn":2215,"Ġcel":2216,"Ġyou":2217,"Ġcomputer":2218,"ushroom":2219,"Ġpolar":2220,"Ġreflections":2221,"ilm":2222,"ĠBe":2223,"Ġga":2224,"limt":2225,"xt":2226,"ĠTrending":2227,"ggio":2228,"The":2229,"Ġround":2230,"let":2231,"Ġtemple":2232,"Ġgrain":2233,"Ġrainbow":2234,"rent":2235,"yami":2236,"Ġtor":2237,"lejo":2238,"Ġgurney":2239,"ally":2240,"ÅĤaw":2241,"lad":2242,"keleton":2243,"Ġvideo":2244,"ruc":2245,"Ġmarc":2246,"ets":2247,"Ġuniver":2248,"gent":2249,"ravaggio":2250,"Ġbowater":2251,"erie":2252,"cis":2253,"Ġdnd":2254,"Ġmany":2255,"Ġjungle":2256,"lain":2257,"Ġcreepy":2258,"Ġother":2259,"tes":2260,"Ġits":2261,"Ġlip":2262,"watch":2263,"Ġsung":2264,"Ġchild":2265,"uguereau":2266,"fish":2267,"logy":2268,"une":2269,"jsing":2270,"Ġsimple":2271,"Ġabandoned":2272,"ced":2273,"Ġnext":2274,"cles":2275,"Ġkat":2276,"berg":2277,"ĠSt":2278,"Ġpunk":2279,"Ġce":2280,"its":2281,"shing":2282,"Ġmushroom":2283,"Ġcal":2284,"quid":2285,"apor":2286,"Ġdust":2287,"rey":2288,"Ġgradi":2289,"Ġsunny":2290,"izon":2291,"Ġsplash":2292,"Ġdystopian":2293,"inity":2294,"pire":2295,"Ġorganic":2296,"Ġflat":2297,"Ġber":2298,"Ġ20":2299,"gu":2300,"!!!,":2301,"ari":2302,"ĠSim":2303,"Ġplants":2304,"Ġjew":2305,"Ġthick":2306,"Ġcris":2307,"Ġeng":2308,"enti":2309,"Ġground":2310,"cre":2311,"Ġmechanical":2312,"Ġfoggy":2313,"Ġdrin":2314,"ĠEn":2315,"au":2316,"Ġunderwater":2317,"Ġmyster":2318,"listic":2319,"Ġgood":2320,"ĠAnd":2321,"rthstone":2322,"ume":2323,"atter":2324,"Ġrem":2325,"Ġgrass":2326,"An":2327,"phe":2328,"Ġclothing":2329,"Ġty":2330,"Ġwizard":2331,"Ġmicro":2332,"por":2333,"Ġball":2334,"inese":2335,"ired":2336,"ned":2337,"play":2338,"Ġamer":2339,"Ġstro":2340,"Ġtiny":2341,"Ġlook":2342,"Ġhq":2343,"Ġshiny":2344,"Ġuhd":2345,"Ġdiff":2346,"phen":2347,"Ġcow":2348,"Ġscary":2349,"hns":2350,"Ġplay":2351,"rty":2352,"girl":2353,"ink":2354,"concept":2355,"lan":2356,"Station":2357,"fine":2358,"Ġshape":2359,"Ġri":2360,"Ġattractive":2361,"ory":2362,"ading":2363,"Ġshapes":2364,"Ġfloor":2365,"Ġbli":2366,"Ġneb":2367,"Ġbaby":2368,"ries":2369,"ja":2370,"Ġdel":2371,"hnson":2372,"Ġbet":2373,"Ġhorse":2374,"urg":2375,"ban":2376,"Ġhopper":2377,"field":2378,"onder":2379,"Ġdead":2380,"ĠArtStation":2381,"dark":2382,"boy":2383,"Ġmixed":2384,"Ġsmoking":2385,"Ġbear":2386,"tain":2387,"Ġtower":2388,"ments":2389,"aco":2390,"Ġgala":2391,"ĠHo":2392,"mes":2393,"Ġmen":2394,"Ġhearthstone":2395,"box":2396,"bin":2397,"Ġpencil":2398,"wo":2399,"celain":2400,"Ġry":2401,"Ġsal":2402,"Ġcho":2403,"Ġartistic":2404,"Ġbak":2405,"Ġabout":2406,"pple":2407,"Ġfoo":2408,"anime":2409,"Ġboris":2410,"Ġrep":2411,"Ġgilleard":2412,"Ġshading":2413,"ged":2414,"Ġmel":2415,"realist":2416,"Ġgeometric":2417,"zaki":2418,"Ġsold":2419,"lucent":2420,"ĠUnreal":2421,"lita":2422,"Ġwooden":2423,"can":2424,"ald":2425,"ĠFran":2426,"Ġlisa":2427,"Ġjesper":2428,"Ġmassive":2429,"unny":2430,"Ġwhile":2431,"Ġwinner":2432,"Ġhill":2433,"board":2434,"Ġklimt":2435,"fit":2436,"Ġporcelain":2437,"cessing":2438,"Ġuniverse":2439,"Ġejsing":2440,"Ġfinal":2441,"Ġsli":2442,"lasses":2443,"Ġtechno":2444,"Ġyoshitaka":2445,"Ġliquid":2446,"Ġcla":2447,"pher":2448,"echa":2449,"pera":2450,"terest":2451,"Ġlady":2452,"HD":2453,"Ġwolf":2454,"tory":2455,"Ġincred":2456,"Ġmake":2457,"jes":2458,"tel":2459,"pty":2460,"lumin":2461,"Ġscreen":2462,"Ġstorm":2463,"ĠHigh":2464,"Ġfairy":2465,"seph":2466,"aki":2467,"ita":2468,"Ġspi":2469,"cho":2470,"Ġominous":2471,"Ġjones":2472,"Ġschool":2473,"ustrial":2474,"Ġpolaroid":2475,"uty":2476,"Ġvapor":2477,"Ġdelic":2478,"ustin":2479,"Ġcrisp":2480,"lent":2481,"ndo":2482,"uturism":2483,"Ġver":2484,"ork":2485,"ded":2486,"Ġalbum":2487,"Ġtro":2488,"parent":2489,"Ġ35":2490,"Ġromantic":2491,"Ġornam":2492,"Ġocc":2493,"ĠRe":2494,"urate":2495,"Ġpoly":2496,"Ġener":2497,"Ġneck":2498,"Ġrus":2499,"Ġanders":2500,"ĠYo":2501,"ils":2502,"Ġlifelike":2503,"Ġwires":2504,"ĠPhoto":2505,"ĠMark":2506,"vg":2507,"ib":2508,"Ġsyd":2509,"Ġsynth":2510,"Ġwu":2511,"Ġfood":2512,"gged":2513,"rone":2514,"com":2515,"line":2516,"lies":2517,"Ġofficial":2518,"Ġrembrandt":2519,"Ġmouth":2520,"Ġeerie":2521,"Ġproduct":2522,"Ġjoe":2523,"Ġcave":2524,"Ġillustra":2525,"mar":2526,"Ġship":2527,"Ġtranslucent":2528,"Ġmes":2529,"Ġscatter":2530,"Ġnebula":2531,"Ġju":2532,"Ġunif":2533,"urai":2534,"ĠEngine":2535,"yazaki":2536,"Ġdeath":2537,"Ġdancing":2538,"Ġmorning":2539,"futuristic":2540,"ardo":2541,"Ġvillage":2542,"Ġsunglasses":2543,"19":2544,"ots":2545,"Ġhorizon":2546,"mical":2547,"Ġdreamy":2548,"Ġhaired":2549,"Ġfrog":2550,"upp":2551,"tch":2552,"Ġcli":2553,"Ġthin":2554,"ĠSte":2555,"Ġdol":2556,"eth":2557,"Ġlegends":2558,"Ġmystical":2559,"Ġvallejo":2560,"Ġgun":2561,"Ġfootage":2562,"ĠIn":2563,"chrome":2564,"Ġeld":2565,"black":2566,"Ġrap":2567,"Ġminimalist":2568,"digital":2569,"Ġspec":2570,"yama":2571,"Ġbiome":2572,"ject":2573,"Ġicon":2574,"ffiti":2575,"Ġstrange":2576,"ident":2577,"Ġdistance":2578,"Ġblender":2579,"Ġmecha":2580,"tomo":2581,"Ġlinework":2582,"Ġfle":2583,"Ġcost":2584,"Ġlee":2585,"Ġtextures":2586,"Ġsat":2587,"uit":2588,"Ġob":2589,"ween":2590,"Ġedges":2591,"Ġsimonetti":2592,"Ġvam":2593,"Ġend":2594,"Ġtown":2595,"Ġmysterious":2596,"chev":2597,"Ġcurly":2598,"chess":2599,"war":2600,"symmetrical":2601,"rad":2602,"Ġcontest":2603,"Ġcross":2604,"vad":2605,"Ġraytra":2606,"Ġear":2607,"tanley":2608,"Ġaccurate":2609,"ĠSimon":2610,"Ġfar":2611,"bre":2612,"ash":2613,"Ġoutfit":2614,"Ġvictorian":2615,"Ġhad":2616,"tho":2617,"Ġwell":2618,"Ġedi":2619,"ai":2620,"Ġisometric":2621,"Ġhot":2622,"Ġuniform":2623,"Ġsteve":2624,"ĠNe":2625,"chi":2626,"star":2627,"Ġbetween":2628,"Ġgustave":2629,"iabovit":2630,"ses":2631,"iabovitchev":2632,"Ġarch":2633,"mid":2634,"Ġsummer":2635,"Ġmedia":2636,"Ġindustrial":2637,"Ġfluffy":2638,"thers":2639,"michan":2640,"Ġpinterest":2641,"Ġsol":2642,"Ġempty":2643,"mus":2644,"uki":2645,"Ġposing":2646,"Ġoverwatch":2647,"moto":2648,"under":2649,"ero":2650,"ni":2651,"cyberpunk":2652,"Ġhell":2653,"Ġgrand":2654,"Ġsar":2655,"Ġlas":2656,"Ġstri":2657,"Ġcentury":2658,"fx":2659,"lig":2660,"Ġapocalyptic":2661,"Ġshallow":2662,"Ġcub":2663,"Ġrunning":2664,"ging":2665,"Ġsna":2666,"Ġlau":2667,"Ġgear":2668,"Ġtransparent":2669,"Ġfall":2670,"Ġlot":2671,"film":2672,"Ġblade":2673,"Ġultrafine":2674,"Portrait":2675,"Ġham":2676,"Ġstic":2677,"ĠJohn":2678,"Ġcaravaggio":2679,"Ġben":2680,"Ġstruc":2681,"Ġbrom":2682,"Ġelec":2683,"Ġbreath":2684,"lusion":2685,"Ġyoshida":2686,"Ġbird":2687,"Ġbouguereau":2688,"fall":2689,"Ġpaul":2690,"Ġspider":2691,"Ġsome":2692,"lord":2693,"Ġleaves":2694,"tis":2695,"Ġpowerful":2696,"Ġgraffiti":2697,"ĠBo":2698,"vent":2699,"olo":2700,"Ġkojima":2701,"antastic":2702,"ĠStanley":2703,"Ġbuildings":2704,"Ġcanon":2705,"pg":2706,"rif":2707,"Ġfore":2708,"Ġroad":2709,"ĠAndre":2710,"Ġja":2711,"Ġarms":2712,"bbit":2713,"Ġsheet":2714,"ĠPeter":2715,"epic":2716,"Ġdoc":2717,"Ġears":2718,"litary":2719,"Ġwatson":2720,"Ġstructure":2721,"Ġsetting":2722,"Ġdrinking":2723,"Ġfam":2724,"Ġskeleton":2725,"tri":2726,"Ġsec":2727,"tense":2728,"ational":2729,"Ġkarol":2730,"sson":2731,"Ġgreat":2732,"roup":2733,"Ġwonder":2734,"Ġheadshot":2735,"sch":2736,"Ġpropor":2737,"Ġangry":2738,"inestill":2739,"Ġrobes":2740,"lustration":2741,"Ġbot":2742,"Ġbacklit":2743,"hail":2744,"Ġelf":2745,"Ġesta":2746,"Ġleng":2747,"Ġpainter":2748,"Ġpoint":2749,"Ġwars":2750,"Ġkatsu":2751,"taking":2752,"Ġdec":2753,"Ġstephen":2754,"Ġmulti":2755,"Ġtak":2756,"Ġcell":2757,"scuro":2758,"Ġneo":2759,"Ġportal":2760,"Ġcinemato":2761,"coco":2762,"onza":2763,"aroscuro":2764,"omen":2765,"hyperrealistic":2766,"achin":2767,"hen":2768,"Ġlength":2769,"Ġintense":2770,"lage":2771,"Ġcloak":2772,"Ġbutter":2773,"Ġelectric":2774,"acon":2775,"tom":2776,"Ġmir":2777,"Ġartif":2778,"Ġmanchess":2779,"Ġlux":2780,"blishing":2781,"Ġdunge":2782,"Ġvaporwave":2783,"Ġexpo":2784,"ces":2785,"Ġamerican":2786,"Ġswim":2787,"Ġatta":2788,"Ġbox":2789,"Ġayami":2790,"Ġvampire":2791,"lex":2792,"Ġrobotic":2793,"cinematic":2794,"Ġtravel":2795,"Ġsoul":2796,"ague":2797,"eye":2798,"ret":2799,"inkawa":2800,"Ġsquare":2801,"Ġchiaroscuro":2802,"Ġrunner":2803,"Ġgray":2804,"Ġleon":2805,"oo":2806,"Ġthree":2807,"Ġtank":2808,"ĠHDR":2809,"lite":2810,"ĠzdzisÅĤaw":2811,"Ġdirected":2812,"Ġdelicate":2813,"scent":2814,"mash":2815,"ombie":2816,"Ġteen":2817,"enami":2818,"Ġevery":2819,"Ġfanart":2820,"Ġbeauty":2821,"Ġsign":2822,"ĠMi":2823,"Ġshaped":2824,"itt":2825,"ao":2826,"ls":2827,"lock":2828,"Ġteeth":2829,"ritte":2830,"elb":2831,"Ġlegs":2832,"Ġchinese":2833,"Ġswirl":2834,"core":2835,"bur":2836,"style":2837,"Ġcoat":2838,"Ġanatomy":2839,"Ġgrainy":2840,"Ġspir":2841,"Ġvray":2842,"Ġtarot":2843,"Ġdecora":2844,"urgens":2845,"Ġcostume":2846,"ator":2847,"ense":2848,"Ġcand":2849,"night":2850,"Ġbiomechanical":2851,"Ġcas":2852,"mamoto":2853,"Ġflare":2854,"Ġsamurai":2855,"rench":2856,"Ġgloom":2857,"Ġspark":2858,"ader":2859,"fra":2860,"Ġgalaxy":2861,"ison":2862,"Ġpath":2863,"iel":2864,"rylic":2865,"struc":2866,"Ġwav":2867,"quis":2868,"san":2869,"closeup":2870,"Ġestablishing":2871,"vgren":2872,"Ġwatch":2873,"Ġwalls":2874,"unter":2875,"ders":2876,"Ġgla":2877,"bovitz":2878,"jestic":2879,"Ġpig":2880,"Ġever":2881,"wal":2882,"!!!!!!!!!!!!!!!!":2883,"surface":2884,"Ġdore":2885,"kato":2886,"Ġpattern":2887,"Ġrey":2888,"Ġtheir":2889,"Ġultradetailed":2890,"Ġillustrated":2891,"Ġimpression":2892,"Ġbiolumin":2893,"lia":2894,"rise":2895,"Ġni":2896,"Ġnear":2897,"Ġstud":2898,"Ġheart":2899,"Ġmilitary":2900,"Ġwha":2901,"Ġphotosho":2902,"Ġstrokes":2903,"uan":2904,"Ġanatomical":2905,"Ġvisible":2906,"Ġscattering":2907,"ii":2908,"hou":2909,"Ġern":2910,"vis":2911,"Ġjim":2912,"Ġfantastic":2913,"Ġplastic":2914,"etro":2915,"character":2916,"ĠBeksinski":2917,"Ġbloom":2918,"Ġdepic":2919,"Ġenergy":2920,"oking":2921,"nab":2922,"Ġmini":2923,"Ġki":2924,"Ġaccent":2925,"ried":2926,"Ġkodak":2927,"Ġform":2928,"Ġsed":2929,"Ġke":2930,"Ġmotion":2931,"Ġguy":2932,"eat":2933,"Ġraytracing":2934,"Ġexpressive":2935,"Ġrococo":2936,"Ġmart":2937,"Ġgroup":2938,"Ġtaken":2939,"Ġbub":2940,"Ġnose":2941,"reaming":2942,"Ġryden":2943,"Ġgta":2944,"Ġmirror":2945,"Ġliving":2946,"ĠDan":2947,"usk":2948,"uff":2949,"Ġmike":2950,"Ġgrow":2951,"book":2952,"Ġnic":2953,"gain":2954,"Ġbeautifully":2955,"Ġate":2956,"Ġcool":2957,"woman":2958,"Ġannie":2959,"lown":2960,"Ġrec":2961,"Ġself":2962,"Ġgradient":2963,"Ġextra":2964,"hailan":2965,"ichael":2966,"olphe":2967,"ĠMc":2968,"viet":2969,"Ġwest":2970,"Ġmil":2971,"Ġsunlight":2972,"Ġanam":2973,"Ġtattoo":2974,"ogue":2975,"Ġaenami":2976,"Ġreflective":2977,"Ġdali":2978,"Ġski":2979,"Ġza":2980,"ĠBa":2981,"Ġjewel":2982,"Ġcut":2983,"din":2984,"Ġapp":2985,"Ġtooth":2986,"Ġleague":2987,"ĠTom":2988,"Ġanamorphic":2989,"ĠAr":2990,"Ġagain":2991,"Ġfanbox":2992,"Ġbruta":2993,"Ġdev":2994,"Ġmann":2995,"Ġscenery":2996,"Ġfilled":2997,"bor":2998,"labo":2999,"Ġur":3000,"Ġemer":3001,"Ġakihiko":3002,"Ġbeer":3003,"Ġbord":3004,"ĠPo":3005,"Ġacrylic":3006,"edi":3007,"Ġdragons":3008,"gal":3009,"Ġhim":3010,"Ġgeo":3011,"Ġtar":3012,"rect":3013,"Ġnin":3014,"Ġgreek":3015,"Ġholo":3016,"Ġgil":3017,"Ġjeff":3018,"Ġyears":3019,"Ġkyo":3020,"iger":3021,"Ġjelly":3022,"Ġsoldier":3023,"ized":3024,"Ġalena":3025,"lot":3026,"Ġdiv":3027,"lid":3028,"Ġpirate":3029,"Ġburning":3030,"Ġafter":3031,"las":3032,"Ġmand":3033,"Ġpool":3034,"lr":3035,"oil":3036,"Ġgustav":3037,"Ġbutterf":3038,"vador":3039,"Ġdr":3040,"Ġtake":3041,"bar":3042,"Ġernst":3043,"Ġpres":3044,"Ġlin":3045,"Ġfrancis":3046,"vern":3047,"ped":3048,"Ġwaterfall":3049,"Ġfrie":3050,"Ġlost":3051,"Ġwindows":3052,"ache":3053,"pla":3054,"Ġnoir":3055,"Ġheaven":3056,"lum":3057,"nold":3058,"Ġseen":3059,"Ġbob":3060,"ander":3061,"ua":3062,"table":3063,"world":3064,"photograph":3065,"Ġportra":3066,"Ġghailan":3067,"orable":3068,"Ġairbrush":3069,"Ġsymmetric":3070,"ĠMakoto":3071,"Ġasymmetrical":3072,"useum":3073,"Ġnational":3074,"ade":3075,"Ġjoseph":3076,"phone":3077,"asley":3078,"mod":3079,"Ġsor":3080,"Ġatey":3081,"Ġzdzislaw":3082,"ssy":3083,"body":3084,"topus":3085,"Ġpear":3086,"Ġrobe":3087,"Ġthis":3088,"Ġmakeup":3089,"enn":3090,"cking":3091,"Ġchrome":3092,"Ġwomen":3093,"Ġweta":3094,"Ġring":3095,"Ġcream":3096,"Ġbold":3097,"Ġarmour":3098,"hol":3099,"pora":3100,"Ġpartic":3101,"ibovitz":3102,"ono":3103,"istic":3104,"Ġyoji":3105,"ental":3106,"right":3107,"pical":3108,"lights":3109,"Ġmono":3110,"rican":3111,"Ġblan":3112,"masz":3113,"Ġkatsuhiro":3114,"Ġbroken":3115,"lished":3116,"Ġtones":3117,"Ġgonza":3118,"Ġroy":3119,"Ġgira":3120,"ĠShinkai":3121,"Ġdirty":3122,"Ġgam":3123,"ĠPainting":3124,"Ġmajestic":3125,"Ġshoulders":3126,"Ġfir":3127,"Ġlion":3128,"quisite":3129,"works":3130,"Ġthere":3131,"Ġshining":3132,"ĠLo":3133,"Ġshinkawa":3134,"ville":3135,"Ġblond":3136,"),":3137,"nington":3138,"Ġbrid":3139,"Ġhalo":3140,"antic":3141,"Ġdawn":3142,"Ġgrunge":3143,"ius":3144,"gar":3145,"ffinity":3146,"wood":3147,"Ġyork":3148,"ku":3149,"tial":3150,"otic":3151,"Ġwhelan":3152,"Ġjohan":3153,"Ġkopera":3154,"Ġagainst":3155,"des":3156,"Ġlipkin":3157,"Ġtheme":3158,"Ġcot":3159,"Ġaccents":3160,"uchi":3161,"Ġbase":3162,"Ġcoff":3163,"Ġjosan":3164,"lla":3165,"roud":3166,"Ġhadid":3167,"Ġclay":3168,"Ġcolourful":3169,"Ġdoor":3170,"Ġmetallic":3171,"Ġmusic":3172,"ship":3173,"Ġbiden":3174,"Ġdia":3175,"kemon":3176,"Ġhuang":3177,"ĠMichael":3178,"tail":3179,"ĠNo":3180,"Ġdiam":3181,"for":3182,"Ġlate":3183,"Ġotomo":3184,"Ġrpg":3185,"Ġisland":3186,"Ġchair":3187,"Ġcig":3188,"roc":3189,"time":3190,"Ġglit":3191,"Ġdof":3192,"stagram":3193,"Ġmost":3194,"Ġslight":3195,"20":3196,"Ġoutside":3197,"Ġhall":3198,"ĠAmano":3199,"kyo":3200,"af":3201,"Ġtoy":3202,"uache":3203,"Ġscienti":3204,"Ġasian":3205,"Ġrichard":3206,"iller":3207,"Ġsargent":3208,"Ġsurface":3209,"Ġpy":3210,"Ġmiyazaki":3211,"Ġbruce":3212,"ason":3213,"Ġjewelry":3214,"terial":3215,"unch":3216,"ĠEdward":3217,"Ġdre":3218,"Ġbliss":3219,"Ġmech":3220,"Ġband":3221,"Ġspirit":3222,"Ġiron":3223,"lip":3224,"ï¼":3225,"Ġhow":3226,"Ġfloral":3227,"Ġds":3228,"urry":3229,"Ġmars":3230,"Ġjan":3231,"Ġmelting":3232,"Ġanderson":3233,"Ġscale":3234,"Ġplate":3235,"Ġthrone":3236,"Ġparts":3237,"Ġparty":3238,"wide":3239,"Ġdestro":3240,"arrow":3241,"Ġonly":3242,"Ġupper":3243,"Ġadorable":3244,"Ġduring":3245,"itz":3246,"Ġjohnson":3247,"Ġcliff":3248,"ah":3249,"lace":3250,"Ġwinter":3251,"pen":3252,"part":3253,"Ġadvent":3254,"two":3255,"Ġoctopus":3256,"ett":3257,"Ġkit":3258,"Ġcoming":3259,"mann":3260,"Ġmich":3261,"rtx":3262,"ditional":3263,"Ġdonald":3264,"Ġlord":3265,"Ġbosch":3266,"Ġseduc":3267,"Ġbul":3268,"lice":3269,"master":3270,"inn":3271,"Ġscot":3272,"Ġhid":3273,"ening":3274,"ured":3275,"Ġsi":3276,"Ġincredible":3277,"Ġsynthwave":3278,"winning":3279,"Ġmuseum":3280,"Ġcold":3281,"Ġpier":3282,"izza":3283,"porary":3284,"60":3285,"kov":3286,"50":3287,"Ġhaun":3288,"urated":3289,"act":3290,"Ġelvgren":3291,"mat":3292,"Ġemma":3293,"Ġmood":3294,"Ġconf":3295,"out":3296,"ï¼Į":3297,"Ġlab":3298,"Ġcowboy":3299,"Ġfat":3300,"Ġvogue":3301,"sive":3302,"Ġvo":3303,"ific":3304,"gers":3305,"Ġid":3306,"max":3307,"ĠCG":3308,"Ġzombie":3309,"Ġmagritte":3310,"Ġlips":3311,"pson":3312,"Ġmisty":3313,"ĠSimonetti":3314,"Ġwhi":3315,"Ġgraphics":3316,"laborate":3317,"Ġanton":3318,"yan":3319,"Ġgouache":3320,"ered":3321,"lya":3322,"vin":3323,"ĠStudio":3324,"inal":3325,"Ġfamily":3326,"Ġandreas":3327,"Ġtone":3328,"kini":3329,"Ġhol":3330,"Ġeach":3331,"Ġbrain":3332,"zen":3333,"Ġbad":3334,"ĠZdzis":3335,"Ġmaya":3336,"uch":3337,"Ġhome":3338,"minal":3339,"still":3340,"Ġtv":3341,"fantasy":3342,"Ġtomasz":3343,"inger":3344,"Ġwavy":3345,"Ġruins":3346,"Ġcomics":3347,"hammer":3348,"zu":3349,"Ġclu":3350,"Ġoffice":3351,"Ġmaterial":3352,"Ġara":3353,"Ġer":3354,"Ġvfx":3355,"Ġusing":3356,"fa":3357,"Ġvision":3358,"ĠMarc":3359,"Ġsan":3360,"Ġshowing":3361,"logical":3362,"donald":3363,"Ġstreets":3364,"Ġseductive":3365,"ĠDavid":3366,"ordan":3367,"door":3368,"Ġfrench":3369,"eckel":3370,"âĢĻ":3371,"Ġow":3372,"rid":3373,"Ġcinematography":3374,"Ġva":3375,"))))":3376,"Ġcoffee":3377,"day":3378,"har":3379,"chini":3380,"Ġfab":3381,"cut":3382,"sure":3383,"rifying":3384,"Ġtenta":3385,"qui":3386,"Ġalen":3387,"young":3388,"Ġkid":3389,"Ġthunder":3390,"Ġscreaming":3391,"Ġswirling":3392,"ĠPix":3393,"urie":3394,"Ġcinestill":3395,"Ġchrist":3396,"Ġlone":3397,"Ġris":3398,"ĠIlya":3399,"Ġtrain":3400,"saur":3401,"Ġbacon":3402,"craf":3403,"Ġclown":3404,"ats":3405,"uel":3406,"Ġtakashi":3407,"torial":3408,"rig":3409,"Ġrabbit":3410,"Ġexquisite":3411,"ĠKo":3412,"ĠLau":3413,"ĠEl":3414,"Ġsymbo":3415,"ori":3416,"urata":3417,"Ġstory":3418,"nt":3419,"Ġsurrealist":3420,"bat":3421,"Ġbikini":3422,"Ġhang":3423,"Ġ#":3424,"Ġlast":3425,"frame":3426,"Ġdean":3427,"ĠSp":3428,"Ġalbert":3429,"Ġspe":3430,"Ġemb":3431,"ĠMon":3432,"Ġmage":3433,"Ġemotional":3434,"ĠYoshi":3435,"giant":3436,"lear":3437,"Ġdripping":3438,"Ġmarvel":3439,"Ġminima":3440,"Ġultrarealistic":3441,"rying":3442,"Ġenti":3443,"rak":3444,"hor":3445,"Ġgeographic":3446,"craftian":3447,"here":3448,"mporary":3449,"stern":3450,"Ġflash":3451,"Ġsubsurface":3452,"Ġclassic":3453,"Ġstraight":3454,"Ġkir":3455,"movie":3456,"Ġweird":3457,"Ġgather":3458,"Ġral":3459,"Ġelaborate":3460,"yed":3461,"Art":3462,"Ġprocessing":3463,"thing":3464,"Ġcosplay":3465,"terior":3466,"sona":3467,"photorealistic":3468,"Ġfocused":3469,"Ġchristian":3470,"mber":3471,"Ġanthro":3472,"Ġzaha":3473,"Ġbreathtaking":3474,"lowing":3475,"Ġvege":3476,"Ġsaki":3477,"Ġrene":3478,"ĠAd":3479,"Ġtraditional":3480,"Ġcollage":3481,"Ġgogh":3482,"Ġdimen":3483,"dinand":3484,"ĠâĢĿ":3485,"thed":3486,"Ġbrian":3487,"Ġvalley":3488,"ustic":3489,"Ġrtx":3490,"ada":3491,"Ġstage":3492,"Ġgate":3493,"Ġarcane":3494,"houette":3495,"Ġvar":3496,"ĠWilliam":3497,"Ġfemin":3498,"Ġglitch":3499,"Ġoverg":3500,"pes":3501,"anth":3502,"imir":3503,"Ġswimming":3504,"Ġsexy":3505,"Ġsunrise":3506,"Ġkawa":3507,"nic":3508,"Ġrobert":3509,"ara":3510,"Ġspell":3511,"Ġinstagram":3512,"Ġauto":3513,"gue":3514,"ttered":3515,"nes":3516,"berto":3517,"....":3518,"Ġshoulder":3519,"Ġright":3520,"Ġlots":3521,"Ġdslr":3522,"par":3523,"Ġaway":3524,"Ġjustin":3525,"symmetry":3526,"Ġcr":3527,"Ġpizza":3528,"Ġpris":3529,"Ġlive":3530,"Ġshell":3531,"Ġpainterly":3532,"msical":3533,"Ġlevel":3534,"Ġnad":3535,"Ġbones":3536,"Ġawe":3537,"Ġfursona":3538,"itar":3539,"ĠKar":3540,"Ġbottle":3541,"Ġdoctor":3542,"Ġiris":3543,"Ġwork":3544,"eping":3545,"Ġana":3546,"oney":3547,"Ġsac":3548,"Ġsoviet":3549,"Ġbrutalist":3550,"Ġsig":3551,"esel":3552,"Ġtokyo":3553,"Ġwaves":3554,"Ġphotographic":3555,"ĠCo":3556,"ife":3557,"Ġwo":3558,"Ġchest":3559,"Ġgloomy":3560,"enton":3561,"ju":3562,"Ġlou":3563,"Ġivan":3564,"oda":3565,"gen":3566,"Ġdoing":3567,"Ġfal":3568,"Ġdoll":3569,"ĠChar":3570,"Ġscenic":3571,"Ġtyler":3572,"uclear":3573,"unner":3574,"colo":3575,"Ġcreatures":3576,"wear":3577,"utter":3578,"Ġassass":3579,"Ġage":3580,"Ġlaugh":3581,"ado":3582,"Ġmap":3583,"Ġsnake":3584,"Ġav":3585,"Ġrugged":3586,"Ġmouse":3587,"Ġcontemporary":3588,"Ġpixel":3589,"ave":3590,"lity":3591,"ĠTo":3592,"Ġfinely":3593,"Ġsteel":3594,"Ġjellyfish":3595,"Ġdistant":3596,"Ġdino":3597,"Ġwhere":3598,"Ġpolished":3599,"Ġcorrect":3600,"Ġkis":3601,"hur":3602,"Ã©":3603,"illustration":3604,"Ġron":3605,"icken":3606,"Ġfru":3607,"rack":3608,"Ġfacing":3609,"Ġtattoos":3610,"gas":3611,"Ġgarmash":3612,"Ġsakimichan":3613,"Ġflesh":3614,"anda":3615,"tern":3616,"ele":3617,"uss":3618,"iness":3619,"Ġwes":3620,"ĠUHD":3621,"Ġwra":3622,"Ġdusk":3623,"Ġnovel":3624,"Ġtechnology":3625,"Ġtil":3626,"ĠĠ":3627,"Ġferdinand":3628,"Ġcgi":3629,"ĠAlex":3630,"Ġpokemon":3631,"Ġvines":3632,"Ġtele":3633,"Ġarmored":3634,"ĠDetailed":3635,"ef":3636,"Ġfort":3637,"Ġfight":3638,"lion":3639,"Ġsav":3640,"Ġkyoto":3641,"intricate":3642,"Ġbest":3643,"mond":3644,"Ġexposure":3645,"urn":3646,"umn":3647,"Ġmusk":3648,"Ġwoods":3649,"Ġtakato":3650,"ikon":3651,"eath":3652,"Ġroyal":3653,"port":3654,"Ġange":3655,"ĠHopper":3656,"Ġsorcer":3657,"tremely":3658,"verti":3659,"Ġpennington":3660,"Ġminiature":3661,"Ġvincent":3662,"Ġfinn":3663,"mare":3664,"Ġian":3665,"Ġgrowing":3666,"type":3667,"Ġaz":3668,"Ġjurgens":3669,"Ġadam":3670,"Ġspeed":3671,"essica":3672,"ĠMat":3673,"Ġmuch":3674,"Ġknab":3675,"Ġyamamoto":3676,"lix":3677,"Ġnet":3678,"lez":3679,"Ġrobots":3680,"Ġnadar":3681,"Ġliminal":3682,"Ġdin":3683,"Ġcables":3684,"Ġcrowd":3685,"topher":3686,"Ġglossy":3687,"Ġgigantic":3688,"Ġbust":3689,"Ġbrad":3690,"Ġworking":3691,"vic":3692,"Ġsilk":3693,"Ġexplosion":3694,"Ġtu":3695,"more":3696,"Ġcrying":3697,"Ġbirds":3698,"lier":3699,"Ġrings":3700,"Ġbel":3701,"Ġmega":3702,"amp":3703,"jian":3704,"((((":3705,"udd":3706,"Ġaura":3707,"Ġguitar":3708,"actic":3709,"Ġbraid":3710,"Ġcomm":3711,"ĠFrank":3712,"unji":3713,"dis":3714,"Ġtoc":3715,"cel":3716,"lands":3717,"llar":3718,"Ġhorns":3719,"Ġfighter":3720,"Ġtocchini":3721,"Ġvinci":3722,"ĠAndrei":3723,"Ġfeathers":3724,"Ġassassin":3725,"uraffinity":3726,"ladimir":3727,"ĠX":3728,"entaro":3729,"ĠBro":3730,"Ġproportions":3731,"scra":3732,"cat":3733,"Ġmonet":3734,"Ġwhimsical":3735,"topia":3736,"Ġsinger":3737,"orph":3738,"nda":3739,"ĠCra":3740,"Ġufo":3741,"Ġandrei":3742,"sm":3743,"Ġgro":3744,"uble":3745,"Ġromanticism":3746,"angjian":3747,"Ġluxury":3748,"Ġelements":3749,"rakli":3750,"die":3751,"Ġteng":3752,"ena":3753,"mation":3754,"Ġroof":3755,"uke":3756,"Ġzbrush":3757,"Ġapart":3758,"Ġpage":3759,"Ġartem":3760,"Ġcozy":3761,"Ġtextured":3762,"brow":3763,"apti":3764,"Ġtropical":3765,"Ġwatching":3766,"zki":3767,"Ġselfie":3768,"Ġfluid":3769,"ude":3770,"Ġret":3771,"rek":3772,"Ġfunny":3773,"Ġmario":3774,"Ġsalvador":3775,"Ġsachin":3776,"sting":3777,"Ġirakli":3778,"Ġgathering":3779,"Ġmushrooms":3780,"Ġdiesel":3781,"fied":3782,"ĠTran":3783,"Ġshift":3784,"Ġbrooks":3785,"Ġtakeuchi":3786,"Ġafrican":3787,"Ġborder":3788,"Ġfuturism":3789,"Ġhunter":3790,"Ġscott":3791,"Ġninja":3792,"Ġapple":3793,"Ġsymb":3794,"Ġfeng":3795,"Ġeven":3796,"Ġlaser":3797,"yuki":3798,"Ġdungeons":3799,"Ġsticker":3800,"lax":3801,"Ġaut":3802,"Ġkilian":3803,"onymus":3804,"gyp":3805,"Ġ'":3806,"utin":3807,"Ġcup":3808,"Ġfeminine":3809,"Ġovergrown":3810,"Ġport":3811,"phant":3812,"lue":3813,"Ġ50":3814,"Ġcrystals":3815,"Ġhaeckel":3816,"suit":3817,"phones":3818,"Ġraphael":3819,"Ġhaving":3820,"rence":3821,"mous":3822,"Ġocclusion":3823,"ĠGhibli":3824,"Ġswan":3825,"human":3826,"tein":3827,"erial":3828,"Ġbill":3829,"Ġtail":3830,"Ġ200":3831,"Ġlan":3832,"bot":3833,"pag":3834,"tec":3835,"erry":3836,"ibly":3837,"Ġdriving":3838,"ĠRossdraws":3839,"scraper":3840,"gyptian":3841,"Ġmcc":3842,"ĠMan":3843,"Ġï¼Į":3844,"inite":3845,"Ġdemonic":3846,"Ġbean":3847,"ston":3848,"jime":3849,"nec":3850,"thul":3851,"ĠCinematic":3852,"Ġpoin":3853,"Ġroger":3854,"urch":3855,"Ġgerald":3856,"Ġleibovitz":3857,"Ġdesk":3858,"blo":3859,"hin":3860,"Ġsee":3861,"Ġze":3862,"ctane":3863,"sto":3864,"Ġsca":3865,"ĠChris":3866,"Ġtub":3867,"sci":3868,"Ġsch":3869,"mor":3870,"Ġstained":3871,"nch":3872,"Ġhier":3873,"tess":3874,"Ġlay":3875,"ering":3876,"path":3877,"Ġfancy":3878,"Ġtaking":3879,"Ġfabric":3880,"Ġfalling":3881,"Ġlovecraftian":3882,"Ġwave":3883,"Ġfirst":3884,"Ġvol":3885,"bama":3886,"Ġpatterns":3887,"aptiste":3888,"ties":3889,"car":3890,"photography":3891,"Ġblock":3892,"ĠBar":3893,"Ġgas":3894,"yao":3895,"Ġautumn":3896,"Ġcer":3897,"crete":3898,"Ġrainy":3899,"Ġlaw":3900,"Ġtraveler":3901,"maximalist":3902,"able":3903,"Ġsilhouette":3904,"Ġgiraud":3905,"Ġcourt":3906,"rier":3907,"ĠGre":3908,"Ġsens":3909,"Ġpet":3910,"Ġdenis":3911,"ĠEm":3912,"entary":3913,"Ġthey":3914,"Ġthemed":3915,"Ġhen":3916,"Ġlace":3917,"omorph":3918,"Ġcarved":3919,"ctural":3920,"Ġeditorial":3921,"Ġcollec":3922,"Ġpaintings":3923,"Ġhed":3924,"Ġtorn":3925,"Ġtribal":3926,"Ġfenton":3927,"Ġintricately":3928,"Ġhoodie":3929,"ĠDev":3930,"Ġserene":3931,"Ġteal":3932,"Ġhanging":3933,"other":3934,"Ġflames":3935,"Ġmessy":3936,"Ġyour":3937,"arpunk":3938,"Ġkirby":3939,"ĠGo":3940,"gre":3941,"Ġscar":3942,"Ġskyscraper":3943,"Ġalexander":3944,"aron":3945,"Ġcro":3946,"ĠCraig":3947,"Ġreflection":3948,"Ġchan":3949,"female":3950,"Ġpiece":3951,"Ġgerard":3952,"ĠGiger":3953,"achu":3954,"Ġhole":3955,"ration":3956,"Ġobject":3957,"Ġcharacters":3958,"Ġbedroom":3959,"Ġguangjian":3960,"eling":3961,"ronic":3962,"Ġtiger":3963,"Ġshop":3964,"fer":3965,"ĠHighly":3966,"zzard":3967,"Ġtoward":3968,"ĠWar":3969,"ght":3970,"uppet":3971,"ios":3972,"Ġchildren":3973,"Ġrose":3974,"Ġvast":3975,"Ġhayao":3976,"Ġweather":3977,"Ġbay":3978,"ometry":3979,"daily":3980,"Ġzen":3981,"Ġplant":3982,"Ġdaniel":3983,"Ġmandy":3984,"Ġdinosaur":3985,"wers":3986,"Ġturt":3987,"ĠTho":3988,"Ġbridge":3989,"Ġtea":3990,"Ġstore":3991,"Ġfilter":3992,"vo":3993,"Ġsacred":3994,"ĠRuan":3995,"olar":3996,"Ġholy":3997,"roman":3998,"Ġenchan":3999,"ĠStar":4000,"Ġpeace":4001,"hog":4002,"Ġpara":4003,"Ġdarkness":4004,"Ġtentacles":4005,"Ġconcrete":4006,"andro":4007,"Ġfigur":4008,"80":4009,"Ġnightmare":4010,"Ġanalog":4011,"Ġrange":4012,"Ġcamp":4013,"Ġleft":4014,"Ġaqu":4015,"Ġflood":4016,"ĠJia":4017,"ĠKuvshinov":4018,"torm":4019,"Ġnuclear":4020,"Ġpolice":4021,"Ġrat":4022,"hero":4023,"Ġleonardo":4024,"barian":4025,"yard":4026,"Ġweap":4027,"Ġdem":4028,"ĠRiabovitchev":4029,"rump":4030,"Ġrefrac":4031,"ĠCa":4032,"Ġlibra":4033,"elling":4034,"Ġarchdaily":4035,"Ġget":4036,"Ġadverti":4037,"toric":4038,"flow":4039,"Ġmurata":4040,"adin":4041,"Ġsense":4042,"Ġito":4043,"Ġwarhammer":4044,"Ġhr":4045,"Ġstormy":4046,"sha":4047,"Ġphotoshoot":4048,"Ġzhu":4049,"Ġwarcraft":4050,"Ġplain":4051,"romatic":4052,"onic":4053,"Ġowl":4054,"ĠQ":4055,"Ġcityscape":4056,"Ġgeometry":4057,"ĠPixar":4058,"Ġfuraffinity":4059,"Ġsnowy":4060,"Ġspiral":4061,"ĠBow":4062,"Ġwill":4063,"Ġsoph":4064,"Ġtext":4065,"Ġadolphe":4066,"Ġtilt":4067,"Ġfade":4068,"fire":4069,"Ġtitan":4070,"Ġlaughing":4071,"Ġanatomically":4072,"Ġimpressionist":4073,"Ġlaurie":4074,"Ġswea":4075,"ĠBagshaw":4076,"Ġsouls":4077,"Ġnec":4078,"Ġnikon":4079,"Ġcarp":4080,"ilt":4081,"Ġtun":4082,"tant":4083,"gelo":4084,"Ġtoge":4085,"got":4086,"Ġsolid":4087,"sey":4088,"ĠHe":4089,"Ġfuji":4090,"yd":4091,"hae":4092,"Ġhiro":4093,"Ġexper":4094,"oper":4095,"rean":4096,"Ġful":4097,"Ġroll":4098,"Ġash":4099,"Ġbased":4100,"Ġsport":4101,"Ġrussian":4102,"ranger":4103,"Ġdru":4104,"ĠRender":4105,"Ġtogether":4106,"shot":4107,"Ġmotor":4108,"Ġscientist":4109,"Ġdie":4110,"anye":4111,"ket":4112,"shift":4113,"Ġslightly":4114,"Ġvoid":4115,"Ġ199":4116,"ĠMax":4117,"Ġdisco":4118,"ubby":4119,"ĠGe":4120,"Ġori":4121,"Ġworks":4122,"paganda":4123,"oom":4124,"Ġoli":4125,"prof":4126,"Ġkind":4127,"futurism":4128,"ÅĦ":4129,"Ġfroud":4130,"sized":4131,"Ġbon":4132,"ala":4133,"Ġdepicting":4134,"surd":4135,"Ġeffects":4136,"tin":4137,"form":4138,"eu":4139,"Ġmore":4140,"othic":4141,"Ġocto":4142,"Ġtraced":4143,"cked":4144,"Ġcoral":4145,"ÅĦski":4146,"Ġdm":4147,"looking":4148,"iter":4149,"Ġalche":4150,"Ġbutcher":4151,"Ġcontro":4152,"Ġalley":4153,"Ġnix":4154,"Ġriabovitchev":4155,"trix":4156,"Ġanother":4157,"Ġcube":4158,"Ġken":4159,"queen":4160,"Ġhighlights":4161,"hong":4162,"Ġmaximalist":4163,"riff":4164,"riedrich":4165,"ampunk":4166,"bing":4167,"itchen":4168,"illy":4169,"ĠCy":4170,"Ġkon":4171,"gic":4172,"Ġfigurine":4173,"engine":4174,"ĠCon":4175,"Ġwhe":4176,"Ġcheese":4177,"mail":4178,"Ġbioluminescent":4179,"acoste":4180,"Ġjar":4181,"Ġvio":4182,"Ġjump":4183,"ranch":4184,"Ġmeadow":4185,"Ġglamo":4186,"Ġshaman":4187,"Ġcottage":4188,"Ġstylish":4189,"Ġboss":4190,"stark":4191,"ire":4192,"Ġlap":4193,"Ġnot":4194,"gin":4195,"Ġmagn":4196,"Ġdro":4197,"Ġmal":4198,"anthropomorphic":4199,"Ġhave":4200,"Ġsensual":4201,"Ġheadphones":4202,"Ġabsurd":4203,"siÅĦski":4204,"dd":4205,"ĠOctane":4206,"stunning":4207,"Ġhans":4208,"Ġera":4209,"amic":4210,"where":4211,"ĠCharlie":4212,"thulhu":4213,"tish":4214,"Ġshutter":4215,"ĠMohrbacher":4216,"Ġwaterhouse":4217,"scre":4218,"arette":4219,"Ġbarbarian":4220,"Ġfreck":4221,"Ġchurch":4222,"Ġcalm":4223,"Ġspot":4224,"motional":4225,"urant":4226,"Ġknife":4227,"maid":4228,"iring":4229,"Ġeat":4230,"Ġsora":4231,"ĠJapanese":4232,"Ġinfinite":4233,"Ġjoy":4234,"Ġforeground":4235,"Ġdevil":4236,"Ġalone":4237,"Ġintel":4238,"eart":4239,"processing":4240,"Ġfriend":4241,"Ġcape":4242,"Ġadventure":4243,"udini":4244,"Ġparticles":4245,"aking":4246,"Ġdivine":4247,"Ġpea":4248,"Ġduck":4249,"ealistic":4250,"Ġshin":4251,"Ġkitchen":4252,"bon":4253,"ĠGusta":4254,"Ġmechan":4255,"Ġcathed":4256,"Ġfurn":4257,"Ġevening":4258,"ĠMullins":4259,"Ġmind":4260,"Ġengra":4261,"talie":4262,"Ġmoss":4263,"Ġhip":4264,"Ġcirc":4265,"space":4266,"Ġsolarpunk":4267,"Ġcathedral":4268,"Ġlumin":4269,"Ġmuscles":4270,"Ġfung":4271,"haus":4272,"Ġurban":4273,"Ġdieselpunk":4274,"py":4275,"Ġpul":4276,"!!!!!":4277,"cot":4278,"Ġpho":4279,"staurant":4280,"Ġdist":4281,"Ġple":4282,"Ġmud":4283,"Ġjunji":4284,"iro":4285,"gehog":4286,"ĠHildebrandt":4287,"ona":4288,"Ġbutterfly":4289,"ignola":4290,"ative":4291,"Ġcigarette":4292,"ĠVin":4293,"Ġpalace":4294,"Ġmystic":4295,"lk":4296,"Ġarchitectural":4297,"Ġsmith":4298,"Ġfeet":4299,"Ġfeat":4300,"ĠJohnson":4301,"Ġouter":4302,"Ġholographic":4303,"ritch":4304,"Ġhajime":4305,"white":4306,"stad":4307,"Ġheroic":4308,"engh":4309,"acha":4310,"Ġhypermaximalist":4311,"Ġthem":4312,"nel":4313,"Ġsorayama":4314,"ramid":4315,"Ġegg":4316,"Ġcasting":4317,"ria":4318,"Ġcandy":4319,"ucker":4320,"zzzz":4321,"Ġlibrary":4322,"Ġacross":4323,"Ġjessica":4324,"orman":4325,"Ġspri":4326,"Ġedge":4327,"Jo":4328,"Ġstream":4329,"Ġraw":4330,"fect":4331,"bora":4332,"Ġrestaurant":4333,"Ġoccult":4334,"Ġfully":4335,"prin":4336,"Ġmartin":4337,"Ġdoom":4338,"Ġgrimdark":4339,"Ġstands":4340,"ĠRock":4341,"itty":4342,"ĠEx":4343,"Ġbald":4344,"Ġbalance":4345,"Ġcoup":4346,"enix":4347,"Ġmeta":4348,"ĠLa":4349,"Ġafro":4350,"Ġsymbol":4351,"Ġsph":4352,"Ġlonely":4353,"loon":4354,"Ġpaladin":4355,"Ġgaz":4356,"Ġroses":4357,"Ġflag":4358,"Ġescher":4359,"Ġelect":4360,"kovsky":4361,"luring":4362,"Ġuni":4363,"Ġoctopath":4364,"ĠBy":4365,"Ġstaring":4366,"Ġaw":4367,"acts":4368,"wayne":4369,"Ġmonkey":4370,"ĠGer":4371,"ĠBak":4372,"Ġluis":4373,"stadt":4374,"tech":4375,"Ġconta":4376,"Ġrave":4377,"Ġcharles":4378,"rance":4379,"ĠKarol":4380,"cast":4381,"Ġpass":4382,"Ġapartment":4383,"Ġmccurry":4384,"ĠBla":4385,"iture":4386,"Ġrub":4387,"Ġinse":4388,"Ġreading":4389,"ĠTa":4390,"Ġcloudy":4391,"Ġsus":4392,"Ġblizzard":4393,"uka":4394,"enghua":4395,"Ġboots":4396,"Ġcars":4397,"Ġwere":4398,"Ġakira":4399,"Ġgonzalez":4400,"'t":4401,"Ġhal":4402,"Ġveins":4403,"Ġpanora":4404,"Ġpropaganda":4405,"ierstadt":4406,"Ġmultiple":4407,"Ġmeg":4408,"elding":4409,"ĠBowater":4410,"ulk":4411,"PG":4412,"esc":4413,"emma":4414,"Ġvegetation":4415,"ristan":4416,"Ġrelax":4417,"ffe":4418,"gem":4419,"Ġnixeu":4420,"scul":4421,"Ġpr":4422,"Ġ18":4423,"Ġmoonlight":4424,"elangelo":4425,"Ġboat":4426,"Ġsleek":4427,"Ġpotter":4428,"Ġclosed":4429,"Ġralph":4430,"hat":4431,"via":4432,"Ġhieronymus":4433,"Ġaaron":4434,"Ġchristopher":4435,"Ġegyptian":4436,"Ġceramic":4437,"Ġpra":4438,"ĠSo":4439,"romancer":4440,"Ġexotic":4441,"hop":4442,"view":4443,"Ġai":4444,"Ġfractals":4445,"ĠHyper":4446,"ĠSteve":4447,"Ġled":4448,"Ġsociety":4449,"Ġgent":4450,"tent":4451,"Ġchicken":4452,"Ġsimpson":4453,"life":4454,"mac":4455,"oise":4456,"shin":4457,"Ġclock":4458,"Ġrocha":4459,"olaroid":4460,"any":4461,"Ġbatman":4462,"Ġjackson":4463,"Ġsleeping":4464,"Ġturtle":4465,"dom":4466,"Ġsurf":4467,"ĠMoebius":4468,"ĠWat":4469,"god":4470,"ĠMag":4471,"Ġsup":4472,"elon":4473,"Ġcaustic":4474,"Ġthan":4475,"Ġformat":4476,"bies":4477,"Ġbeast":4478,"Ġ16":4479,"Ġiso":4480,"Ġgall":4481,"rays":4482,"Ġgreasley":4483,"andy":4484,"Ġphys":4485,"ĠDra":4486,"dan":4487,"used":4488,"oclass":4489,"Ġdiffer":4490,"studio":4491,"Ġpu":4492,"ĠThomas":4493,"cep":4494,"ĠSaki":4495,"sco":4496,"boratory":4497,"rones":4498,"Ġrocks":4499,"ovsky":4500,"Ġchubby":4501,"Ġminimal":4502,"Ġgap":4503,"Ġpalm":4504,"aya":4505,"Ġmandelb":4506,"ĠHan":4507,"Ġviking":4508,"Ġstarry":4509,"Ġdisplay":4510,"Ġclassical":4511,"Ġunderground":4512,"Ġcryengine":4513,"Ġlacoste":4514,"mate":4515,"Ġsigma":4516,"ancient":4517,"Ġanti":4518,"henie":4519,"ission":4520,"ĠMe":4521,"Ġjoker":4522,"ĠWhite":4523,"Ġmiura":4524,"Ġceiling":4525,"Ġfreckles":4526,"roll":4527,"Ġblurry":4528,"greg":4529,"verse":4530,"urer":4531,"Ġneut":4532,"iles":4533,"Ġdecorated":4534,"edo":4535,"TA":4536,"masterpiece":4537,"Ġfadeev":4538,"Ġdwar":4539,"Ġlaboratory":4540,"Ġcats":4541,"acing":4542,"unko":4543,"awad":4544,"Ġbranch":4545,"Ġrit":4546,"Ġoversized":4547,"Ġlava":4548,"ĠHQ":4549,"Ġcarl":4550,"Ġguard":4551,"Ġharris":4552,"Ġsti":4553,"Ġcron":4554,"erm":4555,"Ġanimals":4556,"Ġgli":4557,"Ġgener":4558,"Ġbloss":4559,"arre":4560,"Ġswamp":4561,"Ġdelville":4562,"Ġkawaii":4563,"oto":4564,"Ġherpen":4565,"ady":4566,"Ġwow":4567,"eron":4568,"iantArt":4569,"Ġarmy":4570,"Ġfeaturing":4571,"rowave":4572,"Ġornaments":4573,"artwork":4574,"Ġmaking":4575,"asso":4576,"Ġvisionary":4577,"Ġdom":4578,"Ġkentaro":4579,"Ġminimalistic":4580,"ip":4581,"Ġabsurdly":4582,"Ġcount":4583,"Ġbirth":4584,"Ġgradients":4585,"hei":4586,"coat":4587,"Ġartgem":4588,"Ġjason":4589,"Ġconc":4590,"Ġterrifying":4591,"ĠKojima":4592,"tective":4593,"elli":4594,"aching":4595,"Ġeos":4596,"Ġfoot":4597,"Ġcrew":4598,"vers":4599,"ayne":4600,"awadzki":4601,"Ġly":4602,"ĠDis":4603,"Ġlouis":4604,"kers":4605,"Ġtowards":4606,"kachu":4607,"Ġfurniture":4608,"Ġgallery":4609,"Ġbod":4610,"Ġwonderful":4611,"Ġphi":4612,"Ġrese":4613,"Ġpie":4614,"Ġapocalypse":4615,"elle":4616,"Ġprocess":4617,"Ġpony":4618,"Ġflame":4619,"yon":4620,"ano":4621,"ulti":4622,"Ġven":4623,"bus":4624,"Ġpyramid":4625,"Ġfun":4626,"Ġbelow":4627,"Ġvader":4628,"Ġcoloss":4629,"ĠCushart":4630,"iting":4631,"uta":4632,"Ġteenage":4633,"Ġfruit":4634,"ndom":4635,"ads":4636,"super":4637,"Ġwash":4638,"Ġreality":4639,"ĠHar":4640,"Ġsuperhero":4641,"Ġstudy":4642,"ions":4643,"Ġoutdoor":4644,"Ġstock":4645,"Ġblossom":4646,"Ġzero":4647,"Ġcouture":4648,"Ġincredibly":4649,"ben":4650,"dress":4651,"sk":4652,"Ġaerial":4653,"Ġgritty":4654,"Ġdense":4655,"Ġdifferent":4656,"Ġbath":4657,"ondon":4658,"Ġvic":4659,"Ġelephant":4660,"Ġemerging":4661,"Ġillusion":4662,"over":4663,"Ġcouple":4664,"Ġcaptain":4665,"Ġgeorge":4666,"weg":4667,"Ġbaptiste":4668,"Ġgentle":4669,"Ġwithout":4670,"Ġeverywhere":4671,"Ġstal":4672,"isley":4673,"igan":4674,"Ġclothed":4675,"Ġbubbles":4676,"Ġslim":4677,"lescent":4678,"Ġ::":4679,"Ġjesus":4680,"Ġneutral":4681,"blin":4682,"Ġwestern":4683,"Ġluminous":4684,"Ġgalactic":4685,"Ġshark":4686,"Ġhooded":4687,"Ġwhich":4688,"uto":4689,"pop":4690,"stan":4691,"isha":4692,"ĠRPG":4693,"Ġorig":4694,"derunner":4695,"Ġkissing":4696,"Ġarthur":4697,"ĠMatte":4698,"Ġhom":4699,"Ġmyth":4700,"Ġkimono":4701,"Ġnas":4702,"ĠGod":4703,"ĠBek":4704,"ished":4705,"aster":4706,"inecraft":4707,"alter":4708,"achrome":4709,"inted":4710,"tos":4711,"Ġraining":4712,"Ġlaying":4713,"hard":4714,"Ġdiffuse":4715,"rus":4716,"ĠPortrait":4717,"lack":4718,"onds":4719,"Ġgrace":4720,"Ġraymond":4721,"jun":4722,"zation":4723,"ĠDigital":4724,"Ġcaustics":4725,"berry":4726,"Ġaliens":4727,"arlett":4728,"Ġjen":4729,"tors":4730,"Ġcrim":4731,"ĠAyami":4732,"Ġimpo":4733,"Ġant":4734,"Ġbron":4735,"ym":4736,"Ġskulls":4737,"Ġsiz":4738,"mart":4739,"Ġdmt":4740,"oting":4741,"zi":4742,"Ġredshift":4743,"storm":4744,"Ġboard":4745,"ĠLeye":4746,"Ġcreated":4747,"ates":4748,"Ġgirls":4749,"Ġsubtle":4750,"minator":4751,"Ġcorn":4752,"ĠLeyendecker":4753,"lighting":4754,"irly":4755,"als":4756,"Ġwalter":4757,"Ġmonk":4758,"modern":4759,"Ġcru":4760,"odachrome":4761,"Ġstair":4762,"usa":4763,"Ġcyan":4764,"Ġskinny":4765,"ustration":4766,"Ġath":4767,"enberg":4768,"ised":4769,"udy":4770,"Ġvibe":4771,"tching":4772,"Ġbunny":4773,"Ġmother":4774,"umber":4775,"Ġcoloured":4776,"ĠAnime":4777,"Ġbone":4778,"rain":4779,"extremely":4780,"burger":4781,"ĠHa":4782,"ĠWatson":4783,"eet":4784,"Ġent":4785,"ĠBeksiÅĦski":4786,"zo":4787,"ighting":4788,"Ġwielding":4789,"Ġroset":4790,"Ġartifacts":4791,"Ġphoenix":4792,"piring":4793,"Ġcl":4794,"Ġjak":4795,"sharp":4796,"guy":4797,"his":4798,"inister":4799,"stem":4800,"Ġhedgehog":4801,"Ġpub":4802,"ĠGu":4803,"nical":4804,"ĠKrenz":4805,"Ġdestroyed":4806,"iving":4807,"Ġsecret":4808,"lous":4809,"umb":4810,"ĠMac":4811,"ubrick":4812,"bara":4813,"Ġearly":4814,"ĠDeviantArt":4815,"\\'":4816,"Ġgregory":4817,"ou":4818,"uses":4819,"Ġadrian":4820,"aded":4821,"oglu":4822,"Ġmonge":4823,"Ġfiref":4824,"Ġbec":4825,"Ġanna":4826,"gging":4827,"Ġspla":4828,"til":4829,"Ġpants":4830,"Ġchin":4831,"bea":4832,"Ġalluring":4833,"isticated":4834,"ira":4835,"ĠBrooks":4836,"joe":4837,"Ġilustration":4838,"Ġ((":4839,"mark":4840,"Ġfear":4841,"ceoglu":4842,"back":4843,"Ġev":4844,"blue":4845,"Ġattack":4846,"Ġshorts":4847,"Photo":4848,"Ġlatex":4849,"ĠDA":4850,"Ġswanland":4851,"Ġdemura":4852,"ez":4853,"ĠSakimichan":4854,"lout":4855,"Ġconnec":4856,"ĠGilleard":4857,"bby":4858,"Ġbotan":4859,"Ġasset":4860,"rigger":4861,"Ġroots":4862,"sions":4863,"beth":4864,"Ġwrapped":4865,"nded":4866,"Ġphotographed":4867,"Ġ197":4868,"onge":4869,"Ġreb":4870,"Ġita":4871,"ifer":4872,"yoshi":4873,"yn":4874,"Ġkne":4875,"Ġretrowave":4876,"Ġskirt":4877,"Ġfinnstark":4878,"Ġtight":4879,"Ġmultic":4880,"Ġsla":4881,"rocki":4882,"Ġbusiness":4883,"abrocki":4884,"haelite":4885,"hic":4886,"rish":4887,"Ġmonsters":4888,"Ġangelic":4889,"uckerberg":4890,"Ġorc":4891,"Ġmatrix":4892,"forest":4893,"rel":4894,"drop":4895,"professional":4896,"Ġfast":4897,"rous":4898,"Ġdu":4899,"ĠVal":4900,"Ġhaunted":4901,"game":4902,"Ġneoclass":4903,"Ġsid":4904,"Ġdetective":4905,"Ġpilot":4906,"Ġwire":4907,"Ġgem":4908,"tien":4909,"Ġcock":4910,"gor":4911,"tif":4912,"thy":4913,"Ġteam":4914,"Ġnoise":4915,"fore":4916,"big":4917,"Ġsphere":4918,"ĠFo":4919,"Ġpress":4920,"uts":4921,"uper":4922,"Ġmis":4923,"Ġseries":4924,"Ġartificial":4925,"zal":4926,"Ġartworks":4927,"moe":4928,"Ġfeather":4929,"Ġpicasso":4930,"Ġfriendly":4931,"Ġanimated":4932,"Ġsaturated":4933,"Ġbubble":4934,"Ġcountry":4935,"Ġbloody":4936,"gery":4937,"Ġcreative":4938,"cas":4939,"Ġhotel":4940,"bob":4941,"Ġcircle":4942,"Ġom":4943,"ulation":4944,"ware":4945,"Ġbierstadt":4946,"Ġtomo":4947,"Ġjon":4948,"Ġcentral":4949,"Ġroyo":4950,"ĠWayne":4951,"Ġoverlooking":4952,"abstract":4953,"Ġfilig":4954,"ĠGra":4955,"Ġbladerunner":4956,"Ġvr":4957,"Ġcomplexity":4958,"Ġphotoreal":4959,"urora":4960,"Ġmermaid":4961,"ĠAki":4962,"dson":4963,"ught":4964,"Ġglitter":4965,"Ġenter":4966,"Ġpeaceful":4967,"Ġdav":4968,"Ġbil":4969,"Ġwright":4970,"Ġspa":4971,"Ġcombat":4972,"Ġgoing":4973,"Ġarnold":4974,"Ġzorn":4975,"str":4976,"Ġobs":4977,"ĠIS":4978,"Ġcrazy":4979,"epe":4980,"steampunk":4981,"Ġstraw":4982,"Ġrusty":4983,"vanced":4984,"Ġaud":4985,"Ġspring":4986,"Ġbuilt":4987,"wing":4988,"Ġplace":4989,"Ġilluminated":4990,"Ġax":4991,"mental":4992,"ĠWh":4993,"Ġserious":4994,"Ġbraided":4995,"Ġmagnific":4996,"orgi":4997,"Ġprofessionally":4998,"Ġluminescent":4999,"leon":5000,"ically":5001,"Ġflooded":5002,"wski":5003,"net":5004,"Ġape":5005,"Ġlying":5006,"peror":5007,"worldly":5008,"Ġsophisticated":5009,"Ġyu":5010,"Ġcake":5011,"paint":5012,"Ġpanel":5013,"Ġmonochrome":5014,"Ġelite":5015,"Ġvs":5016,"ĠBoris":5017,"eves":5018,"esti":5019,"Ġort":5020,"wolf":5021,"Ġlarry":5022,"ĠCar":5023,"ĠSw":5024,"Ġdiamond":5025,"vintage":5026,"Ġpond":5027,"Ġunic":5028,"shar":5029,"ĠRed":5030,"cial":5031,"tile":5032,"Ġhairstyle":5033,"Ġec":5034,"Ġmat":5035,"Ġwarframe":5036,"Ġbusy":5037,"Ġdungeon":5038,"Ġpsycho":5039,"icature":5040,"Ġner":5041,"Ġelven":5042,"Ġchibi":5043,"olor":5044,"Ġforms":5045,"ttom":5046,"Ġvolcan":5047,"Ġsinister":5048,"Ġgears":5049,"Ġprince":5050,"Ġperfectly":5051,"ĠDAZ":5052,"Ġrepin":5053,"Ġhills":5054,"Ġandy":5055,"cia":5056,"Ġei":5057,"Ġputin":5058,"ues":5059,"Ġbern":5060,"Ġentire":5061,"Ġwed":5062,"Ġindian":5063,"Ġrising":5064,"kodak":5065,"Ġinceoglu":5066,"Ġdouble":5067,"mb":5068,"inas":5069,"Ġbronze":5070,"ndoza":5071,"alien":5072,"ĠTeng":5073,"Ġmur":5074,"Ġsystem":5075,"quiat":5076,"kas":5077,"Ġif":5078,"Ġregal":5079,"get":5080,"Ġangular":5081,"ethe":5082,"Ġjordan":5083,"izarre":5084,"Ġmidnight":5085,"Ġeldritch":5086,"Ġgapmoe":5087,"enomorph":5088,"olden":5089,"Ġpresident":5090,"Ġkodachrome":5091,"Ġsprigger":5092,"ples":5093,"nigan":5094,"Ġstarring":5095,"ĠFra":5096,"build":5097,"Ġvehic":5098,"ĠRockwell":5099,"Ġaged":5100,"Ġbud":5101,"Ġtsu":5102,"manuel":5103,"Ġartists":5104,"Ġswirly":5105,"Ġsquid":5106,"ĠTrump":5107,"zel":5108,"Ġmignola":5109,"Ġexplor":5110,"Beautiful":5111,"Ġnostal":5112,"vision":5113,"Ġrandom":5114,"eff":5115,"Ġbell":5116,"vering":5117,"Ġpromotional":5118,"Ġdreamlike":5119,"Ġenchanted":5120,"isa":5121,"scal":5122,"Ġplush":5123,"Ġfli":5124,"Ġdefined":5125,"surreal":5126,"dream":5127,"Ġtin":5128,"ange":5129,"Ġkaethe":5130,"Ġjapan":5131,"Ġdiamonds":5132,"ĠAmer":5133,"Ġhass":5134,"award":5135,"cke":5136,"colate":5137,"Ġflaming":5138,"organ":5139,"!!!!!!!!!!!!!!!!!!!!!!!!":5140,"ivaz":5141,"Ġfred":5142,"dog":5143,"esha":5144,"ĠSachin":5145,"landscape":5146,"tem":5147,"Ġhit":5148,"Ġbottom":5149,"fting":5150,"Ġmaxim":5151,"Ġciv":5152,"asto":5153,"struction":5154,"mund":5155,"ĠSta":5156,"phin":5157,"Ġsai":5158,"cycle":5159,"ĠZdzislaw":5160,"Ġgn":5161,"Ġproduction":5162,"Ġbull":5163,"acob":5164,"Ġliam":5165,"Ġshoot":5166,"ĠGurney":5167,"Ġfisheye":5168,"gey":5169,"Ġcollection":5170,"Ġbangs":5171,"Ġbutterflies":5172,"Ġexploding":5173,"Ġinti":5174,"eve":5175,"iers":5176,"ĠNeo":5177,"Ġsparkling":5178,"Ġjumping":5179,"utch":5180,"ĠZdzisÅĤaw":5181,"!!!!!!":5182,"Ġheavenly":5183,"trending":5184,"Ġhistoric":5185,"Ġmaid":5186,"ylor":5187,"Ġren":5188,"Ġvel":5189,"Ġplanets":5190,"Ġmetro":5191,"Ġelder":5192,"Ġfiligree":5193,"lestial":5194,"HQ":5195,"chen":5196,"ĠOr":5197,"ĠISO":5198,"tsu":5199,"ching":5200,"Ġbooks":5201,"Ġzhong":5202,"ĠFantasy":5203,"ĠAnnie":5204,"ighton":5205,"Ġclub":5206,"hy":5207,"Ġfenghua":5208,"Ġivory":5209,"ĠPaul":5210,"fla":5211,"Ġmelan":5212,"ĠRem":5213,"Ġgrin":5214,"Ġzawadzki":5215,"Ġrocky":5216,"ĠOil":5217,"screenshot":5218,"psy":5219,"Ġorb":5220,"Ġzi":5221,"Ġlovecraft":5222,"Ġjust":5223,"Ġfoli":5224,"Ġamong":5225,"Ġpiercing":5226,"Ġeast":5227,"Ġtie":5228,"Ġgoblin":5229,"Ġleaf":5230,"Ġcollar":5231,"Ġevan":5232,"Ġsigns":5233,"Ġalan":5234,"Ġeddie":5235,"Ġmom":5236,"Ġconrad":5237,"Ġchaos":5238,"colour":5239,"Ġconcert":5240,"Ġschi":5241,"Ġmural":5242,"ĠWhelan":5243,"Ġmedita":5244,"Ġvisor":5245,"Ġrot":5246,"Ġjet":5247,"Ġshooting":5248,"Ġcabin":5249,"liza":5250,"Ġpascal":5251,"Ġelement":5252,"Ġembroid":5253,"meer":5254,"Ġstunningly":5255,"Ġtransfor":5256,"lon":5257,"Ġrocket":5258,"ĠRich":5259,"Ġzoom":5260,"Ġismail":5261,"Ġfoliage":5262,"scale":5263,"Ġjod":5264,"arius":5265,"zan":5266,"pix":5267,"Ġscan":5268,"amune":5269,"Ġfound":5270,"Ad":5271,"Ġbit":5272,"col":5273,"Ġted":5274,"Ġag":5275,"Ġmonum":5276,"Ġbattlefield":5277,"Ġfriedrich":5278,"Ġwarhol":5279,"tang":5280,"Ġdread":5281,"Ġscra":5282,"Ġnews":5283,"Ġjeans":5284,"Ġhallway":5285,"ili":5286,"Ġblanche":5287,"Ġmagnificent":5288,"uld":5289,"Ġotherworldly":5290,"Ġberkey":5291,"Ġjakub":5292,"Ġhaunting":5293,"zilla":5294,"Ġfit":5295,"stock":5296,"Ġpile":5297,"Ġconfident":5298,"eta":5299,"Ġric":5300,"Ġgown":5301,"Ġjaw":5302,"Ġbefore":5303,"Ġlevi":5304,"ĠDisney":5305,"sd":5306,"Ġrutkow":5307,"fic":5308,"Ġrick":5309,"Ġpack":5310,"ticelli":5311,"Ġchess":5312,"ĠFrancis":5313,"ennifer":5314,"Ġbizarre":5315,"Ġbackdrop":5316,"Ġprops":5317,"riestess":5318,"Ġgetting":5319,"Ġap":5320,"Ġsize":5321,"Ġthing":5322,"ors":5323,"Ġfigures":5324,"erence":5325,"Ġsits":5326,"Ġmarket":5327,"Ġnecklace":5328,"Ġgraceful":5329,"ĠMumford":5330,"urop":5331,"Ġbiopunk":5332,"Ġnice":5333,"Ġsubject":5334,"aturated":5335,"Ġedlin":5336,"aring":5337,"ĠBiden":5338,"ĠCha":5339,"iara":5340,"Ġexterior":5341,"erehin":5342,"tale":5343,"Ġexpressionism":5344,"lizabeth":5345,"Ġue":5346,"Ġfactory":5347,"Ġadvanced":5348,"cap":5349,"Ġbowl":5350,"olored":5351,"Ġmaterials":5352,"eppe":5353,"etros":5354,"Ġelson":5355,"Ġritual":5356,"ection":5357,"kel":5358,"Ġpleas":5359,"ser":5360,"Ġdaz":5361,"Ġped":5362,"Ġfour":5363,"Ġnatalie":5364,"Ġ*":5365,"gth":5366,"Ġava":5367,"alls":5368,"mist":5369,"yer":5370,"Ġginger":5371,"bro":5372,"redd":5373,"Ġjohansson":5374,"ics":5375,"Ġelmore":5376,"Ġgonzales":5377,"hq":5378,"ndere":5379,"Ġtrail":5380,"Ġhaute":5381,"ront":5382,"ltra":5383,"Ġstand":5384,"Ġmotorcycle":5385,"cellent":5386,"lico":5387,"Ġarts":5388,"Ġthor":5389,"ĠRy":5390,"Ġdance":5391,"Ġfree":5392,"Ġkitten":5393,"mato":5394,"sculine":5395,"sel":5396,"Ġnarrow":5397,"inson":5398,"elblad":5399,"ivazovsky":5400,"Ġglor":5401,"Ġweb":5402,"mad":5403,"orescent":5404,"Ġsports":5405,"ints":5406,"ĠDo":5407,"Ġdecay":5408,"Ġwine":5409,"coon":5410,"quoise":5411,"Ġphone":5412,"Ġvarious":5413,"Ġvladimir":5414,"Ġbank":5415,"Ġengraving":5416,"press":5417,"uciara":5418,"!!!!,":5419,"oky":5420,"medieval":5421,"Ġnico":5422,"Ġtubes":5423,"elda":5424,"ligence":5425,"Ġchromatic":5426,"ĠBeautiful":5427,"Ġpikachu":5428,"harme":5429,"ĠartstationHD":5430,"Ġthird":5431,"Ġimpasto":5432,"Ġfriends":5433,"Ġutopian":5434,"glass":5435,"perture":5436,"Ġlegend":5437,"Ġhulk":5438,"Ġmascot":5439,"Ġretrofuturism":5440,"Ġdry":5441,"urious":5442,"Ġvibes":5443,"Ġpri":5444,"Ġgor":5445,"colorful":5446,"andra":5447,"Ġheaddress":5448,"Ġsemi":5449,"Ġbasket":5450,"Ġgenera":5451,"ãĥ":5452,"ghetti":5453,"ige":5454,"aling":5455,"Ġjura":5456,"borne":5457,"Ġmiss":5458,"ðŁĳ":5459,"Ġcouch":5460,"Ġfern":5461,"ushi":5462,"Ġrod":5463,"Ġhaze":5464,"Ġhumans":5465,"Ġglamour":5466,"tendo":5467,"holas":5468,"Ġwithin":5469,"byss":5470,"Ġyandere":5471,"Ġbanana":5472,"Ġcaspar":5473,"Ġjin":5474,"Ġmeat":5475,"Ġwedding":5476,"nite":5477,"Ġkubrick":5478,"Ġfaded":5479,"ĠCaravaggio":5480,"Ġfrozen":5481,"uous":5482,"isometric":5483,"instein":5484,"Ġcontrol":5485,"Ġmasculine":5486,"nderson":5487,"plate":5488,"Ġgeisha":5489,"Ġyoda":5490,"Ġruined":5491,"Ġgerman":5492,"andalf":5493,"Ġenhance":5494,"Ġlemon":5495,"Ġfujita":5496,"rancke":5497,"ĠHay":5498,"Ġsaul":5499,"Ġfluorescent":5500,"self":5501,"Ġspher":5502,"Ġlipking":5503,"Ġfarm":5504,"Ġcandle":5505,"ranckevic":5506,"Ġbes":5507,"ishing":5508,"ggles":5509,"Ġcomplete":5510,"Ġweapon":5511,"ĠArtem":5512,"Ġwax":5513,"Ġdag":5514,"Ġconceptual":5515,"Ġfier":5516,"Ġcaricature":5517,"center":5518,"Ġplane":5519,"ĠNorman":5520,"Ġflight":5521,"lane":5522,"ĠDa":5523,"iju":5524,"isted":5525,"Ġrough":5526,"ĠAt":5527,"Ġrif":5528,"Ġunicorn":5529,"ranckevicius":5530,"Ġturn":5531,"Ġsymbolist":5532,"Ġrace":5533,"ril":5534,"Ġjam":5535,"rink":5536,"Ġsolar":5537,"Ġufotable":5538,"Ġviolet":5539,"Ġbotanical":5540,"ival":5541,"sters":5542,"cks":5543,"Ġdirection":5544,"ĠTim":5545,"Ġfed":5546,"Ġtears":5547,"aroque":5548,"Ġexcellent":5549,"ule":5550,"Ġletter":5551,"Ġstaff":5552,"Ġelon":5553,"Ġwhale":5554,"Ġnorth":5555,"Ġmytho":5556,"ĠMiyazaki":5557,"ĠYoshitaka":5558,"umps":5559,"Ġram":5560,"ĠVicto":5561,"edric":5562,"Ġhouses":5563,"ĠSc":5564,"bbie":5565,"Ġsay":5566,"Ġfunko":5567,"ĠDon":5568,"Ġbacklighting":5569,"ĠChi":5570,"ĠYa":5571,"ĠBlack":5572,"Ġdusty":5573,"Ġscales":5574,"Ġquart":5575,"Ġinspiring":5576,"bid":5577,"Ġzoo":5578,"Ġmendoza":5579,"Ġturquoise":5580,"Ġhack":5581,"ĠPro":5582,"atoshi":5583,"riest":5584,"Ġaperture":5585,"ðŁĮ":5586,"mata":5587,"Ġpriestess":5588,"ĠDark":5589,"hyperdetailed":5590,"ormous":5591,"Ġidol":5592,"Ġlego":5593,"Ġsingular":5594,"Ġq":5595,"Ġwis":5596,"Ġcherry":5597,"ĠWu":5598,"Ġgods":5599,"arrie":5600,"Ġchains":5601,"Ġdesola":5602,"Ġrossier":5603,"Ġhope":5604,"moth":5605,"ĠLighting":5606,"ĠAlbert":5607,"Ġpupp":5608,"elds":5609,"iminas":5610,"Ġimax":5611,"tiv":5612,"Ġattacking":5613,"ĠDem":5614,"Ġacid":5615,"Ġhannigan":5616,"uropean":5617,"bold":5618,"Ġmilky":5619,"Ġmasamune":5620,"stance":5621,"Ġraven":5622,"Ġcelestial":5623,"Ġcommission":5624,"Ġgad":5625,"Ġmachines":5626,"Ġsorcerer":5627,"Ġparrish":5628,"Ġshirow":5629,"masaki":5630,"coli":5631,"Ġmcqueen":5632,"Ġstriking":5633,"ose":5634,"vet":5635,"Ġcopper":5636,"Ġparis":5637,"........":5638,"Ġimagery":5639,"Ġwaste":5640,"walter":5641,"Ġroberto":5642,"Ġtac":5643,"Ġmaxfield":5644,"Ġmilk":5645,"yle":5646,"Ġmain":5647,"Ġturner":5648,"Ġprec":5649,"ction":5650,"pur":5651,"Ġmutant":5652,"kazu":5653,"Ġradia":5654,"isto":5655,"Ġcafe":5656,"Ġluci":5657,"iac":5658,"hara":5659,"Ġ10":5660,"Ġtrench":5661,"Ġphil":5662,"ĠBarlowe":5663,"Ġlawrence":5664,"ĠJes":5665,"Ġdimension":5666,"gly":5667,"Ġsoldiers":5668,"Ġskies":5669,"Ġaztec":5670,"Ġorienta":5671,"inen":5672,"Ġmck":5673,"owski":5674,"eplay":5675,"Ġadvertise":5676,"Ġintelligence":5677,"ĠMandy":5678,"Ġint":5679,"render":5680,"Ġendless":5681,"cz":5682,"cht":5683,"polis":5684,"Ġdrawings":5685,"eda":5686,"Ġdreams":5687,"Ġsculp":5688,"Ġdiego":5689,"Ġcarrying":5690,"idian":5691,"iano":5692,"Ġchocolate":5693,"ĠBouguereau":5694,"Ġbrun":5695,"77":5696,"omber":5697,"umble":5698,"ift":5699,"Ġthings":5700,"Ġtorso":5701,"ĠGTA":5702,"Ġcrimson":5703,"Ġtristan":5704,"Ġhairy":5705,"tato":5706,"Ġcrewdson":5707,"Ġstop":5708,"hs":5709,"ping":5710,"Ġmuppet":5711,"aning":5712,"ode":5713,"Ġ85":5714,"Ġcheng":5715,"Ġartstationhq":5716,"Ġmedical":5717,"Ġpearl":5718,"mag":5719,"Ġfoc":5720,"Ġwaist":5721,"Ġbirthday":5722,"Ġgrave":5723,"Ġheadset":5724,"Ġsorceress":5725,"Ġfate":5726,"Ġskinned":5727,"Ġ70":5728,"mia":5729,"oming":5730,"Ġhorkey":5731,"shirt":5732,"Ġmelancho":5733,"Ġdesigner":5734,"Ġslime":5735,"Donald":5736,"sun":5737,"Ġcandid":5738,"Ġnam":5739,"Ġlen":5740,"ĠNew":5741,"Ġdun":5742,"hyperrealism":5743,"sma":5744,"Ġ.":5745,"Ġgang":5746,"ĠJurgens":5747,"Ġford":5748,"uffe":5749,"estival":5750,"fan":5751,"cen":5752,"tose":5753,"ĠBee":5754,"Ġgoggles":5755,"Ġnecromancer":5756,"mith":5757,"ĠSa":5758,"Ġeaton":5759,"mmer":5760,"run":5761,"ube":5762,"itchell":5763,"gyn":5764,"Ġcircuit":5765,"Ġå":5766,"Ġcorgi":5767,"Ġandro":5768,"ucci":5769,"Ġstarship":5770,"Ġfireflies":5771,"Ġortho":5772,"ilight":5773,"Ġaurora":5774,"stick":5775,"sia":5776,"Ġcurvy":5777,"escence":5778,"Ġthrones":5779,"ugene":5780,"Ġfortress":5781,"iot":5782,"Ġkata":5783,"pus":5784,"ĠCom":5785,"Ġbag":5786,"Ġenglish":5787,"arch":5788,"ob":5789,"lants":5790,"Ġsep":5791,"Ġpanda":5792,"hang":5793,"Ġmadhouse":5794,"ructose":5795,"lantis":5796,"Ġdruid":5797,"Ġcthulhu":5798,"Ġetern":5799,"Ġmichelangelo":5800,"Ġgames":5801,"Ġnetwork":5802,"Ġterminator":5803,"Ġridley":5804,"Ġmeditating":5805,"Ġtowers":5806,"Ġdesigns":5807,"Ġabyss":5808,"Ġhelen":5809,"Ġinterest":5810,"Ġtalking":5811,"Ġscreens":5812,"spital":5813,"Ġspiritual":5814,"Ġprison":5815,"ulate":5816,"ilet":5817,"Ġemperor":5818,"ĠLeon":5819,"ears":5820,"Ġdata":5821,"mless":5822,"Ġpetal":5823,"Ġxenomorph":5824,"Ġbaseball":5825,"Ġww":5826,"Ġleg":5827,"Ġdesaturated":5828,"bly":5829,"Ġsweet":5830,"Ġvolcano":5831,"tead":5832,"Ġbacklight":5833,"Ġornamental":5834,"Ġshield":5835,"Ġhasselblad":5836,"vell":5837,"Ġdj":5838,"Ġbradley":5839,"Ġnaturel":5840,"Ġmenacing":5841,"Ġmasterful":5842,"kn":5843,"Ġkingdom":5844,"rton":5845,"Ġartstyle":5846,"Ġcage":5847,"Ġwing":5848,"Ġgodrays":5849,"Ġelden":5850,"ĠartstationHQ":5851,"luc":5852,"Ġornament":5853,"Ġperfor":5854,"Ġwonderland":5855,"Ġwol":5856,"Ġstructures":5857,"ĠRyden":5858,"quin":5859,"Ġedgar":5860,"Ġhoudini":5861,"Ġbarlow":5862,"noop":5863,"ĠDemura":5864,"ĠDel":5865,"Ġitalian":5866,"Ġpol":5867,"Ġtodd":5868,"lith":5869,"ritish":5870,"ybara":5871,"Ġspray":5872,"illiant":5873,"Ġtwin":5874,"lac":5875,"ways":5876,"zalski":5877,"yeth":5878,"iora":5879,"Ġandrew":5880,"Ġarab":5881,"gynous":5882,"Ġsony":5883,"ediminas":5884,"illing":5885,"Ġgoro":5886,"zzeta":5887,"pre":5888,"zer":5889,"Ġgrimmer":5890,"Ġpuppy":5891,"Ġwen":5892,"Ġspooky":5893,"Ġnoah":5894,"Ġoverhead":5895,"gyle":5896,"Ġplu":5897,"ĠSe":5898,"Ġhospital":5899,"Ġcec":5900,"ndoroid":5901,"ux":5902,"odore":5903,"Ġafshar":5904,"Ġspecular":5905,"Ġvibran":5906,"Ġstroke":5907,"Ġluxurious":5908,"Ġlsd":5909,"Ġimpressionism":5910,"Ġtechnical":5911,"Ġghenie":5912,"Ġlondon":5913,"towski":5914,"iej":5915,"Ġbreak":5916,"ĠAf":5917,"ĠCol":5918,"sil":5919,"Ġpit":5920,"Ġek":5921,"Ġsubstance":5922,"Ġspacesuit":5923,"oding":5924,"ĠBrad":5925,"agle":5926,"ination":5927,"Ġnek":5928,"bee":5929,"Ġcasual":5930,"Ġfoccus":5931,"gun":5932,"Ġfestival":5933,"ĠBat":5934,"Ġfrost":5935,"oku":5936,"Ġbasquiat":5937,"Ġ1990":5938,"ĠRealistic":5939,"Ġnoble":5940,"ĠJoseph":5941,"Ġhaircut":5942,"Ġpearlescent":5943,"Ġgriff":5944,"Ġballoon":5945,"Ġspaghetti":5946,"apple":5947,"itzweg":5948,"tling":5949,"ecca":5950,"Ġrifle":5951,"Ġcrack":5952,"length":5953,"22":5954,"Ġcurves":5955,"Ġsatoshi":5956,"Ġmary":5957,"athtaking":5958,"oter":5959,"Ġfew":5960,"Ġcrash":5961,"Ġadams":5962,"loyd":5963,"Ġhugh":5964,"Ġ1980":5965,"ĠBeeple":5966,"ĠSal":5967,"Ġattri":5968,"ĠGrim":5969,"Ġkorean":5970,"scious":5971,"Ġrealm":5972,"wart":5973,"robot":5974,"Ġstaples":5975,"Ġsonic":5976,"Ġkra":5977,"Ġdimensional":5978,"Ġbol":5979,"Ġpred":5980,"Ġmeme":5981,"Ġfructose":5982,"uma":5983,"Ġfel":5984,"Ġgrav":5985,"Ġathle":5986,"Ġbluth":5987,"ĠNouveau":5988,"ĠShe":5989,"Ġphotoshop":5990,"lenn":5991,"Ġrutowski":5992,"ills":5993,"Ġyamasaki":5994,"Ġlasers":5995,"eting":5996,"esis":5997,"Ġbisley":5998,"Ġfrontal":5999,"achad":6000,"aa":6001,"ams":6002,"Ġsever":6003,"edited":6004,"Ġtomoyuki":6005,"uk":6006,"sts":6007,"Ġscroll":6008,"Ġ40":6009,"Ġspitzweg":6010,"vernay":6011,"bess":6012,"Ġloading":6013,"Ġredhead":6014,"160":6015,"Ġunedited":6016,"Ġlam":6017,"wling":6018,"Ġclaws":6019,"Ġclaymation":6020,"Adolphe":6021,"Ġciti":6022,"Ġalter":6023,"gelion":6024,"ĠRay":6025,"Ġskyline":6026,"Ġalbino":6027,"Ġshirtless":6028,"hea":6029,"tachrome":6030,"gends":6031,"ened":6032,"llustration":6033,"hole":6034,"Ġbrilliant":6035,"clay":6036,"ravernay":6037,"Ġinstead":6038,"Ġund":6039,"Society":6040,"ussian":6041,"Ġvir":6042,"Ġdarth":6043,"Ġtrying":6044,"Ġfernand":6045,"ĠCyberpunk":6046,"Ġvibrancy":6047,"Ġeyebrow":6048,"place":6049,"Ġos":6050,"Ġgiving":6051,"Ġentity":6052,"ĠEmma":6053,"Ġharry":6054,"ĠRembrandt":6055,"Ġsplatter":6056,"Ġleesha":6057,"Ġamber":6058,"Ġmulticolored":6059,"Ġavatar":6060,"Ġ(((":6061,"exp":6062,"ariusz":6063,"Ġferri":6064,"Ġmythical":6065,"Ġely":6066,"Ġtux":6067,"Ġnav":6068,"john":6069,"Ġcolossal":6070,"acobson":6071,"Ġfigura":6072,"Ġvertical":6073,"Ġcottagecore":6074,"Ġpriest":6075,"Ġrev":6076,"Ġjedi":6077,"Ġrepres":6078,"Ġobama":6079,"Ġlaptop":6080,"ĠJoe":6081,"ricks":6082,"oka":6083,"Ġbush":6084,"ĠVallejo":6085,"city":6086,"ĠHayao":6087,"saber":6088,"Ġbraz":6089,"Ġelectronic":6090,"Ġdesolate":6091,"icy":6092,"Ġcosmos":6093,"Ġgaze":6094,"Ġprocessed":6095,"Ġandrogynous":6096,"Ġhoney":6097,"Ġeyck":6098,"izing":6099,"Ġgems":6100,"Ġsteven":6101,"Ġwhole":6102,"Ġjenny":6103,"builder":6104,"ience":6105,"ĠVan":6106,"Ġslender":6107,"Ġcircular":6108,"Ġcrowded":6109,"Ġkids":6110,"Ġportman":6111,"sis":6112,"alloween":6113,"Ġaqua":6114,"ĠFrazetta":6115,"ela":6116,"Ġtori":6117,"ordon":6118,"ida":6119,"Ġwears":6120,"Ġplasma":6121,"Ġvictor":6122,"Ġdar":6123,"Ġpatric":6124,"Ġclaude":6125,"stant":6126,"ĠHer":6127,"ĠChe":6128,"ĠTh":6129,"ras":6130,"Ġfelix":6131,"Ġfronti":6132,"una":6133,"Ġbreaking":6134,"Ġoh":6135,"Ġscarf":6136,"Ġpat":6137,"Ġunf":6138,"tomu":6139,"flower":6140,"ittmann":6141,"pack":6142,"illie":6143,"iorama":6144,"hob":6145,"ĠâĢ":6146,"Ġeuropean":6147,"reddine":6148,"Ġdrone":6149,"siao":6150,"49":6151,"Ġmusta":6152,"ĠTooth":6153,"Ġgenerative":6154,"Ġinteresting":6155,"Ġmall":6156,"mov":6157,"Ġfiery":6158,"ĠJack":6159,"class":6160,"Âł":6161,"hands":6162,"Ġdwarf":6163,"dow":6164,"Ġdimly":6165,"ĠChristian":6166,"Ġunique":6167,"imen":6168,"ĠPer":6169,"Ġembroidered":6170,"Ġmadison":6171,"iet":6172,"Ġfoss":6173,"ĠCan":6174,"Ġreference":6175,"Ġvest":6176,"Ġnick":6177,"Ġinsec":6178,"Ġfierce":6179,"retro":6180,"rounding":6181,"Ġbrand":6182,"reet":6183,"Ġlizard":6184,"Ġdancer":6185,"Ġtwilight":6186,"baroque":6187,"jandro":6188,"Ġtony":6189,"ĠAward":6190,"Ġexplosions":6191,"Ġwhat":6192,"Ġgameplay":6193,"Ġpetals":6194,"ĠEr":6195,"baev":6196,"Ġlowbrow":6197,"Ġborderlands":6198,"ief":6199,"Ġact":6200,"Ġbastien":6201,"ani":6202,"Ġnekro":6203,"Ġbearded":6204,"Ġsmir":6205,"du":6206,"Ġlightsaber":6207,"Ġfive":6208,"ĠPea":6209,"inder":6210,"Ġdish":6211,"Ġdull":6212,"Ġtaylor":6213,"sub":6214,"Ġmansion":6215,"Ġinfinity":6216,"Ġadvertisement":6217,"Ġyus":6218,"scar":6219,"ĠJordan":6220,"nolds":6221,"mony":6222,"ulb":6223,"ĠLight":6224,"ĠSam":6225,"Ġtechni":6226,"Ġdecad":6227,"Ġdinner":6228,"Ġfullbody":6229,"ĠMike":6230,"Ġbau":6231,"insky":6232,"ĠJohan":6233,"Ġwheel":6234,"Ġcovering":6235,"Ġtorch":6236,"Ġrealist":6237,"Em":6238,"Ġdig":6239,"Ġlamp":6240,"ĠLong":6241,"Ġweed":6242,"Ġgalax":6243,"Ġradiating":6244,"Ġshopping":6245,"ĠLee":6246,"Ġjama":6247,"Ġpengu":6248,"Ġblurred":6249,"Ġaivazovsky":6250,"Ġartstationhd":6251,"illem":6252,"print":6253,"atsu":6254,"Ġjeffrey":6255,"Ġenormous":6256,"Ġradio":6257,"Ġplayer":6258,"akura":6259,"Ġum":6260,"Ġtoilet":6261,"cope":6262,"Ġhidden":6263,"Ġfigurative":6264,"plex":6265,"Ġsurrounding":6266,"air":6267,"Ġhazy":6268,"Ġalong":6269,"Ġsculpt":6270,"Ġmcbess":6271,"Ġalf":6272,"artstation":6273,"ĠYoshida":6274,"Ġacade":6275,"Ġponytail":6276,"tie":6277,"alt":6278,"Ġrac":6279,"ĠTy":6280,"ands":6281,"Ġdreaming":6282,"Ġtriang":6283,"Ġsnea":6284,"ĠMart":6285,"Ġcory":6286,"olas":6287,"marine":6288,"ĠGustave":6289,"bet":6290,"society":6291,"minimalist":6292,"Ġferra":6293,"Ġea":6294,"Ġskate":6295,"ĠGian":6296,"Ġdeer":6297,"Ġhyperreal":6298,"kade":6299,"Ġcu":6300,"Ġsolo":6301,"andre":6302,"Ġpetros":6303,"Ġadult":6304,"Ġsaint":6305,"Gothic":6306,"Ġhale":6307,"zzy":6308,"Ġedition":6309,"Ġimplants":6310,"Ġopening":6311,"Ġshutterstock":6312,"Ġdecadent":6313,"Ġzabrocki":6314,"Ġworlds":6315,"Ġknow":6316,"tesque":6317,"Ġoak":6318,"perfect":6319,"Ġfeeling":6320,"ĠAmerican":6321,"stral":6322,"utes":6323,"Ġmarco":6324,"lipp":6325,"199":6326,"Ġcommun":6327,"Ġskyscrapers":6328,"front":6329,"ĠBru":6330,"Ġpranckevicius":6331,"acio":6332,"Ġversion":6333,"Ġdocum":6334,"centered":6335,"erful":6336,"Ġmr":6337,"Ġcole":6338,"shock":6339,"Ġpuffy":6340,"Ġsmart":6341,"riel":6342,"Ġlof":6343,"Ġchal":6344,"Ġrozalski":6345,"Ġnamed":6346,"Ġgalaxies":6347,"tia":6348,"Ġguwe":6349,"Ġtwisted":6350,"Ġpanoramic":6351,"Ġbranches":6352,"Ġalp":6353,"Ġsin":6354,"oi":6355,"athan":6356,"ĠMaster":6357,"ĠMcC":6358,"Ġemerald":6359,"bash":6360,"sla":6361,"ĠCGSociety":6362,"antum":6363,"Ġzuckerberg":6364,"Ġlineart":6365,"Ġtrippy":6366,"Ġmandelbrot":6367,"non":6368,"bility":6369,"Ġspecta":6370,"Ġfly":6371,"Ġugly":6372,"Ġsculpted":6373,"Ġmoney":6374,"Ġreg":6375,"Ġjosh":6376,"Ġrooftop":6377,"lem":6378,"ĠRal":6379,"Ġspotlight":6380,"Ġguns":6381,"ĠQu":6382,"Ġbodies":6383,"phan":6384,"psychedelic":6385,"ĠYamamoto":6386,"Ġtuxedo":6387,"Ġama":6388,"Ġcollier":6389,"case":6390,"Ġvermeer":6391,"Ġeagle":6392,"lesome":6393,"bage":6394,"Ġcalled":6395,"Ġtactical":6396,"Ġhue":6397,"phy":6398,"Ġhugging":6399,"Ġtoys":6400,"Ġdave":6401,"tains":6402,"Ġenhan":6403,"Ġchaotic":6404,"Ġgeorg":6405,"200":6406,"acek":6407,"Ġillustrations":6408,"Ġ).":6409,"Ġlovely":6410,"Ġperforming":6411,"rings":6412,"inf":6413,"Ġindoor":6414,"lation":6415,"ĠRa":6416,"Ġcigar":6417,"Ġhistorical":6418,"ĠHiro":6419,"Ġvelvet":6420,"ram":6421,"ichi":6422,"Ġjumps":6423,"10":6424,"Ġwalk":6425,"Ġtrip":6426,"Ġmesh":6427,"Ġmakes":6428,"Ġbotticelli":6429,"Ġcronenberg":6430,"Ġovercast":6431,"ito":6432,"iff":6433,"haven":6434,"midating":6435,"Ġdiagram":6436,"Ġrubber":6437,"ingers":6438,"Ġfilmic":6439,"Ġobsidian":6440,"Ġburton":6441,"bum":6442,"Ġ100":6443,"Ġmona":6444,"Ġ1970":6445,"inci":6446,"ĠSuper":6447,"Ġdeity":6448,"ĠNic":6449,"Ġblank":6450,"Ġspra":6451,"ĠConcept":6452,"ongebob":6453,"Ġdirt":6454,"iths":6455,"ĠGiancola":6456,"Ġvhs":6457,"Ġblind":6458,"Ġshaw":6459,"Ġproj":6460,"Ġrelaxing":6461,"Ġblowing":6462,"Ġtrek":6463,"Ġenhanced":6464,"Ġdiorama":6465,"Ġshimmer":6466,"Ġparti":6467,"Ġaber":6468,"rog":6469,"ressed":6470,"Ġslimy":6471,"ishkin":6472,"ĠDonato":6473,"Ġbomb":6474,"igo":6475,"Ġtrash":6476,"Ġribb":6477,"Ġmustache":6478,"Ġrea":6479,"Ġtimes":6480,"fu":6481,"quarrie":6482,"Ġstru":6483,"rup":6484,"inside":6485,"isy":6486,"Ġseb":6487,"Ġjamie":6488,"bble":6489,"Ġcotton":6490,"oni":6491,"Ġep":6492,"igen":6493,"umi":6494,"Ġsatan":6495,"ilization":6496,"Ġwrest":6497,"Ġeverything":6498,"Ġoffic":6499,"Ġbodybuilder":6500,"Ġadolf":6501,"ograph":6502,"ĠMario":6503,"Ġfreud":6504,"ied":6505,"onalds":6506,"Ġmaxence":6507,"Ġcult":6508,"Ġminecraft":6509,"Ġyuki":6510,"Ġshades":6511,"Ġgorilla":6512,"bile":6513,"Ġengineer":6514,"cyber":6515,"Ġswords":6516,"sea":6517,"attractive":6518,"cred":6519,"Ġbou":6520,"Ġrainforest":6521,"Ġconnected":6522,"Ġtechnique":6523,"gb":6524,"Ġmoving":6525,"Ġalejandro":6526,"apix":6527,"Ġgoat":6528,"Ġlayers":6529,"Ġsinging":6530,"Ġatti":6531,"ensen":6532,"Ġworm":6533,"Ġtruck":6534,"Ġnaz":6535,"Ġkarcz":6536,"Ġvolume":6537,"Ġreflecting":6538,"Ġintimidating":6539,"Ġultrawide":6540,"Ġivy":6541,"Ġfranzzeta":6542,"ĠPeaks":6543,"Ġcrop":6544,"Ġtian":6545,"Ġgund":6546,"Ġ],":6547,"Ġfantastically":6548,"Ġdutch":6549,"Ġpeach":6550,"Ġwilliams":6551,"Ġpine":6552,"ssible":6553,"Ġdemons":6554,"Ġproportion":6555,"Ġtong":6556,"coal":6557,"Ġwhirl":6558,"ocado":6559,"urbing":6560,"Ġbrunette":6561,"Ġbelly":6562,"uri":6563,"balls":6564,"Ġminimalism":6565,"Ġdune":6566,"ĠNa":6567,"pit":6568,"ĠKinkade":6569,"dragon":6570,"strous":6571,"usc":6572,"Ġbare":6573,"Ġolive":6574,"cam":6575,"zing":6576,"Ġfingers":6577,"ĠDen":6578,"Ġcivilization":6579,"Ġwhen":6580,"Ġ2077":6581,"ĠTakato":6582,"Ġathletic":6583,"Ġpatrick":6584,"Ġtenn":6585,"Ġleading":6586,"Ġskyrim":6587,"Ġpublic":6588,"interior":6589,"Ġresin":6590,"Ġfilip":6591,"Ġfrontiers":6592,"pink":6593,"Ġarri":6594,"Ġchain":6595,"Ġvik":6596,"Ġmoni":6597,"ubble":6598,"Ġwhalen":6599,"Ġwenjun":6600,"ĠBacon":6601,"riter":6602,"Ġloftis":6603,"gger":6604,"Ġseven":6605,"Ġ80":6606,"Ġhammer":6607,"Ġpleasing":6608,"hel":6609,"ited":6610,"Ġlim":6611,"ĠSch":6612,"Ġrounded":6613,"Ġsuc":6614,"lee":6615,"Ġpablo":6616,"count":6617,"Ġmex":6618,"Ġinspi":6619,"Ġten":6620,"Ġcrysta":6621,"Ġgundam":6622,"lett":6623,"Ġfamous":6624,"Ġpartially":6625,"Ġcoo":6626,"mal":6627,"aks":6628,"Ġaug":6629,"Ġcrossing":6630,"flowers":6631,"Ġtoriyama":6632,"Ġign":6633,"Ġcook":6634,"cart":6635,"Ġwaiting":6636,".,":6637,"iley":6638,"Ġnel":6639,"imp":6640,"Ġcarn":6641,"Ġthrow":6642,"Ġobese":6643,"utu":6644,"Ġnon":6645,"Ġjurabaev":6646,"Ġsprites":6647,"untain":6648,"Ġforce":6649,"Ġsubur":6650,"Ġpov":6651,"Ġabs":6652,"zzzzzzzz":6653,"ĠRobert":6654,"Ġmatt":6655,"Ġanno":6656,"Ġchev":6657,"Ġscientific":6658,"Ġgrotesque":6659,"Ġthous":6660,"Ġtoo":6661,"oskeleton":6662,"Ġwyeth":6663,"Ġmove":6664,"bach":6665,"ĠJim":6666,"Ġsprite":6667,"Ġdeharme":6668,"Ġbrushstro":6669,"Ġamerica":6670,"::":6671,"Ġsimulation":6672,"Ġpulp":6673,"uce":6674,"Ġposes":6675,"Ġamazon":6676,"Ġclim":6677,"Ġmiller":6678,"Ġkindkade":6679,"Ġwholesome":6680,"Ġattrib":6681,"Ġâ":6682,"inished":6683,"site":6684,"Ġtomb":6685,"Ġtron":6686,"Ġarstation":6687,"40":6688,"eon":6689,"Ġnighttime":6690,"entation":6691,"Ġbeams":6692,"pples":6693,"Ġbrightly":6694,"small":6695,"Ġcolum":6696,"Ġwhis":6697,"rice":6698,"ogame":6699,"Ġatlantis":6700,"Ġpixie":6701,"Ġthunderstorm":6702,"Ġiphone":6703,"Ġmcquarrie":6704,"Ġwander":6705,"Ġeugene":6706,"itting":6707,"Ġstatues":6708,"gel":6709,"Ġpatch":6710,"Ġbrass":6711,"Ġcorner":6712,"Ġsubway":6713,"Ġcandles":6714,"Ġsymbols":6715,"puscular":6716,"walker":6717,"Ġnar":6718,"ĠCity":6719,"los":6720,"sium":6721,"Ġaesthetically":6722,"watercolor":6723,"Ġemotionally":6724,"Ġdarrow":6725,"post":6726,"Ġattributes":6727,"mentary":6728,"Ġhsiao":6729,"Ġwong":6730,"Ġsuperman":6731,"Ġpipe":6732,"Ġfallout":6733,"ĠLisa":6734,"Ġmoth":6735,"boldo":6736,"Ġ198":6737,"Ġchristmas":6738,"rap":6739,"Ġwil":6740,"lose":6741,"Ġextre":6742,"ĠLeibovitz":6743,"Ġstorybook":6744,"action":6745,"Ġalberto":6746,"Ġyoh":6747,"imboldo":6748,"bers":6749,"Ġspan":6750,"locks":6751,"Ġgloomhaven":6752,"ĠAkihiko":6753,"Ġcedric":6754,"Ġfolk":6755,"ĠBlo":6756,"ĠKim":6757,"ĠBos":6758,"acci":6759,"Ġpaolo":6760,"ĠGar":6761,"Ġarchi":6762,"agger":6763,"Ġ2049":6764,"Ġstudent":6765,"Ġgates":6766,"Ġpiano":6767,"ision":6768,"Ġps":6769,"Ġrelig":6770,"painted":6771,"Ġbroad":6772,"scene":6773,"Ġdama":6774,"Ġnihei":6775,"Ġwitcher":6776,"Ġplat":6777,"Ġpinup":6778,"Ġgediminas":6779,"Ġangels":6780,"Ġdevito":6781,"Ġwasteland":6782,"Ġdraped":6783,"dramatic":6784,"Ġwaterfalls":6785,"bite":6786,"ĠSha":6787,"Ġmarling":6788,"iator":6789,"Ġbritt":6790,"Ġburger":6791,"Ġadvertising":6792,"ault":6793,"Ġboth":6794,"hua":6795,"Ġevangelion":6796,"Ġphotos":6797,"Ġsile":6798,"ksi":6799,"Ġbrick":6800,"Ġforehead":6801,"Ġbrushstrokes":6802,"Ġpill":6803,"Ġbasketball":6804,"ified":6805,"Ġmeeting":6806,"bie":6807,"leg":6808,"Ġlloyd":6809,"ĠMor":6810,"Ġswift":6811,"Ġsergey":6812,"Ġbioshock":6813,"Ġmet":6814,"hion":6815,"Ġlehr":6816,"Ġfumo":6817,"Ġhowe":6818,"Ġcontact":6819,"ĠBosch":6820,"half":6821,"Ġhapp":6822,"medium":6823,"ÃŃ":6824,"Ġhovering":6825,"soft":6826,"Ġtowering":6827,"Ġopera":6828,"Ġhum":6829,"Ġ800":6830,"playing":6831,"Mar":6832,"imag":6833,"large":6834,"Ġig":6835,"Ġequi":6836,"Ġguweiz":6837,"Ġdapple":6838,"pton":6839,"Ġlovell":6840,"ĠBrom":6841,"ĠFe":6842,"Ġbeside":6843,"Ġpure":6844,"Ġzeiss":6845,"Ġeyebrows":6846,"Ġkal":6847,"Ġnier":6848,"ushing":6849,"Ġmicrosco":6850,"Ġektachrome":6851,"fly":6852,"Ġlanding":6853,"oker":6854,"arti":6855,"mooth":6856,"Ġtape":6857,"Ġmirrors":6858,"Ġschiele":6859,"Ġdariusz":6860,"Ġcanyon":6861,"Ġandrews":6862,"ĠVinci":6863,"Ġton":6864,"ĠWars":6865,"Ġpincus":6866,"Ġwrink":6867,"Ġkand":6868,"Ġinfla":6869,"ĠBehance":6870,"Ġreaper":6871,"Sp":6872,"Ġwre":6873,"elin":6874,"sse":6875,"Ġ150":6876,"Ġexposed":6877,"Ġpieces":6878,"Ġimages":6879,"Ġhew":6880,"Ġkats":6881,"Ġextrater":6882,"Ġpincushion":6883,"Ġnostalgic":6884,"new":6885,"blet":6886,"Ġmagician":6887,"arlet":6888,"Ġpepe":6889,"Ġmount":6890,"Ġnintendo":6891,"rans":6892,"ĠFull":6893,"lers":6894,"Ġcarpet":6895,"macro":6896,"uturist":6897,"AN":6898,"Ġdappled":6899,"Ġinflu":6900,"Ġtype":6901,"Ġtelephoto":6902,"sol":6903,"lywood":6904,"lesov":6905,"cyborg":6906,"Ġdaylight":6907,"24":6908,"Ġleica":6909,"enstein":6910,"ðŁĲ":6911,"Ġtelevision":6912,"long":6913,"ĠJeremy":6914,"colored":6915,"Ġloc":6916,"street":6917,"ĠJu":6918,"nah":6919,"Ġtsutomu":6920,"Ġpenguin":6921,"lab":6922,"dema":6923,"Ġnow":6924,"tating":6925,"Ġjer":6926,"Ġgoodman":6927,"Ġpredator":6928,"Ġschoolgirl":6929,"hl":6930,"Ġeinstein":6931,"Ġmaiden":6932,"Ġyoshin":6933,"bbing":6934,"buster":6935,"Ġgaudy":6936,"pan":6937,"Ġder":6938,"Ġcrepuscular":6939,"stellar":6940,"Ġsheep":6941,"Ġsweater":6942,"Ġtennis":6943,"ĠSky":6944,"Ġneil":6945,"Ġretrofuturistic":6946,"Ġchoi":6947,"Ġbayard":6948,"Ġdisturbing":6949,"Ġboun":6950,"nst":6951,"Ġmasa":6952,"ĠGil":6953,"ashian":6954,"Ġcompletely":6955,"iyoshi":6956,"ardashian":6957,"Ġharve":6958,"Ã¡":6959,"happy":6960,"De":6961,"Ġcomposed":6962,"Ġdanger":6963,"Ġjewels":6964,"walk":6965,"handsome":6966,"pse":6967,"Ġnendoroid":6968,"Ġexperim":6969,"In":6970,"Ġready":6971,"Ġvess":6972,"Ġtechnic":6973,"Ġchoker":6974,"formers":6975,"nders":6976,"dox":6977,"letta":6978,"unting":6979,"arov":6980,"Ġburns":6981,"Ġyoshinari":6982,"brant":6983,"oshi":6984,"Ġhamster":6985,"ĠBas":6986,"Ġloose":6987,"Ġframes":6988,"Ġdeviant":6989,"chart":6990,"Ġmember":6991,"!!!!!,":6992,"Ġinfra":6993,"Ġgrassy":6994,"tou":6995,"Ġgoya":6996,"Ġcameron":6997,"Ġrichter":6998,"polaroid":6999,"Ġcall":7000,"Ġvign":7001,"kai":7002,"radise":7003,"Ġtornado":7004,"Ġcruise":7005,"Ġtongue":7006,"ðŁı":7007,"Ġvehicle":7008,"Ġflick":7009,"Ġyet":7010,"ĠRey":7011,"ĠIQ":7012,"Ġspectacular":7013,"Ġcata":7014,"Ġsofa":7015,"Ġ90":7016,"ĠXF":7017,"Ġweapons":7018,"Ġpraying":7019,"ĠLeonardo":7020,"Ġshimmering":7021,"Ġalma":7022,"ãĤ":7023,"Ġhyperrealist":7024,"ĠTyler":7025,"Ġnan":7026,"Ġbike":7027,"Ġbench":7028,"Ġdecorative":7029,"Ġcarpenter":7030,"Ġracing":7031,"Ġquantum":7032,"Ġseinen":7033,"Ġegon":7034,"matte":7035,"Ġempress":7036,"hartz":7037,"pocalyptic":7038,"ĠKon":7039,"Ġmetropolis":7040,"ĠDelville":7041,"Ġcorben":7042,"uerre":7043,"Ġbleed":7044,"Ġfairytale":7045,"bonacci":7046,"Ġkatana":7047,"Ġrobbie":7048,"Ġtunnel":7049,"Ġneoclassic":7050,"bster":7051,"ombies":7052,"Ġvirt":7053,"lical":7054,"Ġimpact":7055,"Ġpup":7056,"Ġfields":7057,"fts":7058,"Ġdiffusion":7059,"ĠAsh":7060,"Ġcomplementary":7061,"Ġworkshop":7062,"ards":7063,"Ġzhang":7064,"bell":7065,"versi":7066,"ĠSty":7067,"ĠBre":7068,"ayoi":7069,"Ġfranco":7070,"ĠGustav":7071,"aker":7072,"erka":7073,"lego":7074,"teen":7075,"Ġmarine":7076,"Ġkoi":7077,"Ġbrothers":7078,"Ġfortnite":7079,"Ġsailor":7080,"tista":7081,"Ġspecial":7082,"Ġeternal":7083,"Ġmegan":7084,"Ġashley":7085,"Ġtour":7086,"jam":7087,"getic":7088,"Ġhenri":7089,"tled":7090,"Ġpey":7091,"vidia":7092,"ĠBruce":7093,"Ġsong":7094,"Ġexhi":7095,"Ġsuits":7096,"Ġtechwear":7097,"Ġceccoli":7098,"Ġtouch":7099,"Ġlos":7100,"Ġnicoletta":7101,"kiyo":7102,"ters":7103,"Ġobjects":7104,"Ġinu":7105,"ques":7106,"Ġsplit":7107,"Ġtavern":7108,"oteric":7109,"gang":7110,"jack":7111,"Ġbor":7112,"Ġbey":7113,"Ġcavern":7114,"Ġpipes":7115,"Ġhenry":7116,"earing":7117,"boss":7118,"Ġblueprint":7119,"ager":7120,"ndi":7121,"Ġlist":7122,"Ġfibonacci":7123,"Ġrunes":7124,"gos":7125,"Ġjimmy":7126,"oh":7127,"sity":7128,"Ġpointing":7129,"ĠStephen":7130,"lkka":7131,"ĠDonald":7132,"word":7133,"Ġorchi":7134,"Ġkitbash":7135,"Ġrebecca":7136,"Ġpot":7137,"ĠMich":7138,"structure":7139,"ĠNoah":7140,"ĠCGsociety":7141,"Ġcere":7142,"Ġchee":7143,"hood":7144,"ĠSer":7145,"Ġmode":7146,"Ġalice":7147,"bex":7148,"Ġbion":7149,"arium":7150,"Ġnever":7151,"rtex":7152,"Ġtadema":7153,"Ġhughes":7154,"off":7155,"zar":7156,"Ġarian":7157,"Ġoverdetailed":7158,"astronaut":7159,"ĠGrimmer":7160,"Ġhalloween":7161,"esome":7162,"ischer":7163,"ella":7164,"ĠGogh":7165,"layer":7166,"Ġbarclay":7167,"Ġsepia":7168,"Ġkun":7169,"ĠPen":7170,"thouse":7171,"Ġtarkovsky":7172,"Ġsaville":7173,"Ġskateboard":7174,"rai":7175,"mazing":7176,"natural":7177,"Ġdest":7178,"Ġbrutal":7179,"Ġmechanic":7180,"Ġphilipp":7181,"Ġrol":7182,"Ġenix":7183,"brad":7184,"Ġunkn":7185,"Ġgiraffe":7186,"Ġwerewolf":7187,"Ġhung":7188,"Ġstate":7189,"Ġvideogame":7190,"imensional":7191,"ui":7192,"splash":7193,"Ġcour":7194,"Ġpotato":7195,"angu":7196,"akins":7197,"Ġfashionable":7198,"Ġsweaty":7199,"Ġantique":7200,"Ġrios":7201,"berty":7202,"Ġentirely":7203,"Ġdreadlocks":7204,"Ġcrook":7205,"Ġbuck":7206,"pho":7207,"Ġpick":7208,"Ġcapture":7209,"Ġruby":7210,"Ġcontrasting":7211,"ĠBradley":7212,"Ġbun":7213,"Ġstones":7214,"poster":7215,"Ġkawase":7216,"Ġgraveyard":7217,"Ġelysium":7218,"Ġprim":7219,"Ġdeb":7220,"rix":7221,"ĠAli":7222,"ĠAnderson":7223,"Ġexoskeleton":7224,"lline":7225,"chair":7226,"Ġberries":7227,"Ġjagged":7228,"Ġcele":7229,"Ġavocado":7230,"tronic":7231,"made":7232,"Ġzelda":7233,"sui":7234,"Ġreally":7235,"Ġinno":7236,"ivid":7237,"Ġoveralls":7238,"idental":7239,"ĠÂ":7240,"Ġesao":7241,"Ġesoteric":7242,"Ġpanorama":7243,"orld":7244,"Ġbeige":7245,"Ġtattered":7246,"Ġstefan":7247,"ification":7248,"Ġunfinished":7249,"Ġpeyravernay":7250,"Ġranger":7251,"Ġpowers":7252,"Ġtend":7253,"ĠUltra":7254,"octane":7255,"Ġspiderman":7256,"ĠSalvador":7257,"amoto":7258,"Ġscarlett":7259,"ĠIllustration":7260,"Ġhend":7261,"onsal":7262,"mit":7263,"Ġwri":7264,"quet":7265,"Ġdogs":7266,"hauser":7267,"ER":7268,"lint":7269,"Ġbackpack":7270,"green":7271,"read":7272,"Ġdemo":7273,"asian":7274,"Ġgloves":7275,"Ġlenses":7276,"Ġeastman":7277,"rage":7278,"lencia":7279,"lando":7280,"Ġmartine":7281,"model":7282,"ĠVincent":7283,"onsalves":7284,"Ġenergetic":7285,"Ġlostfish":7286,"vely":7287,"Ġundead":7288,"cu":7289,"Ġmapping":7290,"Ġpictures":7291,"Ġcapybara":7292,"Ġcampfire":7293,"Ġhighway":7294,"gorgeous":7295,"Ġphotographer":7296,"onement":7297,"ĠExtremely":7298,"Ġentrance":7299,"Ġreve":7300,"odas":7301,"ĠShi":7302,"yahu":7303,"Ġthanos":7304,"Ġzoomed":7305,"ĠErnst":7306,"Ġraccoon":7307,"tails":7308,"Ġgoog":7309,"Ch":7310,"Ġcode":7311,"ĠJones":7312,"Ġcrab":7313,"Ġpassion":7314,"Ġattire":7315,"Ġnative":7316,"Ġhamburger":7317,"Ġblossoms":7318,"Ġaublet":7319,"Ġlotus":7320,"glo":7321,"adim":7322,"baby":7323,"Ġkeys":7324,"ĠSpace":7325,"Ġjumpsuit":7326,"Ġran":7327,"ironement":7328,"Ġcreation":7329,"Ġshrek":7330,"synth":7331,"Ġbili":7332,"ĠMiura":7333,"tles":7334,"Ġhasui":7335,"ĠKlimt":7336,"Ġstreetwear":7337,"Ġastro":7338,"Ġbernie":7339,"xi":7340,"Ġglist":7341,"igi":7342,"Ġdystopia":7343,"Ġwaters":7344,"Ġravelo":7345,"Ġdittmann":7346,"ayison":7347,"album":7348,"Ġeyed":7349,"))))))))":7350,"rail":7351,"Ġeasley":7352,"Ġkanye":7353,"kami":7354,"Ġbathroom":7355,"ĠJeff":7356,"Ġpolycount":7357,"Ġreynolds":7358,"Ġrefraction":7359,"pin":7360,"Ġdam":7361,"Ġhiding":7362,"ception":7363,"tagon":7364,"rting":7365,"Ġverehin":7366,"kean":7367,"asure":7368,"Ġprinting":7369,"Ġbilal":7370,"ĠRap":7371,"ĠCre":7372,"Ġgerhard":7373,"ĠLegends":7374,"ĠOrgan":7375,"Ġumbre":7376,"Ġenki":7377,"Ġspar":7378,"Ġshoes":7379,"ĠIvan":7380,"ĠRob":7381,"Ġelizabeth":7382,"Ġrogue":7383,"pair":7384,"Ġmaria":7385,"sai":7386,"Ġbros":7387,"vich":7388,"Ġvon":7389,"mercial":7390,"Ġpunch":7391,"enegger":7392,"tw":7393,"meg":7394,"vily":7395,"Ġku":7396,"ĠWin":7397,"Ġemil":7398,"ĠOtomo":7399,"Ġdrips":7400,"Ġgadot":7401,"Emma":7402,"aka":7403,"Ġsouth":7404,"Ġripped":7405,"ideo":7406,"Ġguay":7407,"Ġterra":7408,"Ġfallen":7409,"cur":7410,"Ġalexandre":7411,"ĠWest":7412,"Ġwetplate":7413,"kelmann":7414,"Ġcali":7415,"urce":7416,"jesus":7417,"Ġiconic":7418,"Ġphysically":7419,"block":7420,"Ġgran":7421,"Ġwatercolour":7422,"Ġvortex":7423,"aggerated":7424,"lenciaga":7425,"Ġhourglass":7426,"complex":7427,"Ġinfrared":7428,"Ġviewer":7429,"illet":7430,"ĠInd":7431,"erich":7432,"ĠChinese":7433,"Ġripples":7434,"Ġhaw":7435,"rompt":7436,"Ġships":7437,"0000":7438,"Ġcolorized":7439,"Ġfangs":7440,"bed":7441,"riclot":7442,"Ġwinkelmann":7443,"sden":7444,"rah":7445,"Ġtum":7446,"Ġbrazier":7447,"restrial":7448,"osa":7449,"ĠðŁĳ":7450,"Ġpon":7451,"Ġdeck":7452,"around":7453,"sov":7454,"Ġcharcoal":7455,"Ġrolling":7456,"gn":7457,"Ġetching":7458,"Ġneural":7459,"rooms":7460,"Ġdisc":7461,"Ġflares":7462,"Ġsplashes":7463,"Ġcrystalline":7464,"Ã¥":7465,"Ġreaching":7466,"Ġmedusa":7467,"Ġfishing":7468,"breathtaking":7469,"Ġunknown":7470,"ington":7471,"ĠâĢĻ":7472,"Ġrisograph":7473,"Ġzootopia":7474,"Ġdurer":7475,"Ġgaming":7476,"ĠMasterpiece":7477,"Ġcountryside":7478,"Ġprecise":7479,"plane":7480,"Ġcooking":7481,"fully":7482,"Ġisola":7483,"guyen":7484,"Ġtool":7485,"Ġcasey":7486,"Ġheadpiece":7487,"acock":7488,"Ġsnakes":7489,"Ġinsect":7490,"Ġignacio":7491,"ilar":7492,"Ġrud":7493,"ĠJason":7494,"lief":7495,"Ġdestroying":7496,"DS":7497,"Ġalso":7498,"Ġhologram":7499,"Ġaven":7500,"Ġgree":7501,"cott":7502,"ĠCho":7503,"breaker":7504,"Ġsymbolic":7505,"Ġbeyond":7506,"ĠOrganic":7507,"ashin":7508,"Ġalchemist":7509,"gig":7510,"pal":7511,"Ġexist":7512,"Ġmasters":7513,"otone":7514,"Ġarea":7515,"Ġfernandez":7516,"Ġdestiny":7517,"Ġbudd":7518,"Ġanne":7519,"Ġsandra":7520,"bowitz":7521,"ĠðŁĮ":7522,"Greg":7523,"Ġson":7524,"Ġrack":7525,"Ġ30":7526,"Ġarcimboldo":7527,"sley":7528,"Ġkolesov":7529,"cake":7530,"far":7531,"Ġmiles":7532,"Ġcomma":7533,"Walter":7534,"Ġcoloring":7535,"rio":7536,"vain":7537,"Ġapex":7538,"Ġbionic":7539,"angel":7540,"underwater":7541,"Ġcubism":7542,"cartoon":7543,"Ġblunt":7544,"people":7545,"nabis":7546,"Ġlouise":7547,"Joe":7548,"Ġmythology":7549,"High":7550,"Ġcass":7551,"Ġperi":7552,"jol":7553,"lege":7554,"duct":7555,"Ġfresh":7556,"Ġrecord":7557,"Ġeric":7558,"Ġspea":7559,"Ġgiantess":7560,"fy":7561,"stralian":7562,"Ġswimsuit":7563,"Tom":7564,"recht":7565,"Ġbeet":7566,"tophe":7567,"rific":7568,"Ġbilibin":7569,"Ġastral":7570,"usai":7571,"Ġkarl":7572,"Ġcheerful":7573,"Ġsparks":7574,"uration":7575,"ĠRoger":7576,"uddles":7577,"Ġfrederic":7578,"Ġfuj":7579,"ĠAI":7580,"Ġbeen":7581,"Ġwildlife":7582,"Ġblockbuster":7583,"Ġharsh":7584,"ermal":7585,"Man":7586,"OS":7587,"uters":7588,"Ġnvidia":7589,"ĠCap":7590,"Ġimpressive":7591,"flix":7592,"Ġbuff":7593,"illian":7594,"Ġrider":7595,"Ġaccidental":7596,"hobia":7597,"Ġglistening":7598,"knight":7599,"ÆĴ":7600,"Ġstare":7601,"ogen":7602,"Ġbelt":7603,"flo":7604,"incred":7605,"Ġwhose":7606,"Ġnicholas":7607,"Ġbard":7608,"Ġmay":7609,"Ġenvironement":7610,"Ġcluttered":7611,"Ġmegapix":7612,"ĠRichard":7613,"arc":7614,"ĠPolaroid":7615,"ĠKing":7616,"ueen":7617,"shop":7618,"Ġhearts":7619,"Ġcarnival":7620,"Ġstyles":7621,"noon":7622,"Ġmoonlit":7623,"Ġelectrical":7624,"Ġfungal":7625,"Ġsink":7626,"Ġour":7627,"trait":7628,"Ġcitizen":7629,"dium":7630,"Ġ=":7631,"Ġdome":7632,"Ġbeam":7633,"warz":7634,"Ġboxing":7635,"bio":7636,"Ġgonsalves":7637,"Ġmichal":7638,"Ġdavinci":7639,"Ġbritish":7640,"ĠMaya":7641,"Ġorigami":7642,"jamin":7643,"Ġbin":7644,"Ġbumble":7645,"Ġrenderer":7646,"Ġinterstellar":7647,"Ġseamless":7648,"end":7649,"Ġpuppet":7650,"esz":7651,"Ġjunk":7652,"Ġyang":7653,"Ġexaggerated":7654,"Ġaxe":7655,"gia":7656,"ĠWolf":7657,"eanu":7658,"gative":7659,"little":7660,"tr":7661,"Ġsmoky":7662,"Ġzombies":7663,"Ġsubmarine":7664,"sam":7665,"erser":7666,"ĠGa":7667,"Ġstudios":7668,"Ġbibin":7669,"Ġcompany":7670,"Ġdrum":7671,"ĠMagritte":7672,"cony":7673,"askas":7674,"Ġchamp":7675,"Ġmodeling":7676,"Ġterror":7677,"Ġchef":7678,"Ġbriclot":7679,"goddess":7680,"logo":7681,"Ġasher":7682,"Ġseuss":7683,"Ġmickey":7684,"Ġdrunk":7685,"Ġmexican":7686,"sen":7687,"ĠEarth":7688,"Ġado":7689,"ĠIt":7690,"Ġbalcony":7691,"Ġaberration":7692,"Ġdamaged":7693,"unreal":7694,"Ġchina":7695,"Ġparadise":7696,"Ġlat":7697,"Ġsimp":7698,"Ġstoic":7699,"Ġskele":7700,"town":7701,"Ġcommercial":7702,"ĠAdrian":7703,"35":7704,"oru":7705,"Ġholds":7706,"Ġhorizontal":7707,"Ġfeel":7708,"Ġlucas":7709,"ĠAnton":7710,"Ġurbex":7711,"Ġsides":7712,"she":7713,"Ġquiet":7714,"ON":7715,"Ġspacecraft":7716,"Ġmasks":7717,"Ġbread":7718,"ĠDragon":7719,"Ġteddy":7720,"Ġdelicious":7721,"Ġseveral":7722,"Ġcri":7723,"Ġny":7724,"urand":7725,"Ġheaded":7726,"Ġcreating":7727,"Ġlantern":7728,"lant":7729,"Ġscars":7730,"Ġbass":7731,"ĠFu":7732,"Ã¥lenhag":7733,"100":7734,"bird":7735,"fashion":7736,"Ġsen":7737,"Ġthermal":7738,"Ġtrapped":7739,"201":7740,"Ġaraki":7741,"Ġglenn":7742,"Ġmature":7743,"Ġgius":7744,"ĠDevi":7745,"Ġsized":7746,"cos":7747,"Ġsurrealistic":7748,"ĠFan":7749,"Ġswirls":7750,"Ġfootball":7751,"Ġlucian":7752,"Ġkatsura":7753,"reme":7754,"pool":7755,"settling":7756,"Ġ',":7757,"Ġlayered":7758,"'m":7759,"Ġheavily":7760,"Ġlotr":7761,"Ġvalent":7762,"Mo":7763,"rational":7764,"Ġlie":7765,"cend":7766,"shine":7767,"Ġsyn":7768,"ĠChrist":7769,"warzenegger":7770,"Ġmp":7771,"acro":7772,"uso":7773,"Ġmem":7774,"Ġhorrifying":7775,"Ġofficer":7776,"Ġgiuseppe":7777,"Ġjud":7778,"Ġtakes":7779,"Ġterri":7780,"fal":7781,"irst":7782,"Ġtired":7783,"Ġmasakazu":7784,"Ġslu":7785,"ĠHor":7786,"Ġdanny":7787,"michael":7788,"Ġhex":7789,"ĠLois":7790,"Ġreligious":7791,"wich":7792,"Ġpuddles":7793,"Ġpast":7794,"Ġhobbit":7795,"akes":7796,"Ġimper":7797,"ĠLeighton":7798,"((((((((":7799,"ermit":7800,"Ġimpossible":7801,"born":7802,"Ġgild":7803,"Ġrustic":7804,"Ġafternoon":7805,"Ġkishiro":7806,"Ġfungus":7807,"Ġyukito":7808,"ctor":7809,"ĠÆĴ":7810,"Ġkardashian":7811,"Ġshishkin":7812,"Ġtechnological":7813,"pelle":7814,"ï¸":7815,"Ġpanels":7816,"design":7817,"Ġfold":7818,"Ġrelaxed":7819,"Ġflaw":7820,"Ġstairs":7821,"than":7822,"three":7823,"Ġrema":7824,"chromatic":7825,"ĠLi":7826,"ĠKatsu":7827,"Ġsubmer":7828,"edy":7829,"picture":7830,"Ġmelmoth":7831,"Ġaustin":7832,"Ġunited":7833,"Ġleco":7834,"Ġtest":7835,"Ġhig":7836,"rang":7837,"Ġdraws":7838,"Ġfif":7839,"Ġhairs":7840,"urakami":7841,"iang":7842,"gotten":7843,"Ġturnaround":7844,"Ġeastern":7845,"Ġclimbing":7846,"lena":7847,"Ġstyled":7848,"ĠKen":7849,"HA":7850,"Ġotto":7851,"Ġharp":7852,"ummy":7853,"Ġdelo":7854,"Ġdeakins":7855,"ĠHen":7856,"ĠLuc":7857,"ĠPhotorealistic":7858,"Ġdecor":7859,"Ġhollow":7860,"Ġsuspe":7861,"Ġflawless":7862,"poleon":7863,"Ġneed":7864,"Ġfranz":7865,"Ġmystery":7866,"ryan":7867,"Ġemmanuel":7868,"foot":7869,"ĠYork":7870,"Ġalchemy":7871,"mly":7872,"tait":7873,"acy":7874,"Ġgodzilla":7875,"Ġraphaelite":7876,"Ġprime":7877,"tiago":7878,"edish":7879,"Ġcontent":7880,"Ġframed":7881,"Ġmovement":7882,"Ġjacobson":7883,"udi":7884,"Ġunsettling":7885,"Ġmug":7886,"Ġsynthes":7887,"Ġenjo":7888,"izard":7889,"Ġ1950":7890,"Ġlecouffe":7891,"mount":7892,"Ġjulie":7893,"Ġohrai":7894,"nde":7895,"Ġheng":7896,"Ġpeacock":7897,"frie":7898,"Ġmilli":7899,"Ġimag":7900,"ĠDaniel":7901,"golden":7902,"Ġcore":7903,"irrel":7904,"kawa":7905,"Ġplague":7906,"rinth":7907,"Ġoptical":7908,"ombat":7909,"otype":7910,"Ġroller":7911,"Ġmandelbulb":7912,"Ġthrowing":7913,"Ġvirtual":7914,"donalds":7915,"ĠTer":7916,"Ġheight":7917,"Ġmachin":7918,"Ġvignette":7919,"rical":7920,"Ġvase":7921,"Ġwinged":7922,"ĠRaphael":7923,"Ġtreasure":7924,"byrinth":7925,"Ġvas":7926,"inyl":7927,"ĠDramatic":7928,"Ġshaun":7929,"Ġsummon":7930,"Ġsilent":7931,"Ġrelief":7932,"Ġlew":7933,"Ġchem":7934,"Ġcolorfull":7935,"wan":7936,"iana":7937,"ĠWal":7938,"Ġempire":7939,"Ġwei":7940,"Ġdrew":7941,"Ġdinet":7942,"adic":7943,"Ġgaga":7944,"Ġyusuke":7945,"vens":7946,"Ġkelly":7947,"Ġnoriyoshi":7948,"Ġalbrecht":7949,"Ġscattered":7950,"Ġbrutalism":7951,"Ġcracked":7952,"Ġchasing":7953,"Ġcable":7954,"Ġbutton":7955,"ĠSimpson":7956,"Ġfinger":7957,"Ġedwin":7958,"Ġluc":7959,"Ġconscious":7960,"Ġalgor":7961,"shell":7962,"Ġmodular":7963,"Ġware":7964,"huge":7965,"Ġprismatic":7966,"Ġnasreddine":7967,"realis":7968,"hrhauser":7969,"lanet":7970,"Ġmonument":7971,"Ġpoor":7972,"Ġtesla":7973,"Ġmiku":7974,"bidden":7975,"Ġequip":7976,"Pa":7977,"cate":7978,"darth":7979,"Ġkin":7980,"ĠKentaro":7981,"Ġplayful":7982,"cinestill":7983,"Ġvers":7984,"Ġexpired":7985,"ĠDali":7986,"Ġdangerous":7987,"Ġupon":7988,"Ġgrid":7989,"Ġplayed":7990,"Ġspheres":7991,"MP":7992,"Ġlynch":7993,"Ġtomato":7994,"rano":7995,"illed":7996,"berries":7997,"erson":7998,"Ġukiyo":7999,"ĠKa":8000,"ĠPhotography":8001,"muscular":8002,"kanye":8003,"Ġopa":8004,"Ġstates":8005,"Ġgym":8006,"olan":8007,"Ġsunbea":8008,"Ġimagin":8009,"horse":8010,"hito":8011,"Ġsage":8012,"Ġbiomorphic":8013,"Ġjohanna":8014,"ĠArthur":8015,"Ġé":8016,"Ġshiba":8017,"Ġkandinsky":8018,"Ġhewlett":8019,"zombie":8020,"ĠAnna":8021,"Ġplatform":8022,"rted":8023,"Ġpope":8024,"Ġextremly":8025,"lender":8026,"Ġcone":8027,"terns":8028,"ĠDes":8029,"Ġgarbage":8030,"Ġearrings":8031,"blu":8032,"Ġnord":8033,"Ġnegative":8034,"Ġcarne":8035,"tard":8036,"Ġniko":8037,"Ġhacker":8038,"Ġprac":8039,"lyph":8040,"ĠRene":8041,"Ġsyl":8042,"Ġvalue":8043,"Ġchevrier":8044,"Ġlei":8045,"Ġilm":8046,"Ġsweat":8047,"dobe":8048,"Ġghostly":8049,"dimensional":8050,"Ġunsplash":8051,"Ġclaesz":8052,"galactic":8053,"ĠElvgren":8054,"lines":8055,"nick":8056,"Ġmuscle":8057,"Ġaleksi":8058,"Ġbumblebee":8059,"Ġmorty":8060,"Ġoutline":8061,"Ġenchanting":8062,"Ġtechnicolor":8063,"clu":8064,"Ġmayan":8065,"Ġmodels":8066,"Ġcurved":8067,"Ġhardy":8068,"Ġcrono":8069,"Ġbauhaus":8070,"rea":8071,"Ġstella":8072,"ðŁ¦":8073,"Ġneoclassical":8074,"Ġalgorith":8075,"Ġproud":8076,"Ġnun":8077,"Ġlazar":8078,"Ġwindy":8079,"Ġteenager":8080,"Ġumbrella":8081,"sad":8082,"Ġredd":8083,"Ġisolated":8084,"ï¸ı":8085,"mr":8086,"allis":8087,"Ġsparkles":8088,"ĠHanuka":8089,"Ġrutkowsky":8090,"flu":8091,"Ġtrue":8092,"Ġfuzzy":8093,"Ġglorious":8094,"ĠCanon":8095,"uits":8096,"Ġdic":8097,"Ġdad":8098,"orfi":8099,"Ġkate":8100,"photographic":8101,"Ġknights":8102,"Ġdrops":8103,"Ġbasil":8104,"Ne":8105,"Ġnat":8106,"ĠBli":8107,"ĠBus":8108,"cative":8109,"Ġcheval":8110,"cending":8111,"romallis":8112,"Ġfrostbite":8113,"uerreotype":8114,"ĠKatsuhiro":8115,"boding":8116,"orow":8117,"ĠMer":8118,"Ġpete":8119,"Ġellen":8120,"Ġorientalism":8121,"ccer":8122,"ĠRes":8123,"Ġchamber":8124,"Ġdunes":8125,"Ġequipment":8126,"arm":8127,"Ġawesome":8128,"strong":8129,"don":8130,"tatto":8131,"Ġkong":8132,"cade":8133,"ĠHoudini":8134,"Ġexploring":8135,"mach":8136,"Ġsap":8137,"eldon":8138,"Ġdreamscape":8139,"Ġinterface":8140,"Ġalleyway":8141,"bla":8142,"dr":8143,"Ġpump":8144,"Ġoscar":8145,"Ġbadass":8146,"ĠStyle":8147,"Ġperiod":8148,"Ġpuff":8149,"ĠAuble":8150,"Ġtile":8151,"Ġplays":8152,"Ġelectricity":8153,"acroix":8154,"ĠAublet":8155,"Ġkaz":8156,"Ġmaze":8157,"Ġdirect":8158,"Ġgeof":8159,"Ġcleric":8160,"ĠPerfect":8161,"Ġslow":8162,"Ġthief":8163,"Ġjac":8164,"Ġtransformers":8165,"Ġcronobreaker":8166,"isode":8167,"Ġshore":8168,"actus":8169,"Ġpeaks":8170,"Ġorthographic":8171,"trans":8172,"Ġsugar":8173,"ĠLip":8174,"Ġtrim":8175,"Ġtheodore":8176,"evin":8177,"Ġharley":8178,"canny":8179,"yanami":8180,"ticing":8181,"Ġbalenciaga":8182,"Ġryan":8183,"Ġfrancisco":8184,"innon":8185,"Ġlanterns":8186,"iscent":8187,"Ġkuciara":8188,"Ġconstruc":8189,"ĠSan":8190,"ĠHea":8191,"Ġterada":8192,"Ġflickr":8193,"mask":8194,"Ġjester":8195,"ĠTomer":8196,"rocod":8197,"Ġclockwork":8198,"Ġshr":8199,"Ġspear":8200,"Ġnaga":8201,"Ġadobe":8202,"tattoo":8203,"Ġhunt":8204,"how":8205,"Ġliberty":8206,"love":8207,"char":8208,"Ġjohnston":8209,"Ġkatsuya":8210,"Ġzenith":8211,"Ġsubmerged":8212,"MA":8213,"Ġown":8214,"ĠRep":8215,"Ġantlers":8216,"imagined":8217,"Ġforgotten":8218,"Ġcards":8219,"ĠCollier":8220,"bey":8221,"Ġsakura":8222,"Ġpock":8223,"Ġbarn":8224,"Ġlipstick":8225,"bian":8226,"Åĵ":8227,"Ġtabby":8228,"Ġtriadic":8229,"Ġmosa":8230,"Ġ400":8231,"Ġmcdonald":8232,"Ġfinish":8233,"vocative":8234,"ien":8235,"Ġgucci":8236,"robo":8237,"Ġfiring":8238,"crow":8239,"hair":8240,"Ġroth":8241,"Ġleighton":8242,"Ġye":8243,"gawa":8244,"Ġexpan":8245,"ites":8246,"Ġphilippe":8247,"Ġoval":8248,"Ġvinyl":8249,"Ġscarlet":8250,"Ġvac":8251,"ĠVery":8252,"Ġcybernetics":8253,"gate":8254,"pat":8255,"Ġwillem":8256,"Ġkaw":8257,"Ġposta":8258,"hawk":8259,"Ġerik":8260,"rils":8261,"tex":8262,"Ġshel":8263,"ĠWorld":8264,"bright":8265,"Ġdocumentary":8266,"oshima":8267,"Ġclar":8268,"Ġgrande":8269,"Ġsecond":8270,"band":8271,"bstract":8272,"Ġoo":8273,"Ġrede":8274,"ĠPar":8275,"Ġworn":8276,"Ġforeboding":8277,"kins":8278,"ĠPrin":8279,"Ġoriginal":8280,"Ġgnome":8281,"Ġexci":8282,"Ġwaving":8283,"Ġkaluta":8284,"Ġwriting":8285,"Ġdwayne":8286,"Ġmess":8287,"ĠAdobe":8288,"Ġgoo":8289,"Ġstick":8290,"Ġcomb":8291,"ĠEdmund":8292,"riterion":8293,"burg":8294,"Ġsix":8295,"arl":8296,"Ġresting":8297,"Ġmotif":8298,"ript":8299,"cialist":8300,"detail":8301,"ĠDi":8302,"Ġperfection":8303,"Ġhund":8304,"Ġmasked":8305,"Ġany":8306,"ĠWes":8307,"Ġforbidden":8308,"spider":8309,"burn":8310,"Ġsurfing":8311,"FX":8312,"Ġreef":8313,"metal":8314,"ĠJon":8315,"ĠIs":8316,"Ġactress":8317,"Ġrig":8318,"lling":8319,"Ġcryp":8320,"Ġbalaskas":8321,"Ġgeneral":8322,"Ġtransforming":8323,"Ġhundred":8324,"Ġbicy":8325,"Ġwise":8326,"ulture":8327,"urity":8328,"nerton":8329,"Ġemotions":8330,"Ġ>":8331,"Ġgenesis":8332,"Ġdreary":8333,"âĻ":8334,"Ġdere":8335,"stones":8336,"Ġcare":8337,"Ġwords":8338,"izer":8339,"Ġfrag":8340,"ðŁį":8341,"hattan":8342,"ynnerton":8343,"99":8344,"cled":8345,"vor":8346,"yl":8347,"Ġslo":8348,"ĠMad":8349,"!!!!!!!":8350,"Ġdrink":8351,"ĠIntricate":8352,"Ġdepiction":8353,"hips":8354,"Ġtendrils":8355,"omas":8356,"Ġrex":8357,"Ġreeves":8358,"Ġarrow":8359,"national":8360,"Ġberg":8361,"Cy":8362,"ucks":8363,"ĠEat":8364,"Ġtang":8365,"Ġmol":8366,"Ġpixela":8367,"Ġamph":8368,"ustice":8369,"Ġjoyful":8370,"Ġfeathered":8371,"rem":8372,"abandoned":8373,"Ġslice":8374,"Ġrectang":8375,"Ġexplorer":8376,"Ġlimbs":8377,"Ġpassionate":8378,"Åĵbius":8379,"Al":8380,"ligent":8381,"rov":8382,"Ġsantiago":8383,"Ġazure":8384,"AW":8385,"ido":8386,"Ġenvironmental":8387,"Ġairship":8388,"Ġgerhartz":8389,"Ġparticulate":8390,"Ġsupper":8391,"Ġaudrey":8392,"orowsky":8393,"uis":8394,"chris":8395,"Ġsleep":8396,"Ġborders":8397,"Ġleader":8398,"unky":8399,"evous":8400,"Ġmonitor":8401,"evil":8402,"ardens":8403,"Ġlabyrinth":8404,"ĠRub":8405,"para":8406,"Ġbloodborne":8407,"ĠArc":8408,"Ġmichel":8409,"Ġfruits":8410,"Ġphan":8411,"Ġgolf":8412,"ower":8413,"japanese":8414,"melon":8415,"Ġnetflix":8416,"lone":8417,"neck":8418,"Ġellis":8419,"Ġvillain":8420,"Ġkeith":8421,"ĠMaciej":8422,"sal":8423,"eral":8424,"sso":8425,"Ġsund":8426,"Ġgigachad":8427,"Ġcompre":8428,"Ġtrooper":8429,"ech":8430,"hil":8431,"Ġpac":8432,"Ġreimagined":8433,"Ġlooming":8434,"Ġrefined":8435,"ibrant":8436,"arry":8437,"ĠMitchell":8438,"ĠLaurie":8439,"je":8440,"Ġkiss":8441,"aming":8442,"Ġcannabis":8443,"mented":8444,"Ġtattooed":8445,"Ġ<":8446,"Ġing":8447,"Ġscor":8448,"Ġsoccer":8449,"ĠVader":8450,"duction":8451,"Ġspiky":8452,"Ġadventurer":8453,"amazing":8454,"Ġeis":8455,"Ġplaystation":8456,"chievous":8457,"Ġkyoani":8458,"Ġautomata":8459,"ĠBlade":8460,"kra":8461,"Ġulti":8462,"Ġthr":8463,"ulus":8464,"Ġviewed":8465,"azz":8466,"Ġstruzan":8467,"Ġdecoration":8468,"Ġkeyshot":8469,"Ġcriterion":8470,"ĠSyd":8471,"Ġcaught":8472,"LR":8473,"wel":8474,"erina":8475,"Ġhus":8476,"kee":8477,"epard":8478,"Ġmik":8479,"Ġmoment":8480,"El":8481,"elsen":8482,"comic":8483,"Ġcommunist":8484,"Ġwarp":8485,"Ġrusted":8486,"Ġfifth":8487,"rocodile":8488,"Ġoleg":8489,"Ġjr":8490,"Ġstrawberry":8491,"fol":8492,"Ġput":8493,"Ġrust":8494,"Ġmandala":8495,"Ġcliffs":8496,"Ġglad":8497,"antine":8498,"porate":8499,"Ġepisode":8500,"Ġpitch":8501,"boo":8502,"eller":8503,"Ġbride":8504,"icz":8505,"ucky":8506,"Ġcrumb":8507,"wall":8508,"lect":8509,"Ġadd":8510,"Ġlumen":8511,"Ġtunic":8512,"Ġglamorous":8513,"Ġtriangle":8514,"Ġago":8515,"Ġhind":8516,"Ġultrasharp":8517,"ĠKuciara":8518,"Ġcheek":8519,"Ġsymbolism":8520,"Ġsurfaces":8521,"ĠJos":8522,"usei":8523,"Ġmads":8524,"ĠGolden":8525,"Ġrotten":8526,"Ġinspirational":8527,"Ġjennifer":8528,"ĠGonza":8529,"ĠJan":8530,"Ġgodward":8531,"Ġbridges":8532,"tinum":8533,"Ġinsects":8534,"cross":8535,"pris":8536,"ĠSung":8537,"Ġelemental":8538,"Ġpersian":8539,"Ġedmund":8540,"emp":8541,"ristine":8542,"Ġcomprehen":8543,"tite":8544,"Ġcoast":8545,"Ġtint":8546,"ĠCas":8547,"Ġhop":8548,"ĠLea":8549,"Ġpointed":8550,"ĠBer":8551,"ĠFred":8552,"ilyn":8553,"itas":8554,"Ġorder":8555,"Ġchief":8556,"Ġyelling":8557,"olumetric":8558,"ĠWe":8559,"Ġcrashing":8560,"Ġcircuitry":8561,"Ġgravure":8562,"igra":8563,"Ġpouring":8564,"extreme":8565,"historic":8566,"jolras":8567,"tched":8568,"ĠMaxim":8569,"Ġtheat":8570,"Ġstems":8571,"Ġused":8572,"Ġnearby":8573,"Ġpil":8574,"ĠNas":8575,"Ġlevitating":8576,"sn":8577,"Ġatop":8578,"Ġtae":8579,"trooper":8580,"Ġremaster":8581,"Ġmathe":8582,"ĠðŁĲ":8583,"Ġbudget":8584,"railh":8585,"Ġinstal":8586,"Ġonto":8587,"Ġfocal":8588,"ED":8589,"Ġpbr":8590,"Ġpad":8591,"aphaelite":8592,"Ġhalluc":8593,"Ġspin":8594,"othing":8595,"ĠMusk":8596,"Ġargyle":8597,"Ġswedish":8598,"ĠFanning":8599,"gr":8600,"Ġvita":8601,"Ġwoodblock":8602,"child":8603,"ĠCat":8604,"Ġsaturation":8605,"ĠGonzalez":8606,"Ġhints":8607,"Ġlofi":8608,"upiter":8609,"Ġboho":8610,"Ġsailing":8611,"Ġcorrid":8612,"Ġcomputers":8613,"ĠShinkawa":8614,"Ġcourtyard":8615,"cell":8616,"ĠEs":8617,"rens":8618,"Ġkits":8619,"point":8620,"ifilm":8621,"Ġdepicted":8622,"Ġpisto":8623,"mass":8624,"ĠDore":8625,"sonic":8626,"Ġsanta":8627,"Ġfright":8628,"Ġrope":8629,"ĠBra":8630,"Ġsandwich":8631,"Ġmosaic":8632,"bit":8633,"Ġbong":8634,"Ġkom":8635,"olin":8636,"ranes":8637,"ressing":8638,"Ġscared":8639,"ijuana":8640,"Ġrevolution":8641,"Ġfuturist":8642,"therine":8643,"undra":8644,"Ġfusion":8645,"ila":8646,"Ġthought":8647,"Ġmorris":8648,"Ġpopular":8649,"ĠBatman":8650,"Ġbark":8651,"Ġjohannes":8652,"Ġinfluen":8653,"Ġtoad":8654,"Ġdisgu":8655,"irony":8656,"maki":8657,"Ġsher":8658,"Ġambro":8659,"Ġdried":8660,"Ġvisuals":8661,"Ġaub":8662,"198":8663,"classic":8664,"Ġmeets":8665,"Ġsunshine":8666,"Ġswing":8667,")),":8668,"Ġnewspaper":8669,"Ġwandering":8670,"chel":8671,"cop":8672,"Ġdiner":8673,"andros":8674,"ĠPennington":8675,"Ġseal":8676,"ĠPhotoshop":8677,"ðĿ":8678,"neon":8679,"fort":8680,"Ġnormal":8681,"ĠGeorge":8682,"ishi":8683,"Ġstuff":8684,"Ġconstruction":8685,"imed":8686,"aylor":8687,"Ġtiff":8688,"Ġlegendary":8689,"demon":8690,"Ġbraids":8691,"ĠJosan":8692,"ĠRunner":8693,"Ġforrest":8694,"tagonist":8695,"ans":8696,"eco":8697,"ĠPi":8698,"Ġindie":8699,"Ġchristophe":8700,"Ġmelancholic":8701,"Ġrise":8702,"Ġwalks":8703,"Ġbioluminescence":8704,"Ġcombin":8705,"Ġcrawling":8706,"Ġlog":8707,"Ġkai":8708,"oster":8709,"ãģ":8710,"angry":8711,"Ġkaiju":8712,"Ġedited":8713,"horror":8714,"ico":8715,"ppling":8716,"Ġstark":8717,"Ġsewer":8718,"zzle":8719,"warts":8720,"ĠBlood":8721,"Ġgilded":8722,"most":8723,"Ġhazel":8724,"ĠGhenie":8725,"Ġdeser":8726,"ĠFriedrich":8727,"aly":8728,"Ġcons":8729,"Ġcatho":8730,"Ġmorph":8731,"Ġcolumns":8732,"Ġcatholic":8733,"ulent":8734,"Ġdc":8735,"lio":8736,"gho":8737,"Ġkiller":8738,"kyrie":8739,"Ġblake":8740,"Ġanalogue":8741,"Ġintrin":8742,"Ġberser":8743,"Ġpep":8744,"Ġlighthouse":8745,"Ġrail":8746,"ĠMoon":8747,"Ġcatherine":8748,"ĠMovie":8749,"Ġdenning":8750,"Ġextraterrestrial":8751,"onna":8752,"position":8753,"gshot":8754,"Ġplatinum":8755,"Ġseason":8756,"Ġappea":8757,"Ġmegastructure":8758,"inav":8759,"Ġpc":8760,"Ġhodas":8761,"ensive":8762,"ĠPhotograph":8763,"purs":8764,"Ġdestruction":8765,"lav":8766,"Ġjane":8767,"Ġmane":8768,"Ġaccess":8769,"ĠChoi":8770,"cub":8771,"wind":8772,"remov":8773,"ĠTwin":8774,"Ġemotion":8775,"Ġearring":8776,"Ġmischievous":8777,"Ġcosplaying":8778,"Ġbanksy":8779,"Ġdrag":8780,"Ġjodh":8781,"ĠJesper":8782,"Ġcombination":8783,"Ġtitian":8784,"Ġwarehouse":8785,"Full":8786,"Ġsomething":8787,"techno":8788,"ĠEaton":8789,"sim":8790,"entin":8791,"Ġfinland":8792,"erotic":8793,"Ġstrip":8794,"Ġpointy":8795,"Ġnavy":8796,"Ġbackrooms":8797,"Ġmeaning":8798,"andinav":8799,"fox":8800,"Ġ1920":8801,"tim":8802,"ĠDS":8803,"Ġkaws":8804,"Ġturning":8805,"zantine":8806,"ĠEpic":8807,"Ġnordic":8808,"tori":8809,"Ġeg":8810,"Ġjc":8811,"yout":8812,"ĠðŁİ":8813,"Ġspikes":8814,"''":8815,"Ġpoots":8816,"Ġmobile":8817,"Ġenlight":8818,"ĠYoji":8819,"Ġoliver":8820,"Ġmachinery":8821,"Ġriot":8822,"deep":8823,"Ġtomboy":8824,"Ġshadowy":8825,"mption":8826,"Ġjuice":8827,"Ġpierre":8828,"Ġbicycle":8829,"Ġbj":8830,"ĠRen":8831,"ĠFer":8832,"ĠVer":8833,"Ġhannah":8834,"Ġemoji":8835,"Ġceltic":8836,"Ġ2022":8837,"Ġglittering":8838,"gura":8839,"ict":8840,"Ġshattered":8841,"Ġserver":8842,"Ġpillars":8843,"ause":8844,"Ġarthouse":8845,"ĠVibrant":8846,"Ġcelebra":8847,"Ġagent":8848,"Ġthier":8849,"Ġstern":8850,"Ġheal":8851,"Ġsquirrel":8852,"Ġchalk":8853,"Ġexhibi":8854,"Ġpoker":8855,"odle":8856,"blem":8857,"Ġist":8858,"Ġsecurity":8859,"Ġmelancholy":8860,"Ġredemption":8861,"Ġjodhpurs":8862,"Ġlily":8863,"rium":8864,"Ġmicrophone":8865,"Ġhollywood":8866,"Ġsuburban":8867,"Ġmt":8868,"Ġwit":8869,"Ġlun":8870,"ĠMurata":8871,"ĠVilleneuve":8872,"Ġjodorowsky":8873,"Ġtiffany":8874,"IN":8875,"fast":8876,"Ġbomber":8877,"tart":8878,"Ġshou":8879,"nation":8880,"Ġhistory":8881,"Ġblouse":8882,"Ġhomo":8883,"ort":8884,"ĠCam":8885,"Ġsocialist":8886,"Ġoily":8887,"Ġhorned":8888,"Anime":8889,"ĠMonge":8890,"Ġcrashed":8891,"Ġleibowitz":8892,"Ġwan":8893,"Ġpair":8894,"Ġposition":8895,"ssa":8896,"Ġorbs":8897,"ĠEjsing":8898,"Ġblooming":8899,"Ġmonumental":8900,"Baptiste":8901,"bill":8902,"Ġinte":8903,"Ġthre":8904,"ĠWalter":8905,"Ġdogg":8906,"Ġbuzz":8907,"Ġchie":8908,"creepy":8909,"Ġhomer":8910,"Ġnazi":8911,"ĠGarmash":8912,"licop":8913,"tus":8914,"Ġcum":8915,"omer":8916,"Ġsandorfi":8917,"ffic":8918,"Ġaesthetics":8919,"Ġbeak":8920,"Ġexperience":8921,"finder":8922,"Ġpristine":8923,"Ġpoli":8924,"ĠDean":8925,"Ġmarijuana":8926,"okyo":8927,"fia":8928,"Ġbond":8929,"mage":8930,"Ġmantis":8931,"Ġopal":8932,"Ġcollege":8933,"ĠAndrew":8934,"30":8935,"Dan":8936,"Ro":8937,"hal":8938,"renaissance":8939,"ĠStalenhag":8940,"roe":8941,"laimed":8942,"Ġnumber":8943,"bel":8944,"Ġshy":8945,"Ġfix":8946,"ĠGame":8947,"ĠGriff":8948,"Ġtwist":8949,"Ġattached":8950,"Ġhomeless":8951,"Ġorchid":8952,"Ġskeletal":8953,"Ġenjoying":8954,"Close":8955,"Ġmoore":8956,"Ġsoup":8957,"ians":8958,"amese":8959,"holz":8960,"elegant":8961,"Ġnagaoka":8962,"Con":8963,"hfra":8964,"Ġlimi":8965,"Ġshusei":8966,"asis":8967,"ppie":8968,"ilian":8969,"tag":8970,"ented":8971,"Ġnur":8972,"Ġuncanny":8973,"zzi":8974,"Ġslick":8975,"Ġcontaining":8976,"subsurface":8977,"Ġinstallation":8978,"Ġthierry":8979,"Ġlitho":8980,"Ġparal":8981,"Ġseaside":8982,"Ġmonolith":8983,"Ġgri":8984,"Ġminion":8985,"Ġstripes":8986,"ĠAndreas":8987,"Ġphantom":8988,"Ġultimate":8989,"vio":8990,"tica":8991,"Ġtitled":8992,"Ġcreed":8993,"year":8994,"Ġayanami":8995,"Ġkor":8996,"Ġpersonification":8997,"Ġrome":8998,"Ġcatgirl":8999,"Ġwinding":9000,"Ġglory":9001,"Ġgriffiths":9002,"AR":9003,"gothic":9004,"Ġquinn":9005,"ruit":9006,"Ġclassicism":9007,"Ġsatanic":9008,"Ġalgorithmic":9009,"nan":9010,"inter":9011,"Ġaster":9012,"tated":9013,"Ġcactus":9014,"Ġfol":9015,"ĠWater":9016,"Ġballerina":9017,"Ġobsc":9018,"touched":9019,"Ġistvan":9020,"Ġbam":9021,"enting":9022,"rock":9023,"Ġworldboss":9024,"Ġmalevich":9025,"Ġdaytime":9026,"ritten":9027,"mu":9028,"atel":9029,"Ġnote":9030,"Ġclearing":9031,"ĠJackson":9032,"Ġsneakers":9033,"club":9034,"alo":9035,"Ġpoison":9036,"andowski":9037,"Ġpyromallis":9038,"Ġprism":9039,"Ġosman":9040,"Ġlimited":9041,"Ġmea":9042,"ĠDead":9043,"ĠOver":9044,"Ġbowie":9045,"Ġbeneath":9046,"ĠGreasley":9047,"Ġchannel":9048,"ĠMartin":9049,"Ġame":9050,"Ġsomber":9051,"Ġcrac":9052,"Ġriv":9053,"lorian":9054,"Ġimogen":9055,"Ġ1960":9056,"Ġshinji":9057,"Ġphysical":9058,"Ġvehicles":9059,"Ġhon":9060,"Ġpomeg":9061,"ĠBur":9062,"Ġcase":9063,"page":9064,"Ġflora":9065,"Ġkeyboard":9066,"Ġhyd":9067,"Ġdelphin":9068,"Ġsays":9069,"Ġmckinnon":9070,"magical":9071,"expressive":9072,"Ġmathematic":9073,"Ġpomegran":9074,"Ġspare":9075,"Ġchecker":9076,"Ġtied":9077,"Ġgest":9078,"Ġwheels":9079,"zza":9080,"rane":9081,"Ġenjolras":9082,"blical":9083,"sche":9084,"Ġspread":9085,"Ġbart":9086,"Ġimposing":9087,"Ġnorthern":9088,"Ġalfred":9089,"ulous":9090,"unkle":9091,"Ġthoma":9092,"Ġcursed":9093,"fat":9094,"ulu":9095,"Ġyouth":9096,"Ġdelacroix":9097,"Ġheartstone":9098,"Ġrotting":9099,"Ġtheft":9100,"cover":9101,"Ġfantastical":9102,"Ġintelligent":9103,"ĠBlair":9104,"Ġnasa":9105,"âĺ":9106,"Ġvanitas":9107,"vedon":9108,"Ġvenus":9109,"mbling":9110,"nant":9111,"tones":9112,")))":9113,"Ġsandman":9114,"Ġhimself":9115,"lipse":9116,"Ġwrestling":9117,"ĠMichelangelo":9118,"68":9119,"Ġotter":9120,"ories":9121,"Ġconto":9122,"Ġtotal":9123,"Ġtai":9124,"ĠCla":9125,"Ġneigh":9126,"Ġmonstrous":9127,"rainian":9128,"asaki":9129,"Ġbott":9130,"Ġwarriors":9131,"Ġdevo":9132,"Ġtentacle":9133,"Ġresem":9134,"gro":9135,"wick":9136,"ected":9137,"Ġstriped":9138,"Ġdruillet":9139,"Ġexhibition":9140,"SD":9141,"bas":9142,"Ġeman":9143,"Ġjourn":9144,"Ġweight":9145,"ĠObama":9146,"Ġcharming":9147,"Ġharmony":9148,"abriel":9149,"Ġtuomas":9150,"Ġspanish":9151,"Ġpostapocalyptic":9152,"Ġinking":9153,"Ġremo":9154,"ĠSar":9155,"Ġcyril":9156,"ĠJoker":9157,"aporwave":9158,"Ġhopeful":9159,"Ġdolphin":9160,"Ġbecause":9161,"Ġwrightson":9162,"eds":9163,"lady":9164,"ĠDep":9165,"ĠTristan":9166,"Ġhorrific":9167,"Ġoutrun":9168,"erno":9169,"Ġspaceships":9170,"Ġappro":9171,"Ġdurand":9172,"ank":9173,"Ġroversi":9174,"Ġchimer":9175,"Ġiceland":9176,"Ġcloaked":9177,"Ġspirals":9178,"Ġdup":9179,"Ġwon":9180,"ĠNi":9181,"Ġbutch":9182,"Ġclick":9183,"Ġavant":9184,"Ġagnes":9185,"Ġcarving":9186,"Ġvisually":9187,"Ġevoking":9188,"Ġastrophotography":9189,"batman":9190,"Ġdwarven":9191,"ĠCharacter":9192,"................":9193,"Ġbeetle":9194,"ĠEscher":9195,"Ġfr":9196,"Ġhunting":9197,"ĠMonet":9198,"ĠDSLR":9199,"Ġbir":9200,"hand":9201,"Ġleaning":9202,"Ġchen":9203,"mini":9204,"Ġflags":9205,"perfectly":9206,"igenous":9207,"Ġneoclassicist":9208,"ranean":9209,"Ġyata":9210,"jor":9211,"skin":9212,"Ġfind":9213,"Ġreada":9214,"iman":9215,"Ġtoon":9216,"Ġbring":9217,"Ġcargo":9218,"Ġhues":9219,"Ġveil":9220,"Ġproportional":9221,"Ġknee":9222,"Ġkan":9223,"ello":9224,"Ġtemp":9225,"Ġnostalgia":9226,"Ġcomprehensive":9227,"ironymous":9228,"Ġward":9229,"Ġgardens":9230,"Ġwife":9231,"Ġyor":9232,"lescope":9233,"Ġsilly":9234,"Ġairplane":9235,"ĠPixiv":9236,"Ġsenti":9237,"ario":9238,"Ġnag":9239,"asuma":9240,"ĠMead":9241,"Ġtale":9242,"ĠTing":9243,"Ġgolem":9244,"Ġmcdonalds":9245,"Ġrackham":9246,"ĠKodak":9247,"ĠEdgar":9248,"Ġidea":9249,"ĠMetal":9250,"Ġinner":9251,"Ġmazz":9252,"sterious":9253,"Ġlomo":9254,"ĠRalph":9255,"future":9256,"onim":9257,"blonde":9258,"Ġgrinning":9259,"Ġconsciousness":9260,"wi":9261,"tables":9262,"Ġcooper":9263,"Ġisa":9264,"Ġelle":9265,",,,,":9266,"Ġmartini":9267,"Ġquarter":9268,"Ġlock":9269,"Ġcyc":9270,"scri":9271,"garet":9272,"lsen":9273,"Ġdoorway":9274,"tary":9275,"tias":9276,"Ġcrocodile":9277,"Ġstuck":9278,"Ġleo":9279,"epburn":9280,"Ġmargot":9281,"Ġpatterned":9282,"Ġkneeling":9283,"pixar":9284,"magic":9285,"Ġquint":9286,"Ġpieter":9287,"Ġdecaying":9288,"Ġselling":9289,"ĠVerehin":9290,"smith":9291,"Ġsynthesizer":9292,"andinavian":9293,"Ġses":9294,"Ġutopia":9295,"ĠFuji":9296,"ole":9297,"rue":9298,"ighter":9299,"Ġalba":9300,"ĠGrey":9301,"ĠTi":9302,"usting":9303,"Ġbreathing":9304,"Ġjoshua":9305,"Ġkush":9306,"Ġstranger":9307,"Ġartic":9308,"ĠHow":9309,"Ġparticle":9310,"Ġoutdoors":9311,"'re":9312,"Ġoasis":9313,"Ġmitchell":9314,"Ġkh":9315,"ptuous":9316,"tless":9317,"ĠRef":9318,"Ġbasement":9319,"Ġralli":9320,"ĠTV":9321,"Ġupscale":9322,"Ġpsych":9323,"entaur":9324,"Ġgazing":9325,"Ġinnocent":9326,"Ġgraph":9327,"ðŁĴ":9328,"cloud":9329,"xic":9330,"Ġfring":9331,"Ġmorgan":9332,"Ġpole":9333,"chant":9334,"Ġmazzoni":9335,"AA":9336,"Ġsick":9337,"ichiro":9338,"Ġkashin":9339,"Ġmohawk":9340,"ĠGood":9341,"Ġjose":9342,"Ġglows":9343,"Ġseated":9344,"Ġcorpse":9345,"Ġcircuits":9346,"John":9347,"HADS":9348,"Ġæ":9349,"Ġgandalf":9350,"delic":9351,"Ġspongebob":9352,"ĠHol":9353,"ages":9354,"ĠMcCurry":9355,"friend":9356,"wise":9357,"ĠStre":9358,"cybernetic":9359,"vins":9360,"Ġvene":9361,"ĠPotter":9362,"Ġdesktop":9363,"Ġmurakami":9364,"Ġwides":9365,"elton":9366,"ĠMid":9367,"ĠSmooth":9368,"ĠGen":9369,"ĠEld":9370,"Ġbiker":9371,"Ġdivinity":9372,"kusai":9373,"untains":9374,"Ġsaf":9375,"strum":9376,"ĠLightroom":9377,"11":9378,"ility":9379,"Ġshaking":9380,"ĠBob":9381,"achapelle":9382,"Ġwadim":9383,"estal":9384,"Ġmatter":9385,"Ġfoto":9386,"ĠRHADS":9387,"Ġbuch":9388,"Ġyoshii":9389,"Ġakihito":9390,"Ġyoga":9391,"Ġhyp":9392,"Ġoper":9393,"iser":9394,"gypt":9395,"dynamic":9396,"Ġfracta":9397,"mione":9398,"ĠGuy":9399,"Ġthom":9400,"Ġmatch":9401,"ĠMik":9402,"ractal":9403,"Ġyoshiyuki":9404,"ĠRendering":9405,"anna":9406,"Ġdisg":9407,"resident":9408,"Ġsatin":9409,"enaissance":9410,"zos":9411,"rado":9412,"active":9413,"ulated":9414,"ĠRAW":9415,"tention":9416,"Ġghosts":9417,"ĠSteven":9418,"Ġsmirk":9419,"Ġhendricks":9420,"Ġpistol":9421,"Ġky":9422,"gelico":9423,"Ġmos":9424,"pencil":9425,"Ġretouched":9426,"Ġkur":9427,"Ġname":9428,"amura":9429,"pers":9430,"Ġloss":9431,"Ġbodysuit":9432,"Ġwarlock":9433,"limentary":9434,"ĠBlender":9435,"Ġworms":9436,"Ġassem":9437,"Ġpyramids":9438,"cor":9439,"ender":9440,"Ġfountain":9441,"Ġnov":9442,"ĠFinn":9443,"Ġwatermelon":9444,"Ġsims":9445,"Ġhiroshi":9446,"Ġdaguerreotype":9447,"Ġcorridor":9448,"Ġcome":9449,"Ġryo":9450,"Ġconven":9451,"Ġgrading":9452,"ĠNight":9453,"Ġsandro":9454,"ĠSwan":9455,"Ġsingularity":9456,"Ġfujifilm":9457,"cro":9458,"fried":9459,"schi":9460,"scow":9461,"Ġanthony":9462,"ĠMohrhauser":9463,"Ġpeak":9464,"pixel":9465,"Ġnatura":9466,"Ġamphib":9467,"aced":9468,"orig":9469,"tall":9470,"verine":9471,"ĠCor":9472,"Ġalive":9473,"Ġhelicop":9474,"duotone":9475,"ĠmÅĵbius":9476,"ĠScott":9477,"manus":9478,"ĠPe":9479,"Ġoriental":9480,"Ġpud":9481,"Ġhut":9482,"Ġnightclub":9483,"Ġkostic":9484,"Ġbella":9485,"Ġhomoerotic":9486,"Ġgric":9487,"Ġlachapelle":9488,"Ġlayout":9489,"Ġhokusai":9490,"Ġdither":9491,"Ġdiverse":9492,"ĠZabrocki":9493,"Ġsuspended":9494,"Ġmotifs":9495,"Ste":9496,"jim":9497,"vard":9498,"Ġuse":9499,"Ġtoned":9500,"Ġconsi":9501,"ĠKonig":9502,"Ġhigly":9503,"forn":9504,"Ġhide":9505,"Ġeva":9506,"Ġjun":9507,"ollum":9508,"Ġhorn":9509,"Ġdistor":9510,"ĠArgyle":9511,"juku":9512,"Ġeclipse":9513,"Ġaccessories":9514,"garov":9515,"Ġsparth":9516,"Ġplaza":9517,"Ġgoose":9518,"Ġjohnny":9519,"Ġwalker":9520,"ugi":9521,"Ġserp":9522,"Ġcomplimentary":9523,"Ġjewett":9524,"Ġwould":9525,"Ġrebel":9526,"bour":9527,"Ġarcade":9528,"Ġmortal":9529,"ĠHarry":9530,"ĠVictorian":9531,"Ġbuchholz":9532,"ĠAna":9533,"erness":9534,"romethe":9535,"Ġtakeda":9536,"ĠColor":9537,"Ġtube":9538,"chenbach":9539,"wl":9540,"uls":9541,"Ġrut":9542,"ðŁ¤":9543,"Ġairport":9544,"Ġnapoleon":9545,"Ġpagan":9546,"eating":9547,"Ġans":9548,"Ġopulent":9549,"iked":9550,"danny":9551,"Ġevolution":9552,"down":9553,"Ġloving":9554,"Ġcircus":9555,"Ġresembling":9556,"Ġlamps":9557,"regnant":9558,"Ġcoron":9559,"analog":9560,"uguerea":9561,"Ġintrincate":9562,"dwayne":9563,"Ġpull":9564,"usual":9565,"poli":9566,"Ġjohfra":9567,"Ġdisto":9568,"Ġparked":9569,"Ġrecur":9570,"ĠPortra":9571,"Ġsunbeams":9572,"Ġdisguised":9573,"Ġmine":9574,"Ġbeautifull":9575,"Ġspiked":9576,"Ġwinds":9577,"iation":9578,"Ġmarsh":9579,"Ġgarde":9580,"Ġgenshin":9581,"stantin":9582,"Ġmegapixels":9583,"Ġrural":9584,"Ġansel":9585,"Ġmanne":9586,"vibrant":9587,"ĠVa":9588,"Ġembers":9589,"Ġii":9590,"Ġcinematographic":9591,"zilian":9592,"vol":9593,"Ġlind":9594,"ĠBen":9595,"ĠFrench":9596,"Ġbreast":9597,"Ġdustin":9598,"Ġbillboard":9599,"Ġrudnick":9600,"ĠYayoi":9601,"Ġsnail":9602,"Ġbioluminance":9603,"Ġembel":9604,"Ġcorals":9605,"Ġisaac":9606,"krainian":9607,"mish":9608,"enko":9609,"Ġrachel":9610,"Ġdespair":9611,"Ġindigenous":9612,"Ġsleeve":9613,"Ġferrari":9614,"ĠCaspar":9615,"ĠEng":9616,"Ġrift":9617,"Ġshows":9618,"Ġlaunch":9619,"Ġik":9620,"Ġlevitan":9621,"rometheus":9622,"Ġaer":9623,"rating":9624,"Ġkee":9625,"Ġpotrait":9626,"Ġportraits":9627,"ĠRange":9628,"Ġbened":9629,"Ġpearls":9630,"ĠWolfgang":9631,"ysi":9632,"Ġamy":9633,"Ġrapper":9634,"Ġ17":9635,"ĠKyo":9636,"peti":9637,"Ġtraffic":9638,"wein":9639,"ĠZuckerberg":9640,"Ġwilderness":9641,"Ġclassroom":9642,"RO":9643,"Ġpaws":9644,"shrek":9645,"Ġviet":9646,"focus":9647,"Ġcourbet":9648,"Ġimagination":9649,"Ġrh":9650,"Ġshade":9651,"Ġdoizon":9652,"Ġprinted":9653,"Ġimmer":9654,"Ġportait":9655,"tically":9656,"Ġhats":9657,"Ġbosschart":9658,"Ġenhancements":9659,"afe":9660,"Ġbug":9661,"Ġsera":9662,"Ġoss":9663,"Ġgene":9664,"velop":9665,"Ġdriver":9666,"Ġberry":9667,"Ġskeletons":9668,"Ġdeli":9669,"person":9670,"Ġdrama":9671,"Ġmusical":9672,"Ġcolla":9673,"idential":9674,"Ġdebris":9675,"tue":9676,"vate":9677,"ĠMed":9678,"Ġcomedy":9679,"Ġsaturn":9680,"iuseppe":9681,"ickenson":9682,"Ġbeans":9683,"Ġentering":9684,"rell":9685,"chez":9686,"Ġstipple":9687,"Ġcockpit":9688,"Ġomni":9689,"Ġscrolls":9690,"Ġsana":9691,"stable":9692,"Ġnguyen":9693,"Ġmesmer":9694,"Ultra":9695,"Ġod":9696,"amer":9697,"ĠPat":9698,"Ġpinea":9699,"Ġfacility":9700,"Ġsupermodel":9701,"eri":9702,"Ġgoku":9703,"Ġconn":9704,"ĠHugh":9705,"humanoid":9706,"ĠLeague":9707,"Ġcus":9708,"Ġthigh":9709,"ĠRuss":9710,"ĠWood":9711,"Ġdoes":9712,"tonic":9713,"Ġhumanity":9714,"Ġinked":9715,"Ġdiving":9716,"Ġvargas":9717,"wegian":9718,"Ġagg":9719,"lius":9720,"standing":9721,"icasso":9722,"Ġ1860":9723,"Ġelderly":9724,"Ġmort":9725,"Ġterry":9726,"Ġturned":9727,"Ġexploration":9728,"Ġtroll":9729,"Ġleonid":9730,"!!!!!!!!!!!!!!!!!!!!!!!!!!!":9731,"ĠRaymond":9732,"Ġviktor":9733,"Ġbek":9734,"Ġblueberry":9735,"illermo":9736,"Ġartemis":9737,"cry":9738,"scap":9739,"Ġcolon":9740,"Ġparrot":9741,"sant":9742,"Ġinvas":9743,"ĠLett":9744,"Ġgaussian":9745,"Ġfarmer":9746,"Ġschwarzenegger":9747,"igrade":9748,"ĠLettl":9749,"TI":9750,"father":9751,"Ġtundra":9752,"Ġsimilar":9753,"Ġbalan":9754,"ĠLove":9755,"pel":9756,"Ġrolando":9757,"Ġdraper":9758,"Ġmagenta":9759,"197":9760,"legov":9761,"Ġavengers":9762,"uf":9763,"ndon":9764,"moon":9765,"Ġemitting":9766,"Ġmuddy":9767,"erma":9768,"Ġnine":9769,"ĠJesus":9770,"Ġwhirling":9771,"ain":9772,"Ġbis":9773,"ulac":9774,"Ġshaven":9775,"Ġerup":9776,"atsune":9777,"Ġdepp":9778,"ungy":9779,"imation":9780,"Ġskywalker":9781,"ĠRichter":9782,"Ġprojection":9783,"Ġarctic":9784,"borgh":9785,"glowing":9786,"cemi":9787,"Ġpetite":9788,"Ġmckean":9789,"Ġwool":9790,"Ġparade":9791,"artist":9792,"taken":9793,"Ġwig":9794,"Ġvent":9795,"Ġtshirt":9796,"Ġshepard":9797,"Ġsymetrical":9798,"ĠJacek":9799,"ĠChristopher":9800,"ĠMaxence":9801,"iminal":9802,"quer":9803,"ĠDy":9804,"ĠJustin":9805,"Ġforming":9806,"Ġpolygon":9807,"Ġaquarium":9808,"Ġpedestal":9809,"ĠChev":9810,"nD":9811,"rat":9812,"Ġvice":9813,"rank":9814,"foe":9815,"Ġterrier":9816,"Ġspots":9817,"Ġdofus":9818,"Ġstaircase":9819,"Ġvul":9820,"ĠSandra":9821,"Ġperception":9822,"ropomorph":9823,"Ġcorporate":9824,"Ġethnic":9825,"ĠEdwin":9826,"Ġfinnian":9827,"Ġinstrum":9828,"ilma":9829,"Ġtrading":9830,"Ġalexandros":9831,"Ġeggle":9832,"mpic":9833,"Ġtelescope":9834,"ĠKnight":9835,"Ġmental":9836,"aquin":9837,"Ġliu":9838,"Ġpoppy":9839,"ssic":9840,"Ġrams":9841,"Ġsound":9842,"Ġpostprocessing":9843,"Ġmacmanus":9844,"Ġmoreau":9845,"Ġalchemical":9846,"Ġamanda":9847,"Ġinflatable":9848,"Ġmim":9849,"ising":9850,"Ġjacek":9851,"ĠAbstract":9852,"metery":9853,"ĠSho":9854,"ations":9855,"Ġsequ":9856,"Ġfireplace":9857,"Ġpastels":9858,"esar":9859,"Ġtrend":9860,"Ġdonkey":9861,"Ġigor":9862,"Ġsylvain":9863,"Ġoly":9864,"icon":9865,"iders":9866,"Ġarmed":9867,"cision":9868,"creenshot":9869,"Ġreptile":9870,"uste":9871,"Ġtyp":9872,"bok":9873,"Ġarcher":9874,"Ġbears":9875,"Ġviolent":9876,"Ġsmirking":9877,"tell":9878,"Ġevocative":9879,"ĠSur":9880,"Ġdoyle":9881,"Ġdomes":9882,"Ġlewis":9883,"borghini":9884,"Ġpug":9885,"Ġfrid":9886,"ilton":9887,"Ġunusual":9888,"Ġmounts":9889,"Ġaustralian":9890,"Ġbulgarov":9891,"ulean":9892,"Ġvitaly":9893,"Ġappearance":9894,"Ġgav":9895,"toro":9896,"orite":9897,"Ġstart":9898,"onaldo":9899,"Ġadorn":9900,"Ġresearch":9901,"xious":9902,"itter":9903,"Ġsunlit":9904,"Ġfireworks":9905,"ĠHyperdetailed":9906,"archite":9907,"cape":9908,"Ġsame":9909,"Ġwritten":9910,"ĠRick":9911,"Ġvenetian":9912,"comb":9913,"del":9914,"Ġpitt":9915,"ĠGirl":9916,"Ġzdis":9917,"Ġspores":9918,"Ġcowgirl":9919,"Ġsarrailh":9920,"massive":9921,"Ġdeserted":9922,"ĠKyoto":9923,"ase":9924,"lined":9925,"Ġthorns":9926,"eing":9927,"Ġachenbach":9928,"onen":9929,"Ġmousta":9930,"ĠAra":9931,"ĠLaw":9932,"uba":9933,"cedural":9934,"Ġbreakfast":9935,"vaporwave":9936,"atee":9937,"ĠPark":9938,"ĠPicasso":9939,"ĠVladimir":9940,"stylized":9941,"tches":9942,"ĠâĢĶ":9943,"12":9944,"Ġmatsu":9945,"umes":9946,"ĠHy":9947,"ĠFi":9948,"Ġwheat":9949,"Ġchristina":9950,"Ġbottles":9951,"jin":9952,"ĠMars":9953,"Ġwoodland":9954,"Ġdowntown":9955,"Ġparker":9956,"Ġslayer":9957,"Ġunity":9958,"Ġhorsley":9959,"Ġaston":9960,"ultry":9961,"Ġdevice":9962,"iusz":9963,"coln":9964,"Ġgesture":9965,"aerial":9966,"Ġfried":9967,"sexy":9968,"Ġles":9969,"upper":9970,"Ġboys":9971,"Ġmythological":9972,"gil":9973,"inty":9974,"loons":9975,"urus":9976,"ĠII":9977,"Ġseem":9978,"weled":9979,"umei":9980,"ĠRendered":9981,"Ġsimpsons":9982,"david":9983,"nis":9984,"lifting":9985,"Ġpotion":9986,"Ġlon":9987,"Ġcybor":9988,"Ġedm":9989,"Ġmixing":9990,"ids":9991,"booru":9992,"ĠSmith":9993,"resco":9994,"aceship":9995,"ĠGerhard":9996,"bay":9997,"ships":9998,"Ġvista":9999,"Ġschematic":10000,"Ġbustling":10001,"cine":10002,"tiny":10003,"Ġdid":10004,"posed":10005,"Ġsunflower":10006,"Ġbarren":10007,"Ġtranding":10008,"ðŁĺ":10009,"Ġminis":10010,"ĠLew":10011,"Ġjustice":10012,"Ġprotec":10013,"Ġexpensive":10014,"Ġhipster":10015,"bones":10016,"neath":10017,"vladimir":10018,"Ġbored":10019,"Ġmanhattan":10020,"Ġfrances":10021,"hyperrealist":10022,"ĠMarvel":10023,"Ġbounty":10024,"boris":10025,"Ã¸":10026,"taro":10027,"Ġweldon":10028,"Ġmakovsky":10029,"chin":10030,"riam":10031,"ĠSci":10032,"Ġhdri":10033,"aked":10034,"tilian":10035,"Ġbathed":10036,"ronom":10037,"Ġwoodcut":10038,"Ġafremov":10039,"pedal":10040,"Ġbonsai":10041,"Ġpupils":10042,"ois":10043,"var":10044,"ros":10045,"omes":10046,"ĠMy":10047,"aku":10048,"steve":10049,"quez":10050,"Ġunderneath":10051,"Ġmuer":10052,"Ġrivers":10053,"Ġcentre":10054,"Ġmercen":10055,"Ġsomeone":10056,"purple":10057,"ĠSwanland":10058,"Ġages":10059,"Ġgum":10060,"drawing":10061,"Ġknown":10062,"Ġtrunk":10063,"auto":10064,"Ġsushi":10065,"Ġribbons":10066,"Ġspinning":10067,"Ġwpa":10068,"Ġgay":10069,"ucasian":10070,"ĠDor":10071,"ĠLord":10072,"arts":10073,"Ġlur":10074,"Ġoffset":10075,"Ġpanther":10076,"Ġfreeman":10077,"Ġfractalism":10078,"bous":10079,"Ġupward":10080,"ĠQueen":10081,"Ġhitler":10082,"Ġneighbor":10083,"Ġchimera":10084,").":10085,"berts":10086,"Ġdreamworks":10087,"Ġbatter":10088,"Ġharvest":10089,"Ġato":10090,"rative":10091,"racle":10092,"ĠJa":10093,"ĠPal":10094,"Ġdylan":10095,"Ġitself":10096,"Ġnelson":10097,"ĠThis":10098,"Ġprotagonist":10099,"ĠLSD":10100,"Ġdota":10101,"order":10102,"Ġsculptures":10103,"Ġvegas":10104,"Ġpathfinder":10105,"Ġmonochromatic":10106,"infeld":10107,"Ġeggs":10108,"Ġmoustache":10109,"Ġavedon":10110,"ilen":10111,"Ġalva":10112,"nyder":10113,"ĠHaeckel":10114,"Ġorbit":10115,"Ġprima":10116,"Ġasteroid":10117,"Ġdor":10118,"Ġeve":10119,"Ġmossy":10120,"Ġmete":10121,"ĠVFX":10122,"mense":10123,"ĠStÃ¥lenhag":10124,"ĠDenis":10125,"ĠDnD":10126,"illais":10127,"surrealism":10128,"Ġhanuka":10129,"Ġgravity":10130,"kward":10131,"Ġprice":10132,"Ġkay":10133,"kowski":10134,"Ġjojo":10135,"Ġgoes":10136,"Ġeyeballs":10137,"Ġglamor":10138,"Ġdelorean":10139,"ĠGal":10140,"Ġtess":10141,"yson":10142,"weed":10143,"Ġtranscend":10144,"Ġcurls":10145,"product":10146,"Ġaltermodern":10147,"fornia":10148,"Ġhong":10149,"poly":10150,"olute":10151,"Ġcunning":10152,"ulf":10153,"Ġjoint":10154,"Ġsurpris":10155,"iori":10156,"Ġferret":10157,"Ġasso":10158,"Ġdavis":10159,"Ġthousands":10160,"lining":10161,"Ġvacher":10162,"Ġtag":10163,"Ġabra":10164,"anely":10165,"Ġmachina":10166,"Ġjake":10167,"pie":10168,"Ġillustrator":10169,"Ġbulbous":10170,"maculate":10171,"heads":10172,"Ġaly":10173,"Ġcav":10174,"Ġprogram":10175,"single":10176,"Ġcorset":10177,"ĠAdam":10178,"kinson":10179,"victo":10180,"Ġstubble":10181,"nasty":10182,"Ġdepressed":10183,"Ġfurious":10184,"creen":10185,"Ġnicolas":10186,"Ġreadability":10187,"lus":10188,"Ġbeck":10189,"ĠGiuseppe":10190,"Ġprecision":10191,"blade":10192,"Ġsource":10193,"!!!!!!,":10194,"ĠGaston":10195,"Ġballoons":10196,"Ġmiddleton":10197,"Ġlucasfilm":10198,"cury":10199,"using":10200,"haired":10201,"Ġbeings":10202,"aving":10203,"Ġcorrec":10204,"Ġraytraced":10205,"ĠLipkin":10206,"hold":10207,"eap":10208,"Ġrole":10209,"ĠArian":10210,"opard":10211,"flat":10212,"Ġlunar":10213,"Ġaero":10214,"urs":10215,"Ġneur":10216,"ĠPin":10217,"Ġcemetery":10218,"zzzzzzzzzzzzzzzz":10219,"Ġbamboo":10220,"Ġdrow":10221,"ĠSun":10222,"zaar":10223,"Ġimperial":10224,"dam":10225,"some":10226,"Ġflies":10227,"lat":10228,"Ġbees":10229,"ives":10230,"tanyahu":10231,"Ġdaisy":10232,"Ġdollar":10233,"Ġdinosaurs":10234,"Ġmesmerizing":10235,"Ġjupiter":10236,"Ġshau":10237,"Ġgreenhouse":10238,"Ġfalls":10239,"Ġbilly":10240,"Ġgrungy":10241,"Ġ1024":10242,"Ġthousand":10243,"Ġnikolay":10244,"kan":10245,"arck":10246,"Ġ12":10247,"ĠBlue":10248,"Ġjourney":10249,"ĠWall":10250,"ubis":10251,"Ġbrains":10252,"Ġstokes":10253,"Ġhanks":10254,"Ġshrine":10255,"Ġthriller":10256,"sw":10257,"Ġenc":10258,"imalism":10259,"Ġtiara":10260,"Ġcocktail":10261,"incredible":10262,"phire":10263,"Ġlawn":10264,"Ġtrium":10265,"abre":10266,"Ġkitty":10267,"screen":10268,"hry":10269,"Ġchic":10270,"Ġangles":10271,"Ġsaus":10272,"Ġformal":10273,"iterranean":10274,"Ġhippo":10275,"furry":10276,"Ġcentaur":10277,"Ġwick":10278,"ulas":10279,"Ġyan":10280,"Ġupside":10281,"Ġforward":10282,"Ġdisper":10283,"Ġjules":10284,"Ġsummoning":10285,"thal":10286,"Ġcontain":10287,"Ġmeth":10288,"Ġphysi":10289,"Ġdrinks":10290,"Ġnelsson":10291,"ĠDeviantart":10292,"Ġmaple":10293,"Ġroerich":10294,"ĠMas":10295,"ĠIns":10296,"Ġfather":10297,"Ġspecies":10298,"Ġsaiyan":10299,"pepe":10300,"Ġuv":10301,"ĠâĢľ":10302,"Ġdragan":10303,"ĠFur":10304,"Ġgot":10305,"Ġvenom":10306,"prise":10307,"Ġsean":10308,"ĠCine":10309,"Ġproject":10310,"Ġsubli":10311,"onda":10312,"Ġhyung":10313,"Ġphysique":10314,"gle":10315,"worth":10316,"Ġdoors":10317,"fig":10318,"Ġscandinavian":10319,"sawa":10320,"Ġpastell":10321,"Ġfisher":10322,"ikachu":10323,"Ġrivera":10324,"ĠGreen":10325,"Ġkitsune":10326,"bear":10327,"Ġoda":10328,"pose":10329,"boat":10330,"adi":10331,"Ġcarbon":10332,"Ġicy":10333,"Ġbeasts":10334,"Ġhindu":10335,"Ġjas":10336,"Ġmattias":10337,"Ġquartz":10338,"cubus":10339,"Ġnothing":10340,"Ġscream":10341,"ĠMignola":10342,"ĠTark":10343,"Ġorban":10344,"Ġzeus":10345,"Ar":10346,"Ġeli":10347,"odiac":10348,"ĠWoman":10349,"mysterious":10350,"Ġmugshot":10351,"Ġkoons":10352,"Ġbattles":10353,"Ġhirohiko":10354,"Ġimagina":10355,"Ġcyborgs":10356,"Ġstadium":10357,"Ġark":10358,"ĠTheodore":10359,"Ġheroine":10360,"Ġnike":10361,"Ġnielsen":10362,"Ġsentient":10363,"prompt":10364,"eaki":10365,"ĠHu":10366,"viz":10367,"Ġmyce":10368,"Ġmelted":10369,"tivity":10370,"Ġsloth":10371,"Ġtoro":10372,"Ġacademia":10373,"Ġaggressive":10374,"oe":10375,"what":10376,"tat":10377,"neth":10378,"pass":10379,"Ġcorrup":10380,"ĠðŁį":10381,"Ġruss":10382,"liday":10383,"angechi":10384,"Ġvirgin":10385,"Liminal":10386,"iper":10387,"Ġmight":10388,"hashi":10389,"strated":10390,"iane":10391,"biome":10392,"sketch":10393,"Ġalpha":10394,"Ġsnoop":10395,"Ġdesi":10396,"Ġtent":10397,"Ġbackround":10398,"Ġtell":10399,"lised":10400,"Ġmadness":10401,"efling":10402,"ĠGreek":10403,"ĠAkira":10404,"istocra":10405,"bes":10406,"Ġdiablo":10407,"Ġhallucination":10408,"Ġnoveau":10409,"Ġinvasion":10410,"pow":10411,"yx":10412,"Ġbunch":10413,"Ġcereal":10414,"Ġmunch":10415,"ssey":10416,"ubon":10417,"Ġsophie":10418,"Ġcatalog":10419,"ĠÐ":10420,"Ġborg":10421,"Ġglac":10422,"Ġoni":10423,"kirt":10424,"ĠTokyo":10425,"Ġflowery":10426,"Ġheels":10427,"Ġsilky":10428,"Ġdrive":10429,"Ġassets":10430,"onored":10431,"Ġsesame":10432,"apo":10433,"aver":10434,"Ġfused":10435,"Ġpow":10436,"ĠRack":10437,"Ġtiles":10438,"ĠKasuma":10439,"Ġdepths":10440,"Ġbiblical":10441,"Ġsadamoto":10442,"Ġspherical":10443,"ĠRalli":10444,"Ġadolfsson":10445,"Ġsultry":10446,"Ġgrant":10447,"Ġkow":10448,"quality":10449,"Ġaltar":10450,"scary":10451,"dslr":10452,"ĠEy":10453,"Ġresident":10454,"arolis":10455,"Ġcracks":10456,"Ġ~":10457,"Ġak":10458,"Ġsear":10459,"Ġcommon":10460,"Ġchill":10461,"ĠRoman":10462,"ĠIto":10463,"Ġdefault":10464,"Movie":10465,"Ġremake":10466,"Ġartemisia":10467,"Ġhay":10468,"Ġnotes":10469,"Ġbleach":10470,"Ġbaked":10471,"Ġlively":10472,"Ġblocks":10473,"Ġcolossus":10474,"Ġmannequin":10475,"toria":10476,"lama":10477,"igma":10478,"Ġpolish":10479,"utnie":10480,"ĠHis":10481,"Ġgoss":10482,"Ġglobe":10483,"Ġengraved":10484,"Ġbillowing":10485,"ĠStreet":10486,"Ġmuertos":10487,"utniekas":10488,"Twin":10489,"bling":10490,"thor":10491,"ĠPan":10492,"Ġstephan":10493,"Ġworker":10494,"Ġ64":10495,"Ġsheets":10496,"Ġindigo":10497,"Ġpolarizing":10498,"Ġcubes":10499,"Ġfabry":10500,"Ġbouquet":10501,"Ġjudge":10502,"Painting":10503,"Ġamphibian":10504,"Ġminiskirt":10505,"toid":10506,"Ġalphon":10507,"ĠSony":10508,"Ġruin":10509,"Ġburied":10510,"Ġjulia":10511,"Ġdistorted":10512,"fractal":10513,"Ġol":10514,"Ġcounter":10515,"elberg":10516,"hift":10517,"Ġches":10518,"Ġdarksynth":10519,"Ġprote":10520,"blr":10521,"ĠPrincess":10522,"ĠRefined":10523,"enment":10524,"Ġyves":10525,"Ġraised":10526,"Ġdroid":10527,"Ġpj":10528,"Ġenticing":10529,"Ġrandy":10530,"uchamp":10531,"Ġangus":10532,"Ġsandy":10533,"warrior":10534,"Ġearl":10535,"Ġsticking":10536,"Ġtard":10537,"chip":10538,"cula":10539,"Ġatom":10540,"Ġfav":10541,"Ġeco":10542,"map":10543,"Ġleiter":10544,"ĠHR":10545,"Ġpromo":10546,"Ġcrane":10547,"Ġtemples":10548,"Ġarches":10549,"Ġaviator":10550,"disney":10551,"Ġawkward":10552,"ĠBussiere":10553,"ĠGhost":10554,"Ġshaved":10555,"Ġsurv":10556,"Ġreflected":10557,"Ġtypical":10558,"Ġprecious":10559,"Ġfelt":10560,"Ġhelicopter":10561,"ĠChevrier":10562,"gonal":10563,"Ġnau":10564,"Ġstormtrooper":10565,"death":10566,"Ġiden":10567,"Ġbump":10568,"liff":10569,"hist":10570,"coin":10571,"Ġ24":10572,"ĠNor":10573,"Ġprehistoric":10574,"Ġhippie":10575,"Ġspratt":10576,"Ġkomarck":10577,"Ġè":10578,"ultrarealistic":10579,"Ġhog":10580,"Ġuta":10581,"Ġsmokey":10582,"ĠZhong":10583,"Ġtribe":10584,"Ġblevins":10585,"Ġsadness":10586,"uppets":10587,"ĠMcQ":10588,"atellite":10589,"Ġdispersion":10590,"actor":10591,"Ġlabrad":10592,"Ġdot":10593,"Ġpend":10594,"Ġdahl":10595,"ĠYerka":10596,"Ġstance":10597,"Ġclowncore":10598,"ographic":10599,"Ġtheater":10600,"Ġlave":10601,"thew":10602,"ĠKe":10603,"journey":10604,"ĠGoddess":10605,"Ġletters":10606,"Ġscout":10607,"Ġpros":10608,"monster":10609,"Ġimmaculate":10610,"Ġtrack":10611,"ĠCharles":10612,"Ġcroft":10613,"profile":10614,"ĠHarris":10615,"rusted":10616,"Ġmercenary":10617,"Ġassoci":10618,"Ġcuc":10619,"Ġstacked":10620,"Ġbazaar":10621,"ĠRocha":10622,"'d":10623,"bul":10624,"Ġdil":10625,"Ġhere":10626,"icc":10627,"Ġlangu":10628,"racing":10629,"Ġdissol":10630,"Ġforests":10631,"Ġtracks":10632,"))),":10633,"miya":10634,"Ġprocedural":10635,"ubel":10636,"Ġraincoat":10637,"Ġmaciej":10638,"ĠðŁĴ":10639,"Ġmtg":10640,"Ġsas":10641,"uru":10642,"hire":10643,"Ġsupernatural":10644,"Ġiw":10645,"Ġirish":10646,"Ġhiper":10647,"Ġwashington":10648,"ĠRackham":10649,"nen":10650,"Ġfen":10651,"Ġet":10652,"ampire":10653,"Ġobser":10654,"Ġinven":10655,"ĠAuto":10656,"Ġhidari":10657,"uscript":10658,"Detailed":10659,"Ġenlightenment":10660,"ĠFujita":10661,"batch":10662,"Ġshards":10663,"ĠFenghua":10664,"agi":10665,"Ġexpressions":10666,"Ġossdraws":10667,"som":10668,"Ġslic":10669,"itted":10670,"ckney":10671,"Ġsmug":10672,"ĠVic":10673,"ĠAfrican":10674,"ĠRepin":10675,"ĠBloodborne":10676,"Elon":10677,"fle":10678,"loso":10679,"Ġposs":10680,"Ġsteps":10681,"Ġreclining":10682,"Ġkorpi":10683,"21":10684,"mell":10685,"Ġcrt":10686,"Ġego":10687,"ĠSqu":10688,"Ġsoap":10689,"Ġjoel":10690,"Ġfae":10691,"Ġwalton":10692,"dyssey":10693,"moda":10694,"Ġsmartphone":10695,"ilenko":10696,"Ġhaz":10697,"Ġaristocra":10698,"Ġgodlike":10699,"Ġsail":10700,"Ġflemish":10701,"Ġgentleman":10702,"Ġmillion":10703,"Ġlucid":10704,"card":10705,"Ġgabriel":10706,"Ġketch":10707,"ĠBig":10708,"Ġuang":10709,"Ġhoward":10710,"umberbatch":10711,"rilenko":10712,"Ġide":10713,"Ġkombat":10714,"Ġcould":10715,"Ġholes":10716,"ĠTan":10717,"ĠJunji":10718,"ĠWitch":10719,"tarc":10720,"menting":10721,"Ġviktoria":10722,"kal":10723,"nious":10724,"xel":10725,"ĠÃ":10726,"Ġchuck":10727,"tree":10728,"lict":10729,"Ġgoatee":10730,"ĠNational":10731,"weight":10732,"Ġimmense":10733,"ismuth":10734,"Ġrefracted":10735,"Ġwrinkled":10736,"flying":10737,"zine":10738,"Ġssci":10739,"Ġwangechi":10740,"stran":10741,"Ġdiffused":10742,"thyst":10743,"Ġseventies":10744,"Ġcooke":10745,"peter":10746,"Ġdeter":10747,"amel":10748,"mechanical":10749,"ĠRussian":10750,"Ġmiami":10751,"ickman":10752,"Ġbipedal":10753,"Ġseat":10754,"Ġlower":10755,"Ġrunway":10756,"ĠWarrior":10757,"Ġsenior":10758,"Ġsublime":10759,"tems":10760,"Ġjea":10761,"ĠRenaissance":10762,"Ġmoons":10763,"Ġkarlkka":10764,"octor":10765,"Ġgenerated":10766,"ĠAlien":10767,"ividual":10768,"85":10769,"uin":10770,"Ġaver":10771,"atest":10772,"Ġfoster":10773,"Ġnoon":10774,"Ġhorses":10775,"ĠNin":10776,"Ġturbu":10777,"huahua":10778,"texture":10779,"Ġkhali":10780,"Ġgavrilenko":10781,"skeleton":10782,"uo":10783,"rets":10784,"Ġci":10785,"Ġfloats":10786,"ĠCover":10787,"Ġpatina":10788,"olph":10789,"Ġtou":10790,"Ġling":10791,"Ġpicnic":10792,"ĠAnth":10793,"ĠAlexander":10794,"ĠFelix":10795,"Ġgossamer":10796,"Ġsith":10797,"Ġcran":10798,"enger":10799,"Ġthen":10800,"Ġrow":10801,"Ġproto":10802,"Ġtiefling":10803,"Ġactor":10804,"Ġgrowth":10805,"Ġhepburn":10806,"Ġlich":10807,"Ġshocking":10808,"ĠDal":10809,"ffle":10810,"ĠPhil":10811,"ĠEvan":10812,"bruta":10813,"Ġchip":10814,"Ġfights":10815,"Ġeiichiro":10816,"Ġinfo":10817,"holy":10818,"rico":10819,"ĠVolumetric":10820,"Ġdarek":10821,"Ġsauce":10822,"tiano":10823,"Ġcolony":10824,"Ġballs":10825,"Ġartifact":10826,"Ġtraveling":10827,"princess":10828,"ked":10829,"idas":10830,"monial":10831,"stein":10832,"Ġpanting":10833,"Ġplayground":10834,"pretty":10835,"Ġcheeks":10836,"Ġsynthetic":10837,"inet":10838,"Ġride":10839,"ods":10840,"Ġmothers":10841,"Ġtort":10842,"inota":10843,"Ġhellish":10844,"Ġbobby":10845,"Ġlyn":10846,"cosmic":10847,"Ġtheatrical":10848,"Ġodd":10849,"Ġmutu":10850,"eno":10851,"Ġrele":10852,"mara":10853,"vector":10854,"udson":10855,"Ġmanuscript":10856,"Ġfist":10857,"ĠDr":10858,"vanni":10859,"Ġspirits":10860,"Ġrhino":10861,"mc":10862,"Ġsnyder":10863,"Ġox":10864,"Ġwel":10865,"Ġgary":10866,"Ġpod":10867,"Ġtrig":10868,"orienta":10869,"Ġhawk":10870,"Ġjacques":10871,"biomechanical":10872,"tier":10873,"Ġhur":10874,"ades":10875,"Ġprop":10876,"Ġspaceport":10877,"Ġgarb":10878,"ĠWarhammer":10879,"Ġprivate":10880,"Ġreddit":10881,"arn":10882,"Ġgfx":10883,"Ġann":10884,"grams":10885,"ĠBack":10886,"Ġzack":10887,"Ġadamus":10888,"Ġmetaverse":10889,"Ġrepresentation":10890,"Ġhundreds":10891,"Ġembellish":10892,"Cha":10893,"inem":10894,"elmann":10895,"Ġyoichi":10896,"pex":10897,"Ġcrayon":10898,"Ġvisu":10899,"Ġnorwegian":10900,"vadas":10901,"Ġberserk":10902,"Ġtwisting":10903,"bron":10904,"Ġdevadas":10905,"alan":10906,"Ġmidday":10907,"Ġmacabre":10908,"ofy":10909,"Ġweasel":10910,"Ġdrople":10911,"Ġturtleneck":10912,"ĠResolution":10913,"ranesi":10914,"Ġpay":10915,"Ġruth":10916,"Ġstring":10917,"Ġreclaimed":10918,"Ġbeanie":10919,"Ġzebra":10920,"Ġterrified":10921,"Ġanxious":10922,"Ġoutlines":10923,"Ġshadowing":10924,"Ġpenta":10925,"conscious":10926,"Ġblair":10927,"rentz":10928,"Ġkno":10929,"Ġonyx":10930,"Ġscoo":10931,"ĠCru":10932,"ĠHier":10933,"ffel":10934,"Ġdragonfly":10935,"ledge":10936,"Ġparking":10937,"Ġjuan":10938,"Ġrice":10939,"Ġpineapple":10940,"pace":10941,"lotte":10942,"Ġjayison":10943,"att":10944,"Ġswe":10945,"Ġvictoria":10946,"Ġacademic":10947,"park":10948,"Ġconcep":10949,"Ġquentin":10950,"Ġplains":10951,"Ġcurtains":10952,"Ġhelm":10953,"Ġfungi":10954,"Ġimaginative":10955,"65":10956,"Ġgan":10957,"chre":10958,"Ġchart":10959,"uez":10960,"Ġceremonial":10961,"bene":10962,"Ġske":10963,"omination":10964,"Ġlaure":10965,"Ġshotgun":10966,"pale":10967,")))))":10968,"eathley":10969,"Ġlomography":10970,"Ġhear":10971,"Ġmajor":10972,"Ġislands":10973,"Ġword":10974,"ĠIMA":10975,"Ġspike":10976,"Ġsien":10977,"Ġtumblr":10978,"nal":10979,"Ġgordon":10980,"Ġiq":10981,"Ġgemstones":10982,"Ġlistening":10983,"Ġshack":10984,"Ġhataken":10985,"Ġshower":10986,"Ġlobster":10987,"adas":10988,"gara":10989,"Ġcreek":10990,"promotional":10991,"ĠEmmanuel":10992,"Ġmodeled":10993,"Cyberpunk":10994,"Ġhatakenaka":10995,"vind":10996,"Ġculture":10997,"Ġdetailded":10998,"Ġcomfy":10999,"Ġtanko":11000,"Ġfrey":11001,"ĠKarlkka":11002,"Ġharpy":11003,"lom":11004,"Ġegypt":11005,"Ġwiring":11006,"ĠWonder":11007,"Ġfloat":11008,"ĠNikon":11009,"Ġlavender":11010,"ulder":11011,"Ġcoin":11012,"Ġyerka":11013,"Ġlounge":11014,"scho":11015,"Ġmattepainting":11016,"bike":11017,"tony":11018,"Ġgeometrical":11019,"Ġclarke":11020,"ysical":11021,"doom":11022,"Ġcarto":11023,"comp":11024,"Ġdiscovery":11025,"Ġhusky":11026,"90":11027,"Ġdulac":11028,"ornate":11029,"iga":11030,"Ġrgb":11031,"ĠDarth":11032,"Ġsou":11033,"Ġfedora":11034,"twined":11035,"Ġsapphire":11036,"Ġcustom":11037,"scapes":11038,"Sh":11039,"Ġclash":11040,"Ġartbox":11041,"Ġpooh":11042,"Ġsniper":11043,"Ġdrip":11044,"Ġmerged":11045,"Ġscottish":11046,"Ġvegetables":11047,"Ġrollo":11048,"Ġbucket":11049,"Ġbless":11050,"Ġartfol":11051,"ches":11052,"Ġcycles":11053,"ĠTur":11054,"iverse":11055,"Ġmicrochip":11056,"Ġsuccubus":11057,"Ġeisner":11058,"Ġduplic":11059,"Ġdod":11060,"Ġwic":11061,"Ġfoam":11062,"Ġtoxic":11063,"Ġtreehouse":11064,"symmetric":11065,"Ġrubens":11066,"ĠAshley":11067,"Ġchampion":11068,"Ġversus":11069,"Ġnurse":11070,"uary":11071,"leep":11072,"americ":11073,"Ġgreatest":11074,"Ġdove":11075,"Ġ]!!,":11076,"Ġcop":11077,"Ġjazz":11078,"Ġlolita":11079,"ĠLondon":11080,"Ġemblem":11081,"tism":11082,"Ġjosephine":11083,"Ġarabian":11084,"Ġproportioned":11085,"Film":11086,"Ġfresco":11087,"Ġcaucasian":11088,"aches":11089,"lops":11090,"Ġcaruso":11091,"ĠIron":11092,"Ġappearing":11093,"ĠMagic":11094,"Ġbuddha":11095,"ES":11096,"mine":11097,"Ġgio":11098,"Ġque":11099,"ĠEOS":11100,"Ġchim":11101,"Ġbenjamin":11102,"Ġfalcon":11103,"ĠJohansson":11104,"Ġcorrected":11105,"Ġtardigrade":11106,"ĠIMAX":11107,"pants":11108,"lied":11109,"Ġcomfort":11110,"andid":11111,"mospheric":11112,"riever":11113,"Ġgarage":11114,"Ġdishonored":11115,"ĠGoodman":11116,"ĠLewandowski":11117,"Ġassociated":11118,"sted":11119,"Ġoran":11120,"Ġtaka":11121,"ĠJin":11122,"ĠRobot":11123,"Ġchimp":11124,"Ġblend":11125,"Ġhideaki":11126,"ĠAnato":11127,"ND":11128,"lush":11129,"Ġpages":11130,"Ġlightroom":11131,"Ġcybertronic":11132,"Ġcircles":11133,"letub":11134,"Ġengland":11135,"Ġfloors":11136,"Ġsection":11137,"Ġconfused":11138,"ĠTarkovsky":11139,"trump":11140,"ugg":11141,"Ġsvg":11142,"ont":11143,"quil":11144,"Ġdetailled":11145,"ĠRid":11146,"Ġwins":11147,"Ġcyberspace":11148,"ĠLin":11149,"Ġdonut":11150,"Ġtrigger":11151,"frog":11152,"Ð°":11153,"Ġtic":11154,"Ġolsen":11155,"Ġether":11156,"Ġkang":11157,"Ġkuro":11158,"lux":11159,"Ġnc":11160,"Ġchung":11161,"Ġtaste":11162,"Ġsanders":11163,"Ġgiorg":11164,"Ġdevian":11165,"ĠPort":11166,"Ġpunching":11167,"Ġamethyst":11168,"Ġdrapery":11169,"Ġsurprised":11170,"</":11171,"itte":11172,"Ġtanned":11173,"ĠHouse":11174,"Ġcrossed":11175,"ĠArnold":11176,"Ġhenson":11177,"Ġcornwell":11178,"Ġtonalism":11179,"Ġfrancois":11180,"Highly":11181,"Ġideal":11182,"Ġvaro":11183,"etsu":11184,"Ġtarant":11185,"Ġholiday":11186,"Ġforces":11187,"monaut":11188,"Ġcomplementing":11189,"Ġmerchant":11190,"Ġpumpkin":11191,"Ġserpent":11192,"tible":11193,"Ġpean":11194,"Ġok":11195,"Ġlithe":11196,"Ġpoe":11197,"kim":11198,"Ġleopard":11199,"ystical":11200,"masa":11201,"Ġcartoonish":11202,"Ġlabel":11203,"Ġsavage":11204,"Ġhungry":11205,"Affinity":11206,"chinese":11207,"Ġconso":11208,"Ġshaggy":11209,"eprin":11210,"Ġpenny":11211,"Ġpolyp":11212,"Ġcasually":11213,"Ġdirectly":11214,"Ġdissolving":11215,"tics":11216,"Ġker":11217,"Ġboil":11218,"essor":11219,"Ġitems":11220,"Ġmarks":11221,"ungeons":11222,"ĠSkyrim":11223,"ĠFor":11224,"saul":11225,"Ġtabletop":11226,"Ġecsta":11227,"Ġkunis":11228,"Ġpsychic":11229,"Ġshoe":11230,"Ġlongsden":11231,"Ġbrooding":11232,"Ġharmon":11233,"veda":11234,"Ġmalveda":11235,"Ġslavic":11236,"Ġeiffel":11237,"Ġhitting":11238,"seamless":11239,"Ġcucumber":11240,"Dra":11241,"Lo":11242,"Ġsmash":11243,"isc":11244,"Ġnolan":11245,"nake":11246,"ĠFern":11247,"ĠNgai":11248,"Ġrobin":11249,"Ġfuch":11250,"Ġcrus":11251,"Ġguardian":11252,"ĠCarl":11253,"Ġtintype":11254,"ĠAmerica":11255,"Ġlocation":11256,"Ġbalanced":11257,"Sa":11258,"ika":11259,"Ġplum":11260,"Ġllama":11261,"ĠMod":11262,"Ġunderworld":11263,"noir":11264,"Ġmarcin":11265,"Ġjansson":11266,"Ġpoints":11267,"Ġgriffin":11268,"ĠVictor":11269,"Ġhazmat":11270,"gandalf":11271,"Ġvine":11272,"Ġmafia":11273,"app":11274,"ĠGad":11275,"Ġdays":11276,"Ġterrain":11277,"sculpture":11278,"Ġgangster":11279,"ĠHughes":11280,"ĠLawrence":11281,"inotaur":11282,"school":11283,"Still":11284,"rict":11285,"wai":11286,"ĠSpider":11287,"Ġintimate":11288,"St":11289,"witch":11290,"Ġmold":11291,"thus":11292,"Ġklint":11293,"Ġarena":11294,"orayama":11295,"Ġcasino":11296,"Ġfinnish":11297,"ĠHajime":11298,"Ġresembles":11299,"Ġhypno":11300,"Ġaerochrome":11301,"Ġturbulent":11302,"OR":11303,"gary":11304,"Ġhul":11305,"Ġbyzantine":11306,"Ġearle":11307,"igmatic":11308,"Ġphotolab":11309,"Ġtoons":11310,"counter":11311,"Ġmodest":11312,"Ġgeorgia":11313,"Ġpixelart":11314,"Ġyouthful":11315,"ropomorphized":11316,"fold":11317,"Ġalps":11318,"scarlett":11319,"Ġcarlo":11320,"ĠYou":11321,"Ġmurky":11322,"Concept":11323,"Digital":11324,"group":11325,"Ġgle":11326,"Ġvari":11327,"ides":11328,"rowth":11329,"Ġintertwined":11330,"Ġfairies":11331,"Ġrefractions":11332,"ĠDenning":11333,"Ġspartan":11334,"Ġtroopers":11335,"Ġremastered":11336,"Ġembellishments":11337,"EA":11338,"Ġpregnant":11339,"ĠMin":11340,"imalistic":11341,"Ġcampa":11342,"fullbody":11343,"Ġseeing":11344,"ymph":11345,"Ġsprawling":11346,"Ã¨":11347,"Ġdub":11348,"alization":11349,"iry":11350,"ĠGear":11351,"mona":11352,"Ġabstra":11353,"Ġhubert":11354,"west":11355,"ĠUS":11356,"ĠGerard":11357,"Ġtouching":11358,"Ġprom":11359,"usan":11360,"Ġlime":11361,"Ġmora":11362,"Ġfem":11363,"ĠVR":11364,"Ġlut":11365,"ĠMariusz":11366,"Ġparkinson":11367,"Ġsalt":11368,"Ġdecol":11369,"Ġholland":11370,"ĠLongsden":11371,"Ġintegra":11372,"mian":11373,"reality":11374,"Ġwidow":11375,"Ġleaving":11376,"Ġnest":11377,"gazine":11378,"Ġsaber":11379,"Ġaircraft":11380,"cthulhu":11381,"och":11382,"Ġsno":11383,"Ġyas":11384,"ĠWink":11385,"onesia":11386,"mario":11387,"Ġeverett":11388,"Ġbandana":11389,"Ġsebas":11390,"ghost":11391,"Ġcheckerboard":11392,"ĠFurAffinity":11393,"Ġconceptart":11394,"fred":11395,"home":11396,"mak":11397,"lyn":11398,"atra":11399,"Ġenamel":11400,"Ġnetanyahu":11401,"Ġgogos":11402,"Ġfury":11403,"wek":11404,"Ġthough":11405,"Ġangeles":11406,"ĠGerald":11407,"ĠDesign":11408,"Ġcombined":11409,"Ġambrotype":11410,"Ġpowder":11411,"bac":11412,"emon":11413,"nwein":11414,"pect":11415,"Ġmali":11416,"Ġhase":11417,"ĠJayison":11418,"ĠPutin":11419,"Ġcannon":11420,"pikachu":11421,"Ġguillermo":11422,"Ġfleischer":11423,"ĠDevadas":11424,"Ġbleeding":11425,"Ġwidescreen":11426,"gold":11427,"Ã³":11428,"Ġbismuth":11429,"Ġfas":11430,"Ġevent":11431,"Ġlink":11432,"Ġswynnerton":11433,"Ġtracer":11434,"Ġmyst":11435,"Ġjade":11436,"henge":11437,"Ġwreath":11438,"rangling":11439,"Ġjealous":11440,"Ġheld":11441,"morous":11442,"Ġ15":11443,"ĠBol":11444,"Ġpowered":11445,"Ġmercury":11446,"Ġplump":11447,"Ġlocated":11448,"bis":11449,"ann":11450,"Ġequ":11451,"asing":11452,"Ġfaint":11453,"ressionist":11454,"ittens":11455,"Ġsaying":11456,"cakes":11457,"lein":11458,"toon":11459,"Ġremed":11460,"Ġkunkle":11461,"Ġfai":11462,"Ġxf":11463,"clear":11464,"tilus":11465,"Ġpocket":11466,"headshot":11467,"itage":11468,"tid":11469,"acho":11470,"Ġmargaret":11471,"illier":11472,"Ġcontemp":11473,"Ġsorrow":11474,"Ġvietnam":11475,"Ġpaw":11476,"inetic":11477,"Ġcontin":11478,"Ġloony":11479,"ĠRiver":11480,"ĠBrown":11481,"alex":11482,"ĠGrand":11483,"politan":11484,"zee":11485,"eraphaelite":11486,"Ġartful":11487,"ĠFord":11488,"Ġdaily":11489,"nova":11490,"Ġvampi":11491,"Ġawak":11492,"Ġswinging":11493,"Ġgrizz":11494,"road":11495,"Ġyard":11496,"Ġspee":11497,"iewicz":11498,"Ġdying":11499,"ĠVen":11500,"Ġburnt":11501,"Ġlipkinng":11502,"Ġinsectoid":11503,"Ġcheekbones":11504,"Ġleotard":11505,"original":11506,"Ġpulling":11507,"lium":11508,"apid":11509,"Ġfaced":11510,"Ġtrace":11511,"ughter":11512,"ĠLoish":11513,"Ġbac":11514,"Ġartsta":11515,"ĠBurt":11516,"Ġtiki":11517,"Ġdynasty":11518,"Ġwain":11519,"Ġhamilton":11520,"Ġphiloso":11521,"Ġdisgusting":11522,"Ġcumberbatch":11523,"Ġkent":11524,"Ġhabi":11525,"Ġstain":11526,"Ġshock":11527,"rested":11528,"aroo":11529,"ĠFort":11530,"Ġrevealing":11531,"Ġmatsuyama":11532,"Ġlanguage":11533,"AS":11534,"Michael":11535,"dust":11536,"tique":11537,"lified":11538,"Ġwand":11539,"Ġanto":11540,"Ġarmas":11541,"ĠJacobson":11542,"ĠPsy":11543,"vabene":11544,"ðŁİ":11545,"Ġminer":11546,"bulous":11547,"Ġtorres":11548,"holson":11549,"Ġsupreme":11550,"Ġtomokazu":11551,"blueprin":11552,"Ġspeech":11553,"whel":11554,"Ġay":11555,"aman":11556,"Ġbeks":11557,"Ġfiona":11558,"ĠTony":11559,"Ġstarfish":11560,"Ġthinking":11561,"ĠDanny":11562,"Ġlense":11563,"Space":11564,"Ġgladiator":11565,"ĠWinkelmann":11566,"Ġremedios":11567,"ejima":11568,"tight":11569,"Ġcocon":11570,"Ġcobble":11571,"Ġmamiya":11572,"iego":11573,"Ġsharpness":11574,"Ġrare":11575,"Ġblush":11576,"ĠStation":11577,"Ġdots":11578,"agu":11579,"ulator":11580,"Ġretriever":11581,"igenori":11582,"ndition":11583,"Two":11584,"first":11585,"thon":11586,"Ġpour":11587,"sheet":11588,"ĠTaylor":11589,"Ġblues":11590,"worna":11591,"Ġarmstrong":11592,"Ġsamura":11593,"Ġturtles":11594,"Ġwashed":11595,"netsov":11596,"Ġapproaching":11597,"grim":11598,"Ġtric":11599,"Ġpiranesi":11600,"Ġdecorations":11601,"Ġauburn":11602,"Ġryohei":11603,"stino":11604,"Ġsleeves":11605,"Ġmerriam":11606,"ĠElon":11607,"Ġ2000":11608,"ĠGoro":11609,"Ġjonathan":11610,"Ġscorp":11611,"Ġochre":11612,"odon":11613,"Ġstylised":11614,"Ġsafe":11615,"ppers":11616,"Ġbiological":11617,"Ġbabylon":11618,"Ġcaptured":11619,"petition":11620,"american":11621,"ilia":11622,"Ġsma":11623,"Ġoverla":11624,"Ġtrenchcoat":11625,"machine":11626,"Car":11627,"jn":11628,"alia":11629,"Ġlane":11630,"achsh":11631,"lope":11632,"huoc":11633,"Ġsadie":11634,"Ġchristensen":11635,"Ġspells":11636,"Ġonline":11637,"Ġ14":11638,"Ġcomes":11639,"ĠBot":11640,"harry":11641,"Ġmicroscope":11642,"yal":11643,"Ġdump":11644,"rasov":11645,"Ġrendition":11646,"Ġmapped":11647,"Ġbuscemi":11648,"Ġmori":11649,"Ġnielly":11650,"ĠBliss":11651,"Ġatomic":11652,"itation":11653,"jeff":11654,"Ġdickenson":11655,"Ġhilma":11656,"uly":11657,"Ġabomination":11658,"Ġitem":11659,"Ġprem":11660,"Ġroads":11661,"overwatch":11662,"ĠFinnstark":11663,"18":11664,"garden":11665,"pas":11666,"Ġdrop":11667,"rolla":11668,"Ġmoto":11669,"Ġtoast":11670,"Ġramen":11671,"ĠPino":11672,"Ġstretching":11673,"Ġcardboard":11674,"Ġwilders":11675,"Ġcrooked":11676,"Ġketchup":11677,"uigi":11678,"rica":11679,"anton":11680,"iosi":11681,"ĠOf":11682,"Ġserv":11683,"Ġzatista":11684,"Giant":11685,"itive":11686,"Ġdone":11687,"anas":11688,"Ġartpal":11689,"Ġlago":11690,"ĠCry":11691,"Ġgehry":11692,"Ġbattling":11693,"Ġsplashing":11694,"kari":11695,"obi":11696,"Ġprometheus":11697,"Ġnicola":11698,"ĠQuan":11699,"Ġwisps":11700,"Ġadorned":11701,"tarctica":11702,"squ":11703,"Ġclaw":11704,"racal":11705,"Ġblacksmith":11706,"Ġhockney":11707,"ĠFilm":11708,"Ġlube":11709,"lacek":11710,"ĠMatrix":11711,"castle":11712,"Ġdomin":11713,"Ġbecome":11714,"Hyper":11715,"kh":11716,"mel":11717,"tator":11718,"earth":11719,"Ġoctan":11720,"Ġheade":11721,"vies":11722,"Ġbrazilian":11723,"onymous":11724,"Ġballet":11725,"Ġastronauts":11726,"Ġuniversity":11727,"gigantic":11728,"Ġexcited":11729,"MT":11730,"ati":11731,"Ġbang":11732,"Ġ300":11733,"ttering":11734,"Ġcollabo":11735,"Ġescape":11736,"Ġslicked":11737,"skull":11738,"Ġelectronics":11739,"ĠGriffiths":11740,"Ġnautilus":11741,"Pro":11742,"gical":11743,"Ġenigmatic":11744,"ĠBill":11745,"Ġengineering":11746,"insale":11747,"Ġsidewalk":11748,"Ġhyena":11749,"Ġkonstantin":11750,"!!!!!!!!!!!!!!!!!!!!!!!!!!!!!!":11751,"Ġopalescent":11752,"ĠDeath":11753,"Ġjoaquin":11754,"ually":11755,"Ġornated":11756,"icago":11757,"ĠNicholas":11758,"Ġlubezki":11759,"gwick":11760,"Ġcad":11761,"Ġeats":11762,"ĠFRO":11763,"Ġoverlay":11764,"Ġbarbie":11765,"Ġtranquil":11766,"Ġ60":11767,"spaceship":11768,"Ġillusionistic":11769,"Ġyuumei":11770,"Ġorientalist":11771,"ĠRubens":11772,"lli":11773,"Ġcuto":11774,"oll":11775,"ranian":11776,"ctv":11777,"Ġposters":11778,"you":11779,"Ġcubic":11780,"Ġeveryone":11781,"Ġpollock":11782,"Ġmicroscopic":11783,"ĠCaptain":11784,"snoop":11785,"Ġsir":11786,"Ġhight":11787,"Ġanten":11788,"Ġlovers":11789,"Ġlands":11790,"ĠDinet":11791,"ĠEver":11792,"Ġoverwhel":11793,"Ġfrance":11794,"ĠZelda":11795,"ristina":11796,"Ġcostumes":11797,"ĠGeographic":11798,"Ġfrancoise":11799,"ĠNasreddine":11800,"apidated":11801,"ister":11802,"tron":11803,"erian":11804,"ĠJessica":11805,"ĠPhi":11806,"vage":11807,"...":11808,"mike":11809,"opy":11810,"ĠWilliams":11811,"shadow":11812,"Ġfrightening":11813,"Ġreactor":11814,"unger":11815,"ĠSorayama":11816,"ĠHatsune":11817,"Ġbathing":11818,"Ġplated":11819,"Ġgodly":11820,"lection":11821,"Ġnewton":11822,"ĠSteampunk":11823,"ĠPinterest":11824,"Mark":11825,"Ġç":11826,"main":11827,"Ġcyl":11828,"Ġworshi":11829,"Ġstargate":11830,"Ġdepressing":11831,"awn":11832,"Ġnebulas":11833,"Ġvrubel":11834,"with":11835,"Ġpino":11836,"acial":11837,"last":11838,"Ġnymph":11839,"Ġshine":11840,"ĠRyan":11841,"hanos":11842,"Ġseaweed":11843,"ĠNeon":11844,"Ġsedlacek":11845,"Ġgroot":11846,"hinde":11847,"Ġpeasant":11848,"Ġphilip":11849,"Ġgemstone":11850,"letubbies":11851,"achshund":11852,"Ġrooster":11853,"Ġene":11854,"Ġdracula":11855,"Ġtana":11856,"many":11857,"Ġjewell":11858,"Ġexpressionist":11859,"battle":11860,"Ġnerdy":11861,"obama":11862,"majestic":11863,"grainy":11864,"ĠJen":11865,"Ġcreator":11866,"Ġpixels":11867,"Ġmining":11868,"Ġcolli":11869,"simple":11870,"automata":11871,"sword":11872,"uber":11873,"Ðµ":11874,"Ġbb":11875,"Ġnano":11876,"Ġyoko":11877,"ĠFox":11878,"Ġmothership":11879,"heart":11880,"arian":11881,"Ġeuro":11882,"Ġcola":11883,"Ġtoe":11884,"Ġfaceless":11885,"Ġfires":11886,"Ġmonks":11887,"Ġfursuit":11888,"Ġmacron":11889,"Ġcirca":11890,"Ġpigs":11891,"chenko":11892,"Ġcommander":11893,"too":11894,"Ġlatent":11895,"ayan":11896,"Ġclearly":11897,"Ġandrea":11898,"linton":11899,"Ġbonestell":11900,"Ġeilish":11901,"Ġeastmancolor":11902,"Ġfairey":11903,"IS":11904,"unzel":11905,"geometric":11906,"pot":11907,"Ġteacher":11908,"ĠLy":11909,"Ġdafoe":11910,"Ġelves":11911,"Ġcosmonaut":11912,"Ġafrofuturism":11913,"ultist":11914,"dreamy":11915,"ĠTitan":11916,"iko":11917,"Ġspines":11918,"Ġborealis":11919,"Ġrug":11920,"Ġsales":11921,"Ġwhit":11922,"Ġtanguy":11923,"Ġnaturalism":11924,"Ġastonishing":11925,"Ġdevianart":11926,"Super":11927,"Ġbetta":11928,"Ġpiles":11929,"encil":11930,"Ġtry":11931,"Ġdetailing":11932,"Ġalli":11933,"Ġhover":11934,"Ġjolie":11935,"agonal":11936,"Ġbetter":11937,"Ġbotanicals":11938,"osaurus":11939,"Ġgreeble":11940,"Jes":11941,"Ġduel":11942,"Ġpun":11943,"verted":11944,"lows":11945,"asca":11946,"ĠDream":11947,"Ġsurgical":11948,"nage":11949,"Ġcrows":11950,"Ġcrime":11951,"Ġricardo":11952,"Ġwhiskey":11953,"ĠHenry":11954,"ĠbeksiÅĦski":11955,"gum":11956,"Ġcruc":11957,"Ġgory":11958,"Ġrio":11959,"odes":11960,"vela":11961,"Ġchang":11962,"Ġtek":11963,"Ġcab":11964,"ĠHam":11965,"Ġbags":11966,"ðŁ§":11967,"Ġbeatiful":11968,"Ġautochrome":11969,"Ġpieck":11970,"Ġalfons":11971,"Ġenemy":11972,"Sc":11973,"tisse":11974,"Ġfries":11975,"Ġbooth":11976,"ĠThere":11977,"Ġdefense":11978,"Ġvalkyrie":11979,"1950":11980,"Ġwheelchair":11981,"Ġgfxartist":11982,"Ġthumb":11983,"Ġkha":11984,"Ġkick":11985,"phren":11986,"iri":11987,"soviet":11988,"(((((":11989,"ĠChiang":11990,"Ġnaruto":11991,"Ġneighborhood":11992,"kiewicz":11993,"Ġdal":11994,"Ġcoca":11995,"irk":11996,"quera":11997,"ĠRing":11998,"Ġcham":11999,"Ġquad":12000,"Ġcarrier":12001,"Ġblob":12002,"ĠMagg":12003,"Ġrectangular":12004,"dor":12005,"Ġtrevor":12006,"Ġtoga":12007,"Ġbrue":12008,"Ġgott":12009,"Ġmanda":12010,"Ġapron":12011,"Ġabsolute":12012,"Ġfringe":12013,"iu":12014,"our":12015,"Ġlaura":12016,"Ġjeremyg":12017,"Ġantonio":12018,"zophren":12019,"Ġcoronation":12020,"lly":12021,"niss":12022,"ption":12023,"Ġenrich":12024,"Ġlepage":12025,"Ġstable":12026,"ĠStill":12027,"Ġvoluptuous":12028,"ðŁĩ":12029,"Ġveiled":12030,"Ġromance":12031,"rainbow":12032,"Ġhogwarts":12033,"vous":12034,"Ġdess":12035,"loci":12036,"Ġeigh":12037,"Ġkermit":12038,"Ġexc":12039,"Ġsteal":12040,"Ġcrescent":12041,"Ġtypo":12042,"Ġhiroaki":12043,"ĠSoviet":12044,"Ġguarding":12045,"Ġamongst":12046,"Ġmckie":12047,"Ġpacific":12048,"brutalist":12049,"Ġfreytag":12050,"kind":12051,"ĠTra":12052,"Ġukrainian":12053,"Ġmediterranean":12054,"Ġherc":12055,"Ġike":12056,"Ġandroids":12057,"ĠGreat":12058,"Ġtitanic":12059,"Ġexpanse":12060,"ĠHieronymus":12061,"hm":12062,"mil":12063,"rodi":12064,"kavage":12065,"Ġoilstick":12066,"Ġmartian":12067,"Ġdais":12068,"ĠStone":12069,"Ġscientists":12070,"silhouette":12071,"Ġjewellery":12072,"fur":12073,"rum":12074,"Ġclan":12075,"Ġwant":12076,"Ġintro":12077,"Ġcoins":12078,"rann":12079,"Ġbending":12080,"ĠBrian":12081,"Ġchiho":12082,"Ġandrey":12083,"Ġtanktop":12084,"Ġknees":12085,"ĠBattle":12086,"Ġtakeshi":12087,"Ġdictator":12088,"Ge":12089,"rated":12090,"laus":12091,"Ġtonal":12092,"kies":12093,"Ġlara":12094,"vator":12095,"Ġsideview":12096,"Ġtelephone":12097,"Ġdetermin":12098,"osh":12099,"plo":12100,"ilon":12101,"Ġrei":12102,"phia":12103,"Ġshred":12104,"Ġscy":12105,"Ġchucky":12106,"ĠBal":12107,"Ġsuff":12108,"ĠWild":12109,"Ġluigi":12110,"Ġsarah":12111,"Ġinfected":12112,"ential":12113,"ĠMcDonald":12114,"Ġcampbell":12115,"Ġnecro":12116,"retrofuturistic":12117,"knights":12118,"victorian":12119,"FW":12120,"ether":12121,"oke":12122,"pha":12123,"xia":12124,"zio":12125,"lets":12126,"potent":12127,"Ġrains":12128,"cklin":12129,"Ġnoisy":12130,"ĠDangelico":12131,"Ġcalifornia":12132,"usanagi":12133,"Ġmam":12134,"ĠPhuoc":12135,"Ġdoug":12136,"Ġplatonic":12137,"Ġfrankenstein":12138,"Ġdenim":12139,"Ġaquatic":12140,"Ġexperimental":12141,"samurai":12142,"yr":12143,"taylor":12144,"Ġfischer":12145,"Ġlilies":12146,"Ġkill":12147,"statue":12148,"Ġwarf":12149,"apest":12150,"ĠOne":12151,"cloth":12152,"Ġwatches":12153,"ĠDepth":12154,"Ġgottfried":12155,"Ġbry":12156,"stri":12157,"Ġthicc":12158,"Ġspy":12159,"Ġzu":12160,"Ġruff":12161,"Ġintercross":12162,"Ġblades":12163,"Ġfoolish":12164,"Ġmultiverse":12165,"ĠMcK":12166,"Ġmimmo":12167,"sommar":12168,"Ġsite":12169,"Ġcudd":12170,"Ġinj":12171,"Ġmara":12172,"Ġmate":12173,"Ġbeth":12174,"ĠFal":12175,"Ġlustrous":12176,"Ġami":12177,"clean":12178,"Ġombre":12179,"Ġknowledge":12180,"'ve":12181,"gli":12182,"nuclear":12183,"loo":12184,"Ġkarolis":12185,"Ġmoscow":12186,"Ġspiders":12187,"Ġelegantly":12188,"Ġsoejima":12189,"Ġseas":12190,"Ġeyeball":12191,"Ġcharlotte":12192,"Ġflux":12193,"Ġmotherboard":12194,"ĠSargent":12195,"vish":12196,"this":12197,"utube":12198,"Ġattention":12199,"Ġchilling":12200,"Ġbarack":12201,"Ġhelp":12202,"Ġtables":12203,"Ġmixture":12204,"organic":12205,"Ġkraken":12206,"ĠBreathtaking":12207,"zka":12208,"tarot":12209,"Ġbezos":12210,"mpus":12211,"Ġsanchez":12212,"Ġjinping":12213,"ĠMaggiori":12214,"cow":12215,"gi":12216,"Ġsatellite":12217,"lore":12218,"Ġanger":12219,"atron":12220,"Ġshigenori":12221,"omi":12222,"Ġencounter":12223,"ĠDJ":12224,"ĠPic":12225,"Ġgrayscale":12226,"Ġsidney":12227,"artistic":12228,"Ġeggleton":12229,"Ġlingerie":12230,"ej":12231,"nin":12232,"Ġaaa":12233,"Ġjing":12234,"Ġconan":12235,"Ġhaag":12236,"Ġexpa":12237,"Ġcher":12238,"Ġpuddle":12239,"diz":12240,"ices":12241,"Ġlifting":12242,"ective":12243,"ĠSigma":12244,"avision":12245,"rina":12246,"venture":12247,"ĠJohannes":12248,"Ġcassette":12249,"Ġsmashing":12250,"ĠFROG":12251,"Ġkel":12252,"Ġpotions":12253,"Ġposed":12254,"Ġlead":12255,"Ġoverlord":12256,"lence":12257,"Ġskintight":12258,"astle":12259,"Ġvolegov":12260,"Ġrepresenting":12261,"Ġmandalorian":12262,"Ġherculean":12263,"acity":12264,"late":12265,"gest":12266,"demo":12267,"asa":12268,"shuman":12269,"ĠGarden":12270,"ĠDave":12271,"Ġmonroe":12272,"ĠVo":12273,"Ġknitted":12274,"Ġcoherence":12275,"Ġindividual":12276,"ormal":12277,"Ġcentred":12278,"Ġchange":12279,"Ġthink":12280,"ĠBea":12281,"Ġhoody":12282,"rono":12283,"Ġdante":12284,"Ġtwins":12285,"Ġcorona":12286,"Ġmarker":12287,"Ġbiology":12288,"ĠTrek":12289,"ĠCGI":12290,"Ġorthodox":12291,"locirap":12292,"Ġapo":12293,"habi":12294,"ĠAsian":12295,"Ġeyvind":12296,"Ġsunflowers":12297,"Ġvanishing":12298,"gance":12299,"Ġ1940":12300,"Ġhowl":12301,"Ġfeline":12302,"snow":12303,"Ġdilapidated":12304,"ME":12305,"tit":12306,"etto":12307,"Ġrush":12308,"Ġrhy":12309,"Ġroaring":12310,"Ġalmost":12311,"ĠBad":12312,"Ġzone":12313,"Ġmagno":12314,"sao":12315,"Ġdrifting":12316,"Ġferns":12317,"vania":12318,"Ġsigils":12319,"Ġjurassic":12320,"Ġmartiniere":12321,"Ġrecursive":12322,"aint":12323,"Ġneat":12324,"Ġroberts":12325,"Ġrage":12326,"ondz":12327,"bag":12328,"Ġminjun":12329,"Ġstonehenge":12330,"Ġsolondz":12331,"ĠMcD":12332,"Ġflashlight":12333,"Ġpreraphaelite":12334,"Ġlamborghini":12335,"aesthetic":12336,"cings":12337,"frank":12338,"Ġlicking":12339,"Ġstatic":12340,"Ġartgermm":12341,"manga":12342,"Ġ25":12343,"Ġlum":12344,"Ġporsche":12345,"ĠShin":12346,"Ġreptilian":12347,"ĠReeves":12348,"gascan":12349,"Ġstrawberries":12350,"uscious":12351,"Ġbrosmin":12352,"cropped":12353,"Ġlurking":12354,"gund":12355,"minecraft":12356,"orange":12357,"Ġfx":12358,"illu":12359,"Ġlet":12360,"Ġcara":12361,"Ġbravely":12362,"Ġserving":12363,"Ġheda":12364,"Ġtapest":12365,"Ġmikhail":12366,"uum":12367,"wild":12368,"Ġpaisley":12369,"Ġcoun":12370,"grand":12371,"Ġraider":12372,"ĠJapan":12373,"idelity":12374,"pain":12375,"Ġmarg":12376,"Ġolder":12377,"Ġshimoda":12378,"ĠOn":12379,"Ġwatery":12380,"Ġchairs":12381,"ãĤ¤":12382,"ĠHorror":12383,"BR":12384,"gus":12385,"Ð¸":12386,"sten":12387,"Ġmovies":12388,"keys":12389,"Ġlac":12390,"bata":12391,"Ġvaporware":12392,"Ġdimensions":12393,"market":12394,"Ġbushes":12395,"Ġyuskavage":12396,"Ġhappiness":12397,"tana":12398,"enery":12399,"Ġdew":12400,"Ġenric":12401,"ĠAngel":12402,"Ġnarrative":12403,"gigachad":12404,"technology":12405,"Ġoverwhelming":12406,"Bob":12407,"Ġpaick":12408,"Ġcaesar":12409,"Ġseg":12410,"bender":12411,"Ġstrautniekas":12412,"Ġvoss":12413,"Ġsavrasov":12414,"Ġpottery":12415,"Ġwolverine":12416,"Ġderelict":12417,"ĠVermeer":12418,"EL":12419,"bol":12420,"smooth":12421,"Ġgets":12422,"adian":12423,"Ġwarning":12424,"Ġheadband":12425,"ĠIta":12426,"Ġcamou":12427,"Ġmutated":12428,"Ġpostcyberpunk":12429,"Ġwizards":12430,"Ġtrailer":12431,"Ġthompson":12432,"ĠValent":12433,"Ġsleeveless":12434,"FO":12435,"ake":12436,"acade":12437,"oded":12438,"deen":12439,"rouded":12440,"ĠBell":12441,"ĠToc":12442,"Ġmuscled":12443,"Ġbeads":12444,"Ġpointil":12445,"1990":12446,"ĠTocchini":12447,"chment":12448,"mans":12449,"ĠDoctor":12450,"ĠClo":12451,"Ġachi":12452,"Ġimaging":12453,"baut":12454,"Ġtanida":12455,"rimp":12456,"Ġairbrushed":12457,"ĠProf":12458,"Ġkevin":12459,"Ġleds":12460,"ĠSym":12461,"ĠGold":12462,"ĠKun":12463,"Ġpee":12464,"Ġdefor":12465,"Ġgaudi":12466,"Ġomnipotent":12467,"vings":12468,"Ġprompt":12469,"physical":12470,"monkey":12471,"Ġfauv":12472,"Ġchips":12473,"Ġhikari":12474,"ĠLeica":12475,"ĠðŁĺ":12476,"ĠSharp":12477,"iosity":12478,"ĠHeironymous":12479,"Ġdropping":12480,"Ġartslant":12481,"ĠIndian":12482,"Ġinv":12483,"Ġvod":12484,"Ġkas":12485,"Ġcobb":12486,"Ġstup":12487,"Ġchad":12488,"ĠFate":12489,"Ġgos":12490,"ablo":12491,"Ġopened":12492,"ĠðŁ¦":12493,"Ġengulf":12494,"Ġpiercings":12495,"Ġwoj":12496,"selfie":12497,"Ġarrivabene":12498,"yahuasca":12499,"Ġdevouring":12500,"Ġcunningham":12501,"lete":12502,"Ġoku":12503,"ittle":12504,"Ġtax":12505,"ĠGira":12506,"Ġmeal":12507,"opatra":12508,"vgen":12509,"Ġaramaki":12510,"Ġcrush":12511,"Ġtitanium":12512,"ĠSaul":12513,"Ġhumming":12514,"Ġpeanut":12515,"slaw":12516,"sev":12517,"ĠSand":12518,"Ġcaracal":12519,"ĠHands":12520,"worm":12521,"ĠLand":12522,"elder":12523,"gator":12524,"Ġsaw":12525,"thulu":12526,"Ġpride":12527,"Ġmeteor":12528,"Ġhulking":12529,"tas":12530,"Ġkeanu":12531,"pov":12532,"ĠAz":12533,"ĠCage":12534,"uvian":12535,"Ġprinter":12536,"Ġtripping":12537,"Ġreyna":12538,"onoke":12539,"Octane":12540,"bug":12541,"mallow":12542,"pu":12543,"smo":12544,"tele":12545,"Ġshown":12546,"ĠTed":12547,"Ġbaggy":12548,"Ġjeweled":12549,"ĠZe":12550,"ĠAnimation":12551,"Ġgammell":12552,"Ġhalft":12553,"ĠClaude":12554,"ax":12555,"corn":12556,"gio":12557,"tack":12558,"Ġhudson":12559,"arta":12560,"uron":12561,"ided":12562,"Ġshut":12563,"iose":12564,"Ġlined":12565,"Ġdolom":12566,"nail":12567,"ĠArtwork":12568,"balt":12569,"!!!!!!!!!!":12570,"risten":12571,"scifi":12572,"Ġdryad":12573,"Darth":12574,"roma":12575,"ismatic":12576,"Ġrochin":12577,"Ġsock":12578,"ĠFire":12579,"Ġvibrating":12580,"Ġradioactive":12581,"Ġceremony":12582,"Ġagostino":12583,"Danny":12584,"Ġcontempla":12585,".âĢĿ":12586,"Ġbali":12587,"Ġgue":12588,"Ġlear":12589,"Ġyoutube":12590,"Ġzodiac":12591,"Ġmarx":12592,"Ġbars":12593,"Ġbeatrix":12594,"Ġscenes":12595,"Ġnebulae":12596,"Ġtakamura":12597,"Ġlincoln":12598,"Ġsupport":12599,"Ġwebsite":12600,"Ġwispy":12601,"Ġsimplified":12602,"Ġvasnetsov":12603,"robotic":12604,"Ġfrilly":12605,"ĠMiddle":12606,"ega":12607,"planet":12608,"eries":12609,"tek":12610,"Ġexam":12611,"Ġschmid":12612,"Ġmeade":12613,"Dwayne":12614,"Realistic":12615,"vfx":12616,"Ġlies":12617,"vey":12618,"tral":12619,"isher":12620,"risco":12621,"Ġplaced":12622,"Ġkale":12623,"Ġblast":12624,"ttps":12625,"Ġfinalrender":12626,"Ġbullet":12627,"Ġschizophren":12628,"Ġhexagonal":12629,"ĠBurton":12630,"tistic":12631,"Ġdow":12632,"Ġfidelity":12633,"Ġstencil":12634,"Ġronald":12635,"Ġspears":12636,"ĠThor":12637,"Ġescap":12638,"Ġhelnwein":12639,"Ġdagger":12640,"Ġariana":12641,"16":12642,"Ã¶":12643,"Ð¾":12644,"Ġ!":12645,"Ġaoshima":12646,"Ġduty":12647,"Ġthie":12648,"Ġeun":12649,"Ġmoran":12650,"udere":12651,"tured":12652,"sca":12653,"Ġbugs":12654,"Ġdestroyer":12655,"Ġembed":12656,"Ġfleshy":12657,"Ġphysics":12658,"Ġpepper":12659,"Ġpopp":12660,"romorphic":12661,"Ġtails":12662,"ĠBu":12663,"ĠPet":12664,"bist":12665,"Ġbroc":12666,"Ġdavidson":12667,"Ġfishes":12668,"Ġinclu":12669,"Ġgamer":12670,"ĠCole":12671,"Ġkuudere":12672,"47":12673,"cin":12674,"oval":12675,"yu":12676,"Ġino":12677,"Ġkilling":12678,"lund":12679,"Ġtrends":12680,"quart":12681,"Ġplus":12682,"exposed":12683,"Ġsleepy":12684,"Ġmagnum":12685,"Ġbolts":12686,"farlane":12687,"Ġinstruments":12688,"32":12689,"wet":12690,"Ġcn":12691,"Ġfame":12692,"anish":12693,"Ġscri":12694,"ĠSinger":12695,"Ġcreate":12696,"omez":12697,"Ġdainty":12698,"azar":12699,"Ġoprisco":12700,"Ġfrogs":12701,"pherd":12702,"marish":12703,"ĠGrande":12704,"Ġbulldog":12705,"ĠFrancisco":12706,"Ġhacking":12707,"Ġtorches":12708,"Ġmakeshift":12709,"Ġcolonial":12710,"ĠDorÃ©":12711,"Ġdetermined":12712,"dizslaw":12713,"ãĤ¤ãĥ":12714,"zens":12715,"Ġluscious":12716,"Ġyue":12717,"ĠMr":12718,"adman":12719,"Ġseeds":12720,"Ġbrother":12721,"Ġtsuk":12722,"Ġdiscord":12723,"ĠParis":12724,"Ġmolten":12725,"Ġparallax":12726,"ĠSquare":12727,"Screenshot":12728,"fter":12729,"rax":12730,"lean":12731,"Ġronaldo":12732,"ummer":12733,"Ġzo":12734,"fortable":12735,"Ġcockro":12736,"Ġoperating":12737,"Ġbenedict":12738,"blueprint":12739,"esque":12740,"idos":12741,"Ġtomer":12742,"Ġlegged":12743,"Ġraver":12744,"ĠPink":12745,"rendered":12746,"Elle":12747,"985":12748,"twin":12749,"Ġauth":12750,"anzee":12751,"nev":12752,"ĠFuraffinity":12753,"weta":12754,"cass":12755,"Ġblendernation":12756,"crystal":12757,"Ġconsole":12758,"ĠGadot":12759,"Kodak":12760,"fted":12761,"urice":12762,"Ġhatch":12763,"ĠSub":12764,"ĠCarp":12765,"ystopian":12766,"Ġiy":12767,"Ġguer":12768,"ĠOgura":12769,"Ġanimatronic":12770,"Ġmadgwick":12771,"Ġstudying":12772,"Ġmissing":12773,"eliner":12774,"Ġpractical":12775,"Ġtriumphant":12776,"mun":12777,"Ġmuppets":12778,"illo":12779,"aca":12780,"elves":12781,"olding":12782,"ĠScho":12783,"cool":12784,"Ġviolin":12785,"Ġbrut":12786,"Ġarmchair":12787,"Ġchihuahua":12788,"ĠTomasz":12789,"Ġinoue":12790,"kat":12791,"ŃĲ":12792,"Ġkinetic":12793,"Ġrogers":12794,"ĠSu":12795,"ĠThi":12796,"ĠFruit":12797,"gonard":12798,"Ġafar":12799,"Ġrapunzel":12800,"Ġbleached":12801,"Ġdolomites":12802,"Ñģ":12803,"Ġhp":12804,"Ġgrac":12805,"unken":12806,"Ġmemor":12807,"ĠGregory":12808,"Ġheard":12809,"Ġinternal":12810,"Ġjail":12811,"Ġgeneration":12812,"Ġstalin":12813,"ĠHiromasa":12814,"Ġkangaroo":12815,"Ġgho":12816,"phi":12817,"Ġshafts":12818,"Ġyokai":12819,"ĠLube":12820,"Ġfeed":12821,"angle":12822,"Ġminions":12823,"ĠArtgermm":12824,"Ġgarfield":12825,"Ġcalli":12826,"Ġbitcoin":12827,"ĠLubezki":12828,"Bat":12829,"bad":12830,"wars":12831,"ĠBierstadt":12832,"Ġzig":12833,"Ġmiho":12834,"Ġwildflowers":12835,"Ġblanket":12836,"ĠMonster":12837,"Ġkenneth":12838,"ĠOverwatch":12839,"Ġpoetic":12840,"Ġbunk":12841,"Ġplo":12842,"Ġdecal":12843,"phrodi":12844,"Ġelev":12845,"ĠCliff":12846,"Ġsurge":12847,"usement":12848,"atory":12849,"Ġpilo":12850,"Ġcapital":12851,"orean":12852,"genic":12853,"Ġopaque":12854,"blum":12855,"gul":12856,"inct":12857,"Ġmant":12858,"Ġyayoi":12859,"Ġmanip":12860,"Ġmegascan":12861,"Ġcarnage":12862,"oodoo":12863,"Ġalexa":12864,"Photograph":12865,"official":12866,"Ġlithograph":12867,"Ġtyping":12868,"phrodite":12869,"Ġcin":12870,"Ġglim":12871,"tore":12872,"Ġliken":12873,"lander":12874,"Ġtru":12875,"ĠPBR":12876,"aglyph":12877,"Ġbalcon":12878,"Ġburn":12879,"Ġrainbows":12880,"Ġdeadly":12881,"schel":12882,"Ġmotorbike":12883,"Ġchampions":12884,"ĠPatrick":12885,"Ġtakahashi":12886,"Ġtanaka":12887,"Ġbroccoli":12888,"billy":12889,"Ġdining":12890,"ĠGothic":12891,"Ġproph":12892,"Ġdresses":12893,"Ġgenie":12894,"Ġchesley":12895,"Ġcutout":12896,"Ġeighties":12897,"Ġbalconies":12898,"uge":12899,"uhd":12900,"Ġsight":12901,"raz":12902,"rogant":12903,"lava":12904,"Ġarran":12905,"Ġeyeliner":12906,"ĠDea":12907,"ĠClose":12908,"ĠKelly":12909,"pses":12910,"Ġmountainous":12911,"Ġrevol":12912,"Ġjersey":12913,"Ġcrypto":12914,"Ġrebelka":12915,"Ġlynx":12916,"Ġlikeness":12917,"Ġsom":12918,"Ġdate":12919,"Ġdemen":12920,"Ġtotem":12921,"ĠSav":12922,"ĠPablo":12923,"ĠWo":12924,"olour":12925,"Ġrally":12926,"Ġcollectible":12927,"Ġkratos":12928,"Ġgeorges":12929,"Ġliebovitz":12930,"Ġshelves":12931,"Ġstippled":12932,"Ġneurons":12933,"Med":12934,"Very":12935,"Ġreads":12936,"Ġjong":12937,"Ġtrendy":12938,"iven":12939,"Ġherb":12940,"vagant":12941,"Ġhellscape":12942,"Ġrubble":12943,"ĠAfshar":12944,"Ġdistortion":12945,"Ġscorpion":12946,"cers":12947,"nor":12948,"Ġbeau":12949,"Ġpelton":12950,"chett":12951,"ased":12952,"Ġsunrays":12953,"ĠFre":12954,"Ġluke":12955,"iversity":12956,"ĠYoda":12957,"Ġparchment":12958,"Ġarchviz":12959,"airbrush":12960,"Ġshouting":12961,"Ġalvarado":12962,"aguar":12963,"Ġintercrossed":12964,"38":12965,"Ġcd":12966,"Ġding":12967,"Ġfont":12968,"lofi":12969,"Ġster":12970,"odles":12971,"dem":12972,"Ġchase":12973,"ĠEast":12974,"Ġglobster":12975,"ĠRobbie":12976,"owned":12977,"lieva":12978,"Ġcurled":12979,"ĠShrek":12980,"Ġbontem":12981,"Ġclint":12982,"ĠHenri":12983,"grunge":12984,"violet":12985,"Ġinfographic":12986,"Ġamiami":12987,"Ġmagnolia":12988,"Ġbontempi":12989,"',":12990,"tl":12991,"Ġlilia":12992,"uder":12993,"ggling":12994,"Ġcamel":12995,"Ġguys":12996,"yota":12997,"Ġfreak":12998,"Ġautoma":12999,"Ġwrestler":13000,"ĠGiraud":13001,"goth":13002,"Ġcame":13003,"lien":13004,"Ġkrentz":13005,"!!.":13006,"Ġheat":13007,"Ġcovers":13008,"Ġprints":13009,"betan":13010,"ĠAlan":13011,"Ġburly":13012,"Ġharper":13013,"Ġbleak":13014,"Ġboxes":13015,"Ġhiphop":13016,"Ġwisdom":13017,"Ġstuffed":13018,"Ġhallucinations":13019,"Ġprosthetic":13020,"Ġcrusader":13021,"dead":13022,"Ġsupp":13023,"Ġodyssey":13024,"Ġlilac":13025,"edgehog":13026,"Ġpatri":13027,"Ġpaints":13028,"ĠAlena":13029,"ĠBern":13030,"ĠHad":13031,"ĠPas":13032,"ĠEarl":13033,"licated":13034,"Ġplaid":13035,"Ġmedic":13036,"Ġeden":13037,"mming":13038,"Ġsketches":13039,"luminescent":13040,"Ġembedded":13041,"Ġartur":13042,"Ġpati":13043,"Ġmaker":13044,"kien":13045,"mour":13046,"borough":13047,"ĠLast":13048,"Ġstewart":13049,"ublic":13050,"Ġtrader":13051,"resolution":13052,"Ġmidsommar":13053,"Ġintergalactic":13054,"Ġcharismatic":13055,"Ġblaas":13056,"ĠBouguerea":13057,"Ġbulging":13058,"Ġexpert":13059,"Ġjawline":13060,"Ġauguste":13061,"Ġscythe":13062,"Ġpointillism":13063,"God":13064,"gta":13065,"Ġsul":13066,"Ġdanton":13067,"Ġchick":13068,"ĠDeco":13069,"Ġchirico":13070,"ĠZawadzki":13071,"Ġverd":13072,"Ġtilted":13073,"usama":13074,"Ġbecoming":13075,"velyn":13076,"Ġcoconut":13077,"Ġalo":13078,"Ġfri":13079,"anato":13080,"robe":13081,"racy":13082,"ĠBio":13083,"Ġcane":13084,"Ġedvard":13085,"Ġilluminating":13086,"Ġcurtain":13087,"Ġambience":13088,"Ġparametric":13089,"Ġexistence":13090,"nell":13091,"oir":13092,"rr":13093,"sar":13094,"tokyo":13095,"eander":13096,"Ġlang":13097,"ĠDO":13098,"Ġbarb":13099,"Ġseahorse":13100,"ĠStrangling":13101,"Ġbulky":13102,"Photorealistic":13103,"Ġbrandishing":13104,"Ġwrinkles":13105,"Ġcrumbling":13106,"Ġmorphing":13107,"ĠBotticelli":13108,"Ġdunk":13109,"ecu":13110,"Ġlobby":13111,"ĠLens":13112,"Ġadap":13113,"Ġperforman":13114,"Ġmint":13115,"Ġsnowing":13116,"Ġurschel":13117,"smiling":13118,"Ġputting":13119,"Ġaddams":13120,"Ġgosling":13121,"cli":13122,"fro":13123,"ested":13124,"amet":13125,"Ġtimo":13126,"Ġadidas":13127,"Ġswat":13128,"Ġgerm":13129,"Ġsalad":13130,"ĠMiku":13131,"Ġcavill":13132,"Ġhabitat":13133,"So":13134,"Ġcobalt":13135,"uda":13136,"Ġmanara":13137,"ĠFrog":13138,"Ġnightmarish":13139,"ustrop":13140,"Ġceil":13141,"floating":13142,"ĠFilip":13143,"rannosaurus":13144,"Ex":13145,"shaw":13146,"tasha":13147,"aruto":13148,"Ġkyle":13149,"Ġlain":13150,"ĠDol":13151,"ĠKubrick":13152,"ĠVis":13153,"brera":13154,"umpy":13155,"cave":13156,"Ġfuel":13157,"Ġcrossover":13158,"Ġruggedly":13159,"Ġbudapest":13160,"ĠBasquiat":13161,"Me":13162,"cir":13163,"Ġhers":13164,"robert":13165,"Ġkittens":13166,"ittman":13167,"lsr":13168,"ĠElle":13169,"Ġshells":13170,"ĠÂ©":13171,"Ġkincade":13172,"Ġcelebrating":13173,"Ġconvention":13174,"lest":13175,"Ġhubble":13176,"ĠAenami":13177,"ĠSFW":13178,"Ġsocial":13179,"Ġmiya":13180,"Ġreflex":13181,"lisk":13182,"ĠKopera":13183,"Ġgateway":13184,"shaped":13185,"Ġsplatters":13186,"Ġmathematics":13187,"Ġdaisies":13188,"academia":13189,"emo":13190,"kodon":13191,"mill":13192,"rd":13193,"Ġminotaur":13194,"Ġwiley":13195,"Ġghi":13196,"ĠAlen":13197,"ĠSai":13198,"Ġdarkacademia":13199,"rison":13200,"Ġstealing":13201,"Ġnightsky":13202,"yote":13203,"issan":13204,"igeru":13205,"Ġpulled":13206,"Ġwashing":13207,"Ġayanamikodon":13208,"Ġchimney":13209,"Ġcampaign":13210,"Ġperformance":13211,"Ġceilings":13212,"37":13213,"multi":13214,"oit":13215,"itler":13216,"Ġparan":13217,"umm":13218,"ĠPre":13219,"nsky":13220,"Ġsoftly":13221,"Ġiii":13222,"Ġundertones":13223,"ĠRoerich":13224,"Ġcurious":13225,"logist":13226,"Ġjesse":13227,"Ġintensely":13228,"Ġcluster":13229,"Ġswans":13230,"Ġmurder":13231,"Ġflamingo":13232,"Ġtripod":13233,"Ġmonitors":13234,"transparent":13235,"ography":13236,"tub":13237,"vian":13238,"wined":13239,"pota":13240,"ĠGi":13241,"Ġfork":13242,"Ġnightvision":13243,"pirate":13244,"dition":13245,"colourful":13246,"Jesus":13247,"gla":13248,"james":13249,"Ġtyson":13250,"Ġrotte":13251,"Ġgovern":13252,"Ġswiss":13253,"Ġfacade":13254,"Ġmonocle":13255,"Ġmegacity":13256,"Ġpratt":13257,"tivating":13258,"Ġidentical":13259,"Ġbruegel":13260,"enerys":13261,"45":13262,"agon":13263,"lisa":13264,"Ġleaks":13265,"Ġatte":13266,"Ġtaco":13267,"Ġtear":13268,"ĠDiego":13269,"Ġfilthy":13270,"Ġgreenery":13271,"Ġweek":13272,"found":13273,"Ġintrig":13274,"Ġderek":13275,"akuza":13276,"Ġarranged":13277,"Ġrottela":13278,"aprio":13279,"Ġboats":13280,"ĠDare":13281,"insanely":13282,"Ġblocking":13283,"Ġwagon":13284,"Ġwrecked":13285,"ĠWaterhouse":13286,"waiian":13287,"demort":13288,"Ġlivia":13289,"Ġcopic":13290,"irby":13291,"Ġascending":13292,"ller":13293,"Ġoutstanding":13294,"Ġswarm":13295,"Ġfanning":13296,"Ġhydra":13297,"Ġxia":13298,"Ġarchive":13299,"ĠBlizzard":13300,"Ġantenna":13301,"gam":13302,"Ã§":13303,"Ġmillais":13304,"stler":13305,"Ġthai":13306,"esh":13307,"Ġcobra":13308,"Ġmath":13309,"section":13310,"george":13311,"rified":13312,"Ġleia":13313,"Ġmans":13314,"Ġmanual":13315,"erez":13316,"ĠPikachu":13317,"Ġdramatically":13318,"ronenberg":13319,"Ġdiver":13320,"Ġhorrors":13321,"Ġamusement":13322,"bain":13323,"Ġmuti":13324,"Ġcalming":13325,"Ġgeoff":13326,"Ġdisplayed":13327,"Ġvirgil":13328,"Ġmemory":13329,"lociraptor":13330,"Ġrhyth":13331,"Ġachieve":13332,"Ġherself":13333,"Boris":13334,"Le":13335,"cated":13336,"Ġbrow":13337,"Ġdix":13338,"Ġoz":13339,"iche":13340,"itc":13341,"utura":13342,"Ġlett":13343,"Ġalways":13344,"Ġarrogant":13345,"Ġelegance":13346,"Ġcakes":13347,"ĠChan":13348,"Ġzar":13349,"ĠKanye":13350,"Ġbiotech":13351,"ughan":13352,"Ġtanks":13353,"Ġtakehiko":13354,"Ġmechanics":13355,"Ġhauntingly":13356,"Ġgranite":13357,"Ġbuddhist":13358,"querque":13359,"Render":13360,"tur":13361,"Ġcash":13362,"lel":13363,"eline":13364,"Ġshines":13365,"ĠDwayne":13366,"Ġmean":13367,"Ġmcque":13368,"Ġplanes":13369,"Ġpancakes":13370,"spongebob":13371,"ucked":13372,"Ġgentile":13373,"marble":13374,"Ġcheeseburger":13375,"Ġdistrict":13376,"Ġstreams":13377,"Ġitaly":13378,"Ġaudubon":13379,"Ġmeters":13380,"Ġtools":13381,"Ġtangled":13382,"Ġinfluenced":13383,"mw":13384,"Ġanaglyph":13385,"Ġfou":13386,"Ġhyperealistic":13387,"ĠAud":13388,"Ġraid":13389,"Ġbaugh":13390,"ðŁ¥":13391,"Ġrobust":13392,"thomas":13393,"Ġportals":13394,"Ġappears":13395,"Ġscrap":13396,"Ġrutkowsk":13397,"Ġqwek":13398,"Ġproportionate":13399,"incredibly":13400,"fallout":13401,"Ġsausage":13402,"ĠPortman":13403,"Ġfence":13404,"Ġwired":13405,"Ġrated":13406,"Ġbarrel":13407,"Ġprofessor":13408,"nedy":13409,"Ġstudents":13410,"Ġweathered":13411,"00000000":13412,"Ġpolitic":13413,"Ġremote":13414,"Ġawakening":13415,"Alex":13416,"ata":13417,"Ġ@":13418,"ulp":13419,"devil":13420,"Ġasleep":13421,"ĠLow":13422,"ĠElizabeth":13423,"Ġtiss":13424,"usty":13425,"Ġsupernova":13426,"Ġfake":13427,"ressionism":13428,"Ġchihiro":13429,"ĠZa":13430,"Ġsqua":13431,"Ġstrike":13432,"Ġroyalty":13433,"godzilla":13434,"evee":13435,"Ġeastwood":13436,"ĠThrones":13437,"Ġcookie":13438,"Ġsparse":13439,"15":13440,"Ġdeal":13441,"mander":13442,"Ġvoodoo":13443,"sterdam":13444,"Ġraging":13445,"pest":13446,"Ġstrings":13447,"rington":13448,"breaking":13449,"Ġmechanized":13450,"Ġthighs":13451,"phor":13452,"sung":13453,"Ġä":13454,"Ġdescri":13455,"Ġdevelop":13456,"Ġlean":13457,"ĠJedi":13458,"Ġmeet":13459,"Ġmarilyn":13460,"ĠFree":13461,"Ġperched":13462,"Ġbiting":13463,"ĠLehr":13464,"Ġmerging":13465,"ĠGoya":13466,"Ġstreamlined":13467,"Ġreveal":13468,"Ġmessage":13469,"Ġseraph":13470,"iosities":13471,"bull":13472,"Ġagon":13473,"Ġborn":13474,"Ġcrou":13475,"Ġohara":13476,"livia":13477,"Ġoptim":13478,"Ġbanner":13479,"saurus":13480,"Ġspiraling":13481,"Ġfederic":13482,"gendstil":13483,"anguy":13484,"Ġslowly":13485,"Ba":13486,"bony":13487,"cio":13488,"kate":13489,"Ġcrest":13490,"Ġhillier":13491,"Ġkrie":13492,"Ġrealistically":13493,"Ġrazu":13494,"ĠWW":13495,"bylla":13496,"Ġinferno":13497,"zukal":13498,"Ġmegatron":13499,"Ġentertain":13500,"keanu":13501,"Ġchemical":13502,"orientalism":13503,"70":13504,"fink":13505,"zquez":13506,"Ġayahuasca":13507,"Ġcoal":13508,"Ġshelf":13509,"Ġros":13510,"Ġredon":13511,"brane":13512,"Ġ768":13513,"Ġmounted":13514,"Ġmaximalism":13515,"Ġhalfling":13516,"Ġgrandiose":13517,"ĠHarley":13518,"tivism":13519,"ĠQuinn":13520,"Ġdeformed":13521,"zukalski":13522,"Ġpush":13523,"Ġkeathley":13524,"sec":13525,"Ġraising":13526,"ĠMary":13527,"ĠDC":13528,"ĠCastle":13529,"ĠJennifer":13530,"ĠEgyptian":13531,"vener":13532,"Ġpenn":13533,"Ġsandoval":13534,"ĠEddie":13535,"ĠLouis":13536,"Ġembroidery":13537,"Ġmarketplace":13538,"Character":13539,"Ġabstraction":13540,"Ġsart":13541,"Ġmillie":13542,"berge":13543,"Ġexte":13544,"ĠLED":13545,"Ġsuns":13546,"Ġridd":13547,"ĠEdlin":13548,"Ġornamented":13549,"Ġpolygonal":13550,"Ġstippling":13551,"building":13552,"Ġalternate":13553,"Ġbeckinsale":13554,"Ġkowloon":13555,"Ph":13556,"à¸":13557,"Ġsoda":13558,"Ġpatro":13559,"eliness":13560,"Ġshrouded":13561,"ĠAven":13562,"Ġrats":13563,"ells":13564,"andom":13565,"gab":13566,"Ġoutram":13567,"Ġcarrot":13568,"Ġstocking":13569,"lashes":13570,"burgers":13571,"Ġkehinde":13572,"ĠMona":13573,"Ġdiscover":13574,"Ġdrums":13575,"Ġrigney":13576,"strange":13577,"Ġstainless":13578,"ĠDarek":13579,"Ġrein":13580,"Ġpasto":13581,"alice":13582,"Ġmoose":13583,"Ġcompetition":13584,"hemian":13585,"ĠðŁ¤":13586,"Ġsatur":13587,"Ġlinen":13588,"Ġaudience":13589,"Ġmembrane":13590,"ĠDalÃŃ":13591,"Ġgentileschi":13592,"yellow":13593,"Ġmaw":13594,"Ġantarctica":13595,"Ġcavener":13596,"Ġwee":13597,"Ġcontrasts":13598,"Ġcollos":13599,"ĠMoran":13600,"Ġmangaka":13601,"Ġsamori":13602,"Ġ2019":13603,"Ġrippling":13604,"Ġworkers":13605,"Ġmetaphysical":13606,"Ġeternity":13607,"Ġsinking":13608,"computer":13609,"wyn":13610,"Ġwr":13611,"Ġrepa":13612,"amen":13613,"deco":13614,"Ġlining":13615,"Ġbegin":13616,"Ġcycle":13617,"Ġmagma":13618,"ande":13619,"ĠFro":13620,"ysch":13621,"beard":13622,"Ġmasch":13623,"iseled":13624,"Ġyellowcake":13625,"Ġ196":13626,"Ġrepeating":13627,"Ġclaustrop":13628,"Ġjuicy":13629,"Ġmusician":13630,"escape":13631,"ĠTerminator":13632,"bil":13633,"Ġopp":13634,"Ġremin":13635,"eder":13636,"Ġpasta":13637,"bergh":13638,"ĠTanguy":13639,"ifu":13640,"Ġmerkel":13641,"Ġattacked":13642,"retched":13643,"ðŁĮĪ":13644,"Ġtriangular":13645,"ĠMorbacher":13646,"Ġmeaningful":13647,"ĠCruise":13648,"Ġsienkiewicz":13649,"Ġgiorgio":13650,"En":13651,"wen":13652,"Ķ¥":13653,"Ġmun":13654,"liam":13655,"tock":13656,"Ġthese":13657,"Ġvalls":13658,"Ġsparrow":13659,"Ġcht":13660,"Ġmeditation":13661,"Ġshepherd":13662,"Ġhirano":13663,"Ġextravagant":13664,"ĠHend":13665,"Ġentwined":13666,"Ġbautista":13667,"Ġramsay":13668,"Ġiwasaki":13669,"Ġkrieger":13670,"inea":13671,"Ġjerry":13672,"iest":13673,"epp":13674,"Ġpigeon":13675,"Ġgnar":13676,"Ġcorrupted":13677,"Ġlilith":13678,"ĠAss":13679,"Ġsug":13680,"Ġcann":13681,"Ġcatsuit":13682,"Ġdale":13683,"restial":13684,"Ġambian":13685,"Ġinternational":13686,"Ġcollie":13687,"Ġmorbid":13688,"ĠWarhol":13689,"Ġashes":13690,"Ġelectron":13691,"Ġpockets":13692,"Ġcumulus":13693,"ĠBurns":13694,"Ġambiance":13695,"Illustration":13696,"flex":13697,"hlo":13698,"iton":13699,"mares":13700,"Ġshigeru":13701,"imoto":13702,"shua":13703,"ffer":13704,"Ġupright":13705,"2022":13706,"Ġbrazil":13707,"hobic":13708,"1999":13709,"Ġextraterrestial":13710,"ĠFrederic":13711,"Ġencrusted":13712,"garyen":13713,"now":13714,"Ġcels":13715,"unted":13716,"Ġlima":13717,"Ġphotoillustration":13718,"ĠGiant":13719,"native":13720,"ĠEinstein":13721,"Ġbigger":13722,"Ġhenderson":13723,"Ġcuriosities":13724,"Ġhires":13725,"Ġbursting":13726,"Ġhillside":13727,"Ġflex":13728,"Ġcriminal":13729,"Ġmurray":13730,"Ġmurphy":13731,"ĠBastien":13732,"Yo":13733,"cats":13734,"Ġkints":13735,"Ġtsun":13736,"Ġrogan":13737,"Ġexile":13738,"ĠGun":13739,"Ġbaking":13740,"Ġflowy":13741,"Ġbiod":13742,"!!!!!!!!!":13743,"Ġmodernism":13744,"Ġbananas":13745,"Ġlookbook":13746,"Ġomnious":13747,"sunset":13748,"Ġsalesman":13749,"nik":13750,"rable":13751,"lev":13752,"Ġtutu":13753,"rible":13754,"Ġgrad":13755,"ĠLes":13756,"Ġnaive":13757,"Ġdeno":13758,"Ġjugendstil":13759,"Ġmatthew":13760,"Ġpastoral":13761,":.":13762,"Ġdlsr":13763,"Ġpads":13764,"lorida":13765,"ĠRea":13766,"ĠBean":13767,"Ġherbert":13768,"ĠIl":13769,"Ġcaptivating":13770,"itadel":13771,"ĠHyperrealistic":13772,"Ġvenice":13773,"Ġiyem":13774,"Oil":13775,"only":13776,"lize":13777,"icana":13778,"Ġinde":13779,"acious":13780,"mand":13781,"Ġconstable":13782,"vec":13783,"Ġstains":13784,"Ġchiseled":13785,"ĠBel":13786,"ĠKai":13787,"illar":13788,"ĠVision":13789,"ethereal":13790,"Ġrefractive":13791,"aaaa":13792,"ĠLynch":13793,"Ġachievement":13794,"Nic":13795,"Ġaya":13796,"Ġdas":13797,"isms":13798,"uding":13799,"Ġrimlight":13800,"rocery":13801,"fairy":13802,"ĠĠĠĠ":13803,"Ġyuji":13804,"Ġchainsaw":13805,"Ġprojec":13806,"ĠSchmid":13807,"Ġstupid":13808,"vana":13809,"yons":13810,"Ġari":13811,"tious":13812,"Ġfanta":13813,"Ġklein":13814,"Ġonion":13815,"Ġnuri":13816,"Ġatkinson":13817,"ĠHel":13818,"sable":13819,"does":13820,"Ġrides":13821,"ĠAndrews":13822,"Ġratfink":13823,"ĠScarlett":13824,"ĠDevito":13825,"TS":13826,"Ġess":13827,"Ġsr":13828,"Ġther":13829,"Ġtheory":13830,"vera":13831,"ĠBlan":13832,"Ġneu":13833,"ĠPey":13834,"Ġgodfather":13835,"Ġsauc":13836,"Ġhips":13837,"Ġrussia":13838,"Ġspectral":13839,"Ġmegalo":13840,"Ġshinjuku":13841,"eronis":13842,"lemn":13843,"Ġvacuum":13844,"Ġhive":13845,"Ġwoo":13846,"icking":13847,"aldo":13848,"Ġvor":13849,"ĠAivazovsky":13850,"Ġcheap":13851,"Ġspacetime":13852,"pend":13853,"Ġmenu":13854,"Ġmetaphor":13855,"Ġsplattered":13856,"ĠSwift":13857,"Ġwolves":13858,"Ġbinary":13859,"Ġgenetic":13860,"Po":13861,"nature":13862,"sor":13863,"Ġmong":13864,"Ġcob":13865,"Ġrosa":13866,"ures":13867,"Ġtotoro":13868,"ĠFace":13869,"Ġcraola":13870,"Ġwebb":13871,"empty":13872,"Ġarchitect":13873,"itama":13874,"Ġcourtroom":13875,"ĠNatalie":13876,"Ġcyclops":13877,"Ġaverage":13878,"Ġgleaming":13879,"ĠHadid":13880,"Ġrear":13881,"edom":13882,"hai":13883,"perate":13884,"Ġtow":13885,"Ġexact":13886,"Ġgrumpy":13887,"Ġstories":13888,"Ġsnap":13889,"Ġhierog":13890,"Ġnasmith":13891,"johnny":13892,"Ġsimplistic":13893,"Ġtankoban":13894,"Ġsuffering":13895,"Ġmiyake":13896,"birds":13897,"gets":13898,"will":13899,"inki":13900,"Ġclinton":13901,"Ġhuss":13902,"istan":13903,"Ġjudy":13904,"ĠApex":13905,"Ġlaun":13906,"aping":13907,"Ġredwood":13908,"ĠLum":13909,"akh":13910,"Ġsale":13911,"Ġhugo":13912,"Ġkoson":13913,"Ġkoala":13914,"Ġsurrounds":13915,"Ġuser":13916,"Ġvoxel":13917,"ĠDogg":13918,"Ġsundress":13919,"Ġcontour":13920,"Ġmaschinen":13921,"jennifer":13922,"enna":13923,"Ġuncropped":13924,"Ġwatermark":13925,"ubbs":13926,"Ġalita":13927,"ĠNolan":13928,"Ġpersonal":13929,"Ġwatercolors":13930,"Ġballroom":13931,"Ġstall":13932,"mission":13933,"putin":13934,"Ġclow":13935,"ulonim":13936,"ĠPop":13937,"inspiring":13938,"Ġmartial":13939,"Ġswallow":13940,"Ġtranshuman":13941,"believa":13942,"agetsu":13943,"Ġhandmade":13944,"Ġcrowds":13945,"Ġchildrens":13946,"ĠPhotolab":13947,"ĠSwynnerton":13948,"ĠCrew":13949,"Ġtestino":13950,"ulonimbus":13951,"??":13952,"ĠSea":13953,"ĠRam":13954,"Ġfiber":13955,"ĠBay":13956,"ivine":13957,"Ġrossetti":13958,"bliv":13959,"âĢį":13960,"Ġvisco":13961,"velli":13962,"Ġsheer":13963,"Ġrobed":13964,"Ġexploded":13965,"Ġphones":13966,"Ġcells":13967,"Ġgilbert":13968,"arovski":13969,"Ġcartoony":13970,"candid":13971,"mt":13972,"nut":13973,"Ġshrimp":13974,"ĠTar":13975,"image":13976,"Ġcolorfully":13977,"illis":13978,"Ġwitches":13979,"Ġmerian":13980,"Ġpirates":13981,"plastic":13982,"spiderman":13983,"Ġodilon":13984,"ĠPsycho":13985,"Mich":13986,"gordon":13987,"look":13988,"ĠAndy":13989,"Ġracoon":13990,"Ġalm":13991,"cock":13992,"ĠDarrow":13993,"Ġdisaster":13994,"Ġedou":13995,"Ġlanded":13996,"Ġsax":13997,"ĠOut":13998,"connec":13999,"Ġcomplicated":14000,"ĠCheng":14001,"Ġbrushwork":14002,"Ġbenoit":14003,"Ġkodakchrome":14004,"ĠAdams":14005,"Ġpetting":14006,"ĠHyung":14007,"Ġmantle":14008,"LE":14009,"fc":14010,"tact":14011,"tik":14012,"aru":14013,"Ġmash":14014,"Ġpodium":14015,"ateman":14016,"Ġgreens":14017,"Ġmoist":14018,"Ġbocklin":14019,"Ġhorde":14020,"Ġenvironments":14021,"Ġopus":14022,"Ġmodernist":14023,"ĠMagazine":14024,"Ġterrac":14025,"Ġgroo":14026,"broken":14027,"Bo":14028,"Big":14029,"TX":14030,"wizard":14031,"Ġbree":14032,"Ġdiane":14033,"Ġlightpaint":14034,"Ġllustration":14035,"ĠMal":14036,"ĠHill":14037,"urav":14038,"wei":14039,"Ġinfor":14040,"Ġelectro":14041,"ĠSouls":14042,"Ġblindfold":14043,"ĠJulie":14044,"Ġrecording":14045,"TR":14046,"yoda":14047,"Ġdash":14048,"Ġgel":14049,"Ġgross":14050,"ĠAc":14051,"ĠRod":14052,"Ġdoodle":14053,"Ġcatwalk":14054,"venge":14055,"ĠUFO":14056,"Ġnorse":14057,"Ġhotdog":14058,"Ġsibylla":14059,"hybrid":14060,"Ġcandlelight":14061,"Ġcrivelli":14062,"Ġpennywise":14063,"Ġkaleidos":14064,"Ġstockings":14065,"300":14066,"Co":14067,"fab":14068,"uing":14069,"ullo":14070,"Ġonce":14071,"urf":14072,"amily":14073,"ĠHas":14074,"eane":14075,"Ġnightmares":14076,"Ġdye":14077,"Ġcatching":14078,"Ġmcfarlane":14079,"Ġpartly":14080,"Ġkahlo":14081,"bbean":14082,"ĠYoung":14083,"editorial":14084,"Ġ((((":14085,"Ã¡nd":14086,"Ġponzi":14087,"Ġconnelly":14088,"UHD":14089,"bucks":14090,"oma":14091,"½ľ":14092,"Ġ{":14093,"Ġcly":14094,"Ġgrocery":14095,"Ġjaguar":14096,"Ġcinecolor":14097,"Ġloom":14098,"ĠMiller":14099,"Ġtala":14100,"Ġfragonard":14101,"Ġtwitter":14102,"coming":14103,"Ġvolcanic":14104,"Ġribbon":14105,"Ġmembers":14106,"Ġgrizzly":14107,"tility":14108,"Ġdachshund":14109,"gend":14110,"Ġalco":14111,"ĠSat":14112,"ĠCos":14113,"Ġjeong":14114,"Ġsamuel":14115,"Ġspotted":14116,"Ġpillow":14117,"Ġdementor":14118,"Ġbillie":14119,"mech":14120,"Ġzach":14121,"Ġsoftware":14122,"Ġmononoke":14123,"century":14124,"Ġmiro":14125,"Ġblom":14126,"Ġfaberge":14127,"ðŁļ":14128,"Ġtwitch":14129,"linger":14130,"Ġchiang":14131,"bbits":14132,"Ġcutting":14133,"african":14134,"Ġinspiration":14135,"emption":14136,"Ġwiccan":14137,"Ġtsunami":14138,"Ġedouard":14139,"Dark":14140,"ĸ¯":14141,"Ġchased":14142,"ĠDoom":14143,"Ġgrabbing":14144,"peg":14145,"ernal":14146,"Ġsega":14147,"Ġfavela":14148,"Ġmidjourney":14149,"Ġsamo":14150,"Ġchoice":14151,"Ġemerges":14152,"Ġqi":14153,"Ġarabic":14154,"Ġneedle":14155,"iliano":14156,"ãĤ¤ãĥį":14157,"Ġcalligraphy":14158,"Epic":14159,"fec":14160,"kishi":14161,"sle":14162,"¦Ļ":14163,"Ġsie":14164,"tham":14165,"Ġwy":14166,"Ġkillian":14167,"neo":14168,"poor":14169,"Ġhyperspace":14170,"ĠAu":14171,"Ġbog":14172,"ĠWalt":14173,"ĠLazar":14174,"licity":14175,"Ġmarion":14176,"Ġmonkeys":14177,"thern":14178,"ĠNguyen":14179,"Ġstreaks":14180,"Ġtrails":14181,"Ġmina":14182,"construc":14183,"Ġhello":14184,"Ġcalle":14185,"Ġnecktie":14186,"Ġdolls":14187,"tificial":14188,"Ġtranscendent":14189,"ĠCrewdson":14190,"brown":14191,"tah":14192,"Ġming":14193,"Ġkart":14194,"Ġcoll":14195,"etzal":14196,"Ġposi":14197,"Ġfoil":14198,"omo":14199,"tero":14200,"mored":14201,"ĠAbra":14202,"Ġyakuza":14203,"Ġhos":14204,"Ġheavens":14205,"ĠPy":14206,"Ġbrim":14207,"Ġselect":14208,"mickey":14209,"Ġbrook":14210,"Ġsandstorm":14211,"Ġbergey":14212,"Ġglare":14213,"children":14214,"onimus":14215,"Ġerupting":14216,"Ġtouhou":14217,"ĠZaha":14218,"ĠPeyravernay":14219,"='":14220,"kon":14221,"Ġ%":14222,"Ġalumin":14223,"Ġmummy":14224,"liath":14225,"Ġanni":14226,"Ġrouss":14227,"Ġstack":14228,"pier":14229,"Ġsupermarket":14230,"Ġsmiles":14231,"gutan":14232,"ĠPoster":14233,"Ġdmit":14234,"Ġlennon":14235,"Ġcecile":14236,"Ġarchival":14237,"Chris":14238,"Ġé¦Ļ":14239,"keeper":14240,"Ġmortensen":14241,"ĠEyck":14242,"Ġèĸ¯":14243,"Ġasy":14244,"unberg":14245,"Ġlives":14246,"latin":14247,"ĠstÃ¥lenhag":14248,"syl":14249,"Ġshops":14250,"adorable":14251,"Ġissey":14252,
[...]
